#version: 0.2 - Trained by `huggingface/tokenizers`
Ġ t
Ġ a
Ġt h
i n
e r
o u
o n
Ġ s
Ġ i
Ġth e
r e
a t
Ġ w
Ġ c
o r
e s
in g
a n
e n
Ġ b
Ġ f
Ġt o
Ġ d
l e
Ġ m
Ġ I
Ġ y
e d
Ġy ou
Ġ p
Ġa n
s t
Ġ h
l l
Ġ in
i t
Ġ n
i on
Ġ o
Ġi t
Ġi s
o m
s e
c t
a r
Ġ u
o t
Ġ l
e t
o w
i s
Ġ re
u t
v e
Ġan d
Ġ e
i c
Ġth at
a s
Ġo f
a l
r o
en t
Ġw h
Ġb e
d e
Ġf or
Ġ g
l d
T h
Ġ on
Ġ `
Ġ Ġ
l y
a m
a y
v er
Ġd o
a c
Ġn ot
. .
a d
it h
ou ld
es t
Ġth is
' t
q u
b le
i d
Ġh a
Ġs t
er e
a ll
k e
Ġw ith
r i
Ġp ro
Ġa s
Ġyou r
t h
c e
k s
at e
Ġha ve
Ġb ut
Ġe x
o o
h t
Ġ Th
e c
Ġc o
' s
a g
Ġc an
ou t
i m
p p
Ġu s
Ġ (
c h
i ll
at ion
Ġw or
Ġn e
Ġf i
Ġc on
t er
Ġ A
u n
Ġ j
Ġs e
Ġs o
Ġa re
Ġ v
u st
m ent
Ġ S
Ġm y
i g
e ct
p t
e m
Ġs h
Ġi f
Ġs u
Ġl i
Ġ qu
n d
p le
u l
Ġc h
es s
Ġc om
Ġ or
an t
o re
all y
i f
Ġ "
am e
Ġp o
Ġco de
p l
est ion
ĠĠ ĠĠ
Ġu se
an d
i l
t p
u r
Ġwh at
Ġs om
c om
Ġm e
r y
/ /
an ks
s w
Ġ r
Ġa l
a se
: //
r om
e l
Ġwor k
a in
Ġ C
Ġw ill
ct ion
ac k
Ġj ust
sw er
s o
Ġd e
l o
ag e
et h
Ġ -
Ġan swer
o d
a ble
Ġw ould
u e
Ġg et
Ġne ed
in k
.. .
u m
Y ou
Ġw as
Ġdo es
an g
Ġd on
Ġa t
Ġa d
Ġf rom
Ġ W
a b
Ġa ll
in d
Ġli ke
f er
i e
Ġan y
Ġqu estion
s s
Ġw ant
er s
Ġm a
en d
Ġa b
Ġth ere
Ġus ing
as s
Ġc l
n t
Ġ k
e x
Ġa pp
in e
Ġsh ould
u s
ic h
j ect
a v
) .
Ġl oo
Ġu p
or t
Ġsom e
Ġad d
ble m
Ġw e
Ġ :
Ġi m
ar t
Ġ B
a ct
Ġon e
Ġ P
Ġpro blem
Ġb y
p er
p e
Ġ out
ou g
Ġ M
Ġ D
Ġh ow
Ġh t
' m
ul t
i st
Ġ O
Ġwh en
n ow
Ġd at
Ġthe n
at ed
in t
Ġl o
ac h
i ve
i re
Ġon ly
( )
Ġv al
Ġk now
r or
it e
Ġwh ich
t o
Ġt ry
Ġ 1
u re
Ġht tp
im e
Ġm ore
r ing
u se
Ġth ink
a re
Ġw ay
Ġcon t
Ġ H
ver y
ĠTh e
ĠI t
Ġse e
i z
el p
Ġn o
un ction
a st
0 0
Ġw r
i de
Ġab out
k ing
Ġa r
a p
i v
er ror
ie w
th er
oug h
Ġs ame
i r
or m
Ġin st
Ġh elp
Ġ le
a use
h at
Ġa m
ou nd
Ġd id
ou r
i le
Ġso l
Ġ =
Ġ You
Ġ *
Ġfi le
l ow
Ġ error
ex t
Ġ J
Ġh as
ht tp
Ġ N
ig ht
Ġ [
ot h
Ġf unction
e ad
Ġs et
Ġ F
b ject
Ġre s
Ġc ould
re ad
c ri
Ġch ang
eth od
ow s
Ġs p
ic e
Ġ '
Ġa c
ac e
o de
Ġo ther
it y
ĠI f
on g
am ple
c l
t ing
c ess
ri g
ar d
Ġpo st
er y
ec k
Ġp re
Ġ 2
Ġth an
Ġm ethod
Ġ T
Ġcom p
Ġd if
g r
pt ion
Ġdat a
Ġe v
l es
ut ion
Ġ U
Ġu n
e ll
Ġcl ass
ur n
a il
Ġal so
ar i
ĠĠĠĠ ĠĠĠĠ
Ġs er
o c
Ġt ime
Ġ E
p o
u ally
s ion
Ġc all
m l
Th anks
Ġdoes n
' re
i al
Ġt r
Ġc re
on t
Ġg o
Ġr un
nd er
rig ht
ic k
f orm
Ġdif fer
Ġbe c
en ce
o ver
Ġ R
Ġme an
Ġma ke
eth ing
ar y
Ġne w
Ġbec ause
le ase
Ġa ct
y pe
g g
p ut
cri pt
o l
Ġp l
' ve
f low
Ġre t
Ġst ill
or re
Ġn ow
oo d
o ve
] (
r ay
ĠTh anks
at h
Ġb et
Ġ en
Ġs im
on e
Ġsu re
` .
Ġt ri
Ġ right
Ġsol ution
Ġwor ks
Ġp er
Ġsom ething
Ġex ample
Ġ G
t e
i ble
Ġfi r
ic ation
f f
Ġfir st
or y
Ġthe y
l i
Ġde f
Ġ: )
o st
Ġo bject
orre ct
Ġin to
Ġwh y
w w
b er
Ġthe m
Ġu nder
on d
Ġ L
or d
Ġre ad
Ġm ay
u ch
em s
over flow
Ġch eck
ĠB ut
w ay
Ġh ere
ack overflow
an k
Ġret urn
Ġm an
ig n
u ll
Ġtri ed
Ġth ing
Ġval ue
ow n
r u
Ġwh ere
Ġa g
' ll
st ackoverflow
f ter
i es
Ġs ay
a ve
Ġre ally
s er
Ġm uch
ment s
Ġpo int
Ġc ase
f ore
Ġup d
b e
an ce
Ġre qu
Ġloo k
Ġ very
Ġd is
Ġ ?
Ġ ke
u g
en er
Ġ .
e p
w h
I t
i p
Ġc orrect
Ġsp ec
ed it
Ġus ed
Th e
Ġdiffer ent
estion s
Ġst ring
ou s
Ġ ver
it ion
Ġfor m
t y
le d
iz e
Ġp art
) ;
Ġus er
Ġs c
a ke
g et
ĠI n
av a
Ġis s
le ct
Ġin ter
u b
Ġre m
Ġit s
p re
Ġo ver
Ġf ind
Ġt est
Ġp age
oth er
Ġg ood
st and
Ġwork ing
c k
Ġ edit
Ġli st
th ing
I n
Ġv ari
u es
s h
qu estions
r a
p h
Ġco l
Ġa fter
Ġs y
ire ct
Ġp ar
at ch
Ġchang e
Ġser ver
b r
Ġl ine
Ġm ight
Ġl ink
ss ible
n ot
Ġto o
Ġth anks
n ing
Ġ 3
Ġtry ing
Ġe very
Ġbe fore
Ġinst ead
u al
Ġar ray
at ing
ĠTh is
Ġg u
Ġt ype
Ġres ult
Ġt w
Y es
l f
i ld
` ,
Ġex pl
Ġunder stand
S t
Ġh e
re e
Th is
) ,
Ġb ack
ic ally
u d
Ġpro per
ce pt
Ġspec if
Ġn um
Ġev en
Ġsh ow
l ication
gr am
p ro
Ġ $
u ment
Ġwe ll
Ġcom m
Ġbet ter
o se
p en
in ce
w e
ro ll
Ġs ec
o x
Ġver sion
e w
or ry
Ġp ut
Ġact ually
ĠS o
a k
ĠA nd
ple ment
W hat
Ġdid n
Ġsu gg
read y
ĠTh at
Ġ <
s p
Ġiss ue
Ġe ach
Ġex act
Ġd es
Ġg ener
Ġsu pp
ab ly
Ġ V
i ent
Ġcon f
Ġh ad
Ġp r
Ġse ems
Ġe le
Ġt able
Ġre fer
ĠW h
v ice
f t
e ver
ht ml
ru ct
t on
u p
Ġv iew
ar ch
our ce
Ġan other
Ġst art
ag es
Ġ @
Ġb r
s ide
at a
Ġim plement
Ġth r
Ġc le
ot e
Ġf o
ĠW hat
Ġth ough
Ġn ame
Ġag ain
ou nt
p ort
d u
b ut
Ġt ext
Ġwith out
Ġi de
Ġal ready
* *
v ing
a x
n et
p y
v ed
Ġdo ing
Ġcre ate
f ul
Ġb u
Ġtw o
id d
W h
se lf
M L
Ġpro v
Ġwr ong
s ing
= "
' d
Ġpro gram
0 1
l so
Ġh and
or g
a pp
Ġd own
b ably
Ġb it
ĠH ow
Ġs a
as on
Ġl ot
Ġp lease
ur re
Ġbe ing
it t
o s
Ġpo ssible
Ġlo g
se t
de x
at or
Ġg ive
en c
Ġg ot
Ġas s
v al
Ġd ec
Ġapp lication
Ġ ent
Ġab ove
oo k
ce ption
Ġdef in
Ġha pp
Ġ 0
st em
Ġsu b
Ġfi les
c on
al led
Q L
Ġis n
Ġke y
way s
Ġ end
Ġwe b
ab ase
th e
Ġm od
Ġre g
Ġadd ed
Ġb oth
Ġd irect
Ġs ince
Ġe as
Ġqu ery
) `
" ,
at es
Ġfi x
Ġbe en
Ġm em
Ġre ason
Ġsec ond
Ġdo c
Ġlo ad
Ġac cess
p ect
a ult
Ġe l
a h
i se
t r
() `
e ar
Ġin cl
Ġget ting
Ġgo ing
e e
Ġcom ment
an s
Ġexact ly
V iew
Ġpro ject
Ġ X
Ġpro bably
Ġre c
Ġp ass
d er
p ly
I f
um n
as h
Ġch ar
pl ay
is h
Ġa ble
Ġm is
Ġst ate
Ġ 4
Ġg iv
Ġval ues
ation s
or k
ww w
h ow
Ġm ess
urre nt
n ect
Ġlo c
Ġat t
q l
Ġe m
ent ion
lo ad
Ġi d
ĠS t
j s
Ġrequ ire
Ġide a
ph p
i a
Ġg r
br ary
" .
Ġhapp en
Ġloo king
in al
w n
Ġd et
pl ic
Ġcom ple
ter n
lo g
Ġcon st
Ġnum ber
Ġth ose
Ġcont ain
p ar
p on
Q u
Ġf ine
Ġwr ite
Ġb as
Ġdat abase
if y
Ġgu ess
ode l
Ġvari able
us er
Ġev ent
Ġa ut
Ġ x
Ġim age
re at
o p
ĠI s
ro l
Ġth read
Ġs cript
er t
o b
Ġany thing
ar k
Ġ +
Ġa v
Th at
Ġse lect
ve lo
Ġal ways
ĠD o
Ġ {
Ġf ound
p end
th is
m y
Ġcle ar
ab les
Ġloo p
ang e
Ġout put
Ġo ption
C ont
Ġin t
i ous
ail s
ith er
we en
re ss
Ġwh o
Ġ /
idd le
n ame
ro id
Ġex t
o g
e ld
Ġpar am
id er
Ġpro cess
am es
Ġo wn
oug ht
Th ank
r ame
Ġthe se
Ġapp ro
at ive
ĠA lso
Ġ* *
g e
Ġfi eld
Ġdon e
Ġthr ough
o pe
u de
v en
Ġcol umn
i ed
+ +
om e
Ġbut ton
in ter
l ess
v iew
Ġt ag
y n
Ġman y
ĠA n
Ġbr ows
ĠM y
Ġupd ate
i x
Ġsu ch
oo g
Ġt ake
Ġl ong
Ġ ...
Ġsupp ort
Ġrequ est
Ġthing s
Ġm ult
Ġ _
Ġsugg est
d oc
Ġac cept
Ġc lo
Ġf e
Ġt y
roll er
ind ows
Ġex ec
Ġ 5
m s
Ġcon s
Ġl in
Ġo pen
Ġel se
Ġupd ated
E x
i k
i b
Ġwork ed
C h
ul ar
Ġas k
Ġre l
f or
Ġp h
Ġloo ks
1 0
E R
( "
Ġin side
c re
Ġm ost
f o
Ġc alled
Ġne ver
Ġin put
ut e
Ġt ell
Ġexpl ain
th on
Ġin form
Ġ ,
Ġst ore
Ġth ought
Ġex ist
ust om
pre ss
g er
Ġex pect
Ġsa id
Ġparam et
Ġval id
et c
k es
oog le
Ġsim ple
ĠTh ere
Ġrun ning
ĠH T
1 2
Ġre al
Ġbet ween
Ġm ention
ĠJ ava
Ġor ig
Ġdis play
ing le
Ġde pend
v ent
Ġmem ory
Ġm ain
i er
Ġdoc ument
c ode
w ork
O N
at ic
im es
Ġcomp il
qu ery
( '
Ġw ere
ri but
o id
Ġcont ent
Ġc urrent
d d
Ġle t
h ing
Ġw on
oo l
ath er
Ġde le
Qu ery
Ġcon nect
Ġwh ile
I s
Ġ- -
c ont
Ġm ust
en se
Ġbe h
Ġspecif ic
ll ow
Ġinform ation
Ġha ving
E T
N o
Ġres pon
ĠTh ank
Ġl ast
wh ere
x t
ate ly
Ġof f
Ġ }
D o
Ġor der
ang u
Ġcomm and
ap s
C an
Ġmult i
Ġele ment
ie ve
: :
Ġex ception
Ġe ff
Ġma kes
Ġy es
S T
ld er
Ġs ingle
v ious
m in
Ġdef ault
av as
Ġper form
so l
Ġ etc
I N
c es
c i
Ġform at
eth er
Ġ ;
ĠC h
avas cript
Ġcl ient
Ġs ource
Ġe ither
Ġo per
ĠC an
! !
e o
Ġs end
Ġse arch
Ġcan not
lo ck
Ġchar act
Ġrefer ence
c c
f ile
1 1
Ġh ead
e b
Ġb est
Ġke ep
.. ..
Ġin it
Ġcl ick
s ql
i o
pl o
R e
Ġbu ild
Ġnot hing
ĠA s
Ġthe ir
ĠĠĠĠĠĠĠĠ ĠĠĠĠĠĠĠĠ
ic al
ĠS QL
ind ow
` ?
are d
d o
H P
ĠF or
Ġac c
are nt
Ġty p
Ġg reat
Ġcont rol
Ġcon ver
ĠJ S
le ction
Ġr ather
S S
Ġm atch
Ġfo llow
â Ģ
b u
p r
Ġin dex
Ġass um
it ing
Ġmean s
Ġh ard
Ġmess age
Ġset ting
Ġk ind
Ġorig inal
Ġs ize
Ġp ath
Ġ` $
it s
L ist
H ow
Ġbrows er
Ġs m
Ġar g
ĠO P
Ġl angu
e ah
de f
t ed
w hat
Ġse em
Ġco py
Ġma de
il ity
y ou
us ing
p x
Ġproper ty
ec h
P ro
t ime
st r
Ġo b
n o
Ġprov ide
Ġm at
ĠO n
Ġsy stem
itt le
St ring
com m
Ġen ough
iz ed
l ine
Ġst and
6 4
po s
u le
Ġl at
Ġcomple te
Ġar ound
ess ion
' ,
il ar
Ġappro ach
Ġs ort
Ġre pl
Ġrem ove
Ġpl ace
Ġinst ance
Ġs ense
Ġchang ed
ach e
ou p
Ġd u
Ġtr ue
Ġon ce
eo ple
ay be
- -
w are
t ty
at ure
Ġt em
R L
Ġl ittle
Ġrespon se
m m
o f
Ġb ad
Ġli brary
Ġfi g
y thon
Ġmay be
Ġf act
Ġle ast
m an
Ġpr int
A nd
Ġmulti ple
ĠP HP
ĠHT ML
s ent
Ġc ustom
ĠO r
Ġm odel
Ġconf ig
b ack
Ġobject s
ay out
- )
Ġtr ans
S o
Ġf ull
Ġp eople
f ect
Ġbe l
Ġpo inter
ĠHow ever
Ġm in
Ġmethod s
c an
? ?
ĠAn y
g in
Ġanswer s
O M
Wh y
Ġse par
P I
Ġcre ated
Ġcons ider
Ġresult s
Ġsim ilar
T o
Ġf ar
Ġfunction s
Ġpro du
b ox
ad d
Ġall ow
Ġpre tty
Ġneed s
av i
Ġim port
9 9
ou ble
Ġn on
Ġn ull
Ġdu plic
Ġs orry
Ġadd ing
lo c
3 2
Ġerror s
Ġn ames
Ġs ite
l ic
n ew
n er
I D
e f
b ers
Ġincl ude
Ġfig ure
Ġde velo
re am
re en
ic ro
Ġst u
so ft
w ith
w r
Ġwor d
Ġle ar
Ġdec l
Ġpost ed
Ġen c
Ġneed ed
A T
Ġele ments
Ġstate ment
> `
st ring
Ġm ark
d ata
Ġst ruct
Ġc a
Ġf ast
Ġsim ply
ve l
Ġqu ite
ĠP lease
Ġto p
Ġp ri
ac es
Ġchang es
f ace
Ġevery thing
Ġreturn s
en g
our se
r l
Ġdiffer ence
Ġc ert
iv ity
Ġwho le
L E
y stem
i ally
Ġconst ruct
Ġapp ear
Ġthan k
ig h
Ġ1 0
as es
Ġs ide
Ġd iv
Ġas king
Ġinst all
Ġto ol
Ġincl ud
l er
as k
Ġj s
Ġedit ed
2 0
ĠI D
B ut
A r
cl ass
Ġr ow
ĠĠ Ġ
H i
s ed
Ġprov id
Ġwith in
Ġit self
c ed
Ġrem o
ĠWh en
gr ound
th anks
Ġcompil er
ĠJ ust
Ġ &
b ug
Ġt er
Ġatt ribut
Ġfix ed
Ġact ual
od y
O k
Ġre st
nt ax
- >
C l
y s
l ing
m it
() ;
f iddle
ĠI E
ic es
press ion
L L
Ġdes cri
Ġlangu age
icro soft
Ġloc al
Ġstand ard
Ġinit ial
Ġuse ful
Ġin d
ec ess
Ġ` <
ĠU I
Ġin v
Ġinter est
so le
A re
Ġ ro
Ġav oid
Ġc ourse
Ġj Query
Ġf l
Ġbeh avi
Ġper fect
W ell
or s
Ġcomp ile
en sion
Ġsol ve
Ġre f
h aps
Ġimplement ation
Ġquestion s
in ed
ĠS ee
Ġst r
ound s
A n
Ġf ew
D ata
pt y
Ġdes ign
m b
ser t
Ġwant ed
Ġc r
N ame
ĠE x
Ġus es
Ġproblem s
p d
Ġ z
e y
le t
w ise
id th
P lease
lo b
Ġprogram m
Ġbas ed
M y
Ġclass es
im it
ra w
f ort
f e
Ġparamet er
Ġadd ress
w ik
j ava
Ġne xt
Ġmis sing
00 0
Ġd ate
Ġsc reen
ĠP ro
Ġt imes
Ġrec ord
ail able
Ġre d
2 01
Ġcorrect ly
qu e
Ġser vice
Ġf rame
ĠN o
Ġgiv en
Ġb re
Ġdon t
Ġs ign
iz ation
Ġfo lder
ug in
Ġdirect ly
Ġvari ables
b o
yn am
c cess
Ġduplic ate
A s
ap h
Ġbel ieve
b y
Ġs w
Ġsm all
Ġcall ing
Ġsay s
us ed
Ġlin es
Ġd ay
re s
Ġy et
Ġass ign
ic s
ĠA PI
Ġsy ntax
1 4
Ġany way
al se
Ġe qu
Ġag ree
1 6
Ġre ply
S orry
Ġb ug
pl ate
Ġconnect ion
Ġfi l
ĠR e
1 5
Ġus ers
Ġwould n
ĠTh en
th ough
Ġwh ether
Ġn ice
Ġhappen s
v ant
Ġb lock
l ist
eng th
ĠU n
Ġpo s
S QL
Ġmention ed
Ġp ack
Ġcont ext
Ġph p
wh ich
Ġht ml
fort un
ĠU RL
Ġst y
Ġ K
Ġdirect ory
); `
y es
Th ere
Ġp ers
w ard
Ġav ailable
it er
pl es
1 3
t ies
Ġcert ain
Ġw indow
t ext
Ġmat ter
Ġhow ever
Ġperform ance
er n
Ġ Yes
ĠN ot
Ġent ire
A ct
en s
C om
Ġdefin ed
Ġ; )
j ax
o k
Ġc ount
at ically
Ġ !
doc s
an y
Ġl ess
it ch
if ied
as px
Ġeas y
ĠYou r
Ġstu ff
F or
O n
Ġexec ut
Ġst atic
ĠW indows
p ri
Ġeas ier
re d
Ġb ig
Ġsay ing
Ġget s
Ġv ia
Ġt ak
enc es
Ġstruct ure
Ġu rl
Ġb l
N ot
Ġ` .
8 0
Ġme ant
Ġin fo
Ġsome one
ie ld
om ain
Ġs ample
Ġu nt
Ġhand le
ĠS er
Ġaut om
s c
Ġcom e
ub lic
fer ence
Ġj avascript
Ġhelp ful
a z
Ġsugg estion
b it
Y eah
un d
) ?
ĠA pp
ĠA re
C T
Ġin te
Ġdevelo p
Ġr ows
C on
v es
fortun ately
comm end
S h
ir d
ut or
Ġma king
Ġcont roller
1 7
c u
Ġ: -)
Ġsepar ate
Ġcre ating
I d
f ull
Ġp ast
ĠWh y
p s
Ġl ar
o h
m is
re f
Ġcon c
Ġo k
g or
Ġs ession
< /
itt en
Ġre commend
Ġh igh
N ET
Ġ 6
com e
Ġv is
Ġclo se
Ġm ach
; `
. "
l ight
1 9
Ġpart ic
a king
r ror
Ġ 7
Ġa ction
r ow
S cript
it le
if ication
Ġn orm
Ġs it
Ġb ox
ur s
Ġs ave
pt im
ir st
Ġn ecess
Ġem pty
T ext
Ġread ing
Ġ1 00
o ld
Ġsol ved
S er
Ġ >
ed ia
Ġo ld
Ġdocument ation
J ust
Ġle ft
f unction
Ġ #
S E
at tern
Ġim ages
Ġqu ick
Ġst ack
n g
Ġgiv es
Ġpl ay
Ġcon d
2 5
f fer
ec ause
us h
al s
Ġunt il
O bject
Ġtyp es
utor ial
a w
n um
po ssible
am ples
Ġh is
Ġle vel
plo ad
Ġhttp s
i ct
Ġj ava
R E
Ġcom ments
f il
I m
Ġex per
a ction
Ġlear n
Ġt al
ar get
Ġcl ar
V al
S e
Ġc are
ĠX ML
ond er
Ġpartic ular
val id
2 3
ite ly
Ġshould n
Ġsh ows
Ġc ause
li brary
Ġbe low
You r
Ġha ven
a ir
Ġrepl ace
i que
ĠM aybe
D id
val ue
b in
s ite
Ġcond ition
Ġrel ated
Ġf r
js fiddle
( $
and roid
Ġd ynam
Ġcall s
and om
1 8
H ave
t en
as sw
] `
Ġfe ature
Ġit em
ro ss
Ġwas n
Ġo cc
. )
Ġst ep
po se
i ly
) )
o in
Ġp ort
to p
bu gg
Ġwr iting
re ci
Ġch ec
Ġdown load
Ġeff ect
U n
Ġit er
Ġback ground
Ġpl ugin
em ber
Ġre le
Ġpos ition
Ġsp ace
m ost
k en
assw ord
en u
Ġm ist
f ig
de ed
Ġm ind
Ġcharact ers
al c
ĠN ow
Ġcharact er
x ml
Ġex pression
_ _
Ġnum bers
def ined
B y
Ġcon sole
Ġcheck ed
Ġreg ex
2 4
Ġ: (
Ġ es
d n
th at
h er
N S
2 8
rom e
ud io
Ġb ind
Ġadd ition
Ġiss ues
a it
h e
Ġcontain s
Ġfollow ing
ith ub
A lso
Ġproper ly
Ġstring s
Ġdet ails
Ġ 8
Ġattribut e
ag er
Ġgr oup
T P
in dex
Ġs low
et s
U I
Ġc ases
Ġproper ties
Ġask ed
Ġw onder
v ir
d is
v ar
d ate
Ġwr itten
Ġt urn
Ġd ist
Ġde bugg
Ġconstruct or
t est
b ed
Ġhead er
Ġm ove
Ġp ur
u ments
Ġt ables
Ġpre vious
Ġspecif y
p ace
Ġl imit
g n
g ot
m icrosoft
Ġdele te
Ġchang ing
Ġfield s
t ic
Ġm o
Ġlat er
t es
al ity
Ġexpl an
ate ver
ile d
Ġlike ly
Ġh ope
Ġo ptim
Cont roller
ic ient
ab el
ot t
Ġapp reci
Ġgener al
Ġ ..
3 0
li ke
" ?
Ġin sert
b ook
Cl ass
Ġcomplete ly
l ad
c ol
Ġf ail
c le
Ġf in
Ġmach ine
Ġ= =
cu ss
R es
ur ation
A pp
ĠC SS
Ġt ab
it ies
O S
os ed
b ar
ul es
od ing
a ut
re t
h ead
alc ul
c a
Ġun less
Ġthink ing
ĠS O
Ġid ent
Ġbehavi or
un ch
ĠT ry
( ).
re g
Ġre ce
Ġconver t
Ġrequire d
r on
Ġl ayout
2 9
" )
qu est
d it
lob al
m e
Ġp arent
Ġbre ak
ur ing
Ġinter face
Ġprovid ed
Ġparamet ers
p ath
u x
po st
Ġco d
we b
v ices
Ġdefin itely
Ġpr act
Ġpre fer
Ġfe el
de velo
5 0
w ord
r id
Ġse en
Ġcolumn s
2 7
ke y
li b
ot es
Ġaut h
ch ange
t ype
T ype
if ic
full y
Ġperfect ly
u ck
Ġarg ument
Ġexpect ed
2 00
Ġre sol
Ġexpl ic
Ġa ch
Ġst op
A R
Ġde vice
ĠJS ON
3 4
se lect
i pp
A h
plo y
Ġnot e
Ar ray
Ġit ems
Ġ= >
is ion
Ġcle an
mis sion
Ġf ree
m ap
ĠD B
Ġfast er
th ers
Ġstore d
ĠDo es
Ex ception
ari es
ent s
as ed
Ġtak es
Ġpo p
ms dn
ar ray
Ġs av
ĠT o
Ġexplic it
Ġexplan ation
Ġob vious
Ġlog ic
Ġc ell
O T
ur l
ĠA S
f rom
Ġbe gin
Ġsim pl
il t
s u
le x
Ġmod ify
Ġre nder
Ġw ar
Ġsw itch
Ġpoint s
in st
gor ith
our ces
Ġsh ort
ĠS orry
Ġo thers
ur ity
Ġtest ing
Ġs pe
wr ite
ĠP ython
ve ct
Ġe ver
Ġre port
8 6
sol ute
ss ib
Ġtem plate
Ġch ild
Ġfil ter
ut ure
um p
C ol
Ġremo ved
a de
Ġto t
Ġp attern
g oogle
A dd
vir on
se arch
Ġw idth
sp ect
ord ing
F orm
or ks
Ġyour self
Ġtag s
Ġr out
j ust
" >
Ġs ent
ow er
ĠP er
ial og
pre sent
ĠĠĠĠ Ġ
Ġ Y
Ġdefin ition
cl ip
Ġs ch
Ġext ra
i ke
http s
oo ks
Ġinst alled
Ġsome where
st d
Ġb ase
ch eck
[ '
O R
b ody
po int
Ġs ounds
Ġcom es
ĠO S
a iled
Ġautom atically
g ithub
I T
Ġin cre
ĠC ould
0 4
ur ther
Ġpr ot
Ġd ro
Ġsc roll
Ġm on
c o
c at
wik i
Ġassum e
Ġf alse
Ġy ear
Ġfor got
Ġlin ks
ĠS h
Ġcomp ut
' ]
pl it
Ġsty le
d iv
Ġc ou
Ġimport ant
Ġall oc
Ġdef ine
Ġh ost
ĠA ct
Ġcomm on
et imes
Ġma p
Ġp ublic
Ġus ually
le ment
t w
Ġtal king
l ish
5 6
Ġprogramm ing
W ith
O h
Ġshow ing
ĠSt ring
Ġcomple x
ser ver
Ġd ouble
v ote
Ġdepend s
ĠThe y
ou se
' .
Ġhelp ed
Ġwh atever
er o
Ġlar ge
Ġv ar
ĠW e
er ies
enc y
2 6
s ub
Ġc alcul
Ġf uture
or ing
Ġm ode
Ġapp ly
Ġcol lection
Ġde bug
Ġsit u
Ġare n
Ġj ob
clip se
m ed
d b
T ime
Ġnorm al
Ġt rig
Ġext ension
F ile
Ġ our
Ġse ction
Ġout side
s ure
j query
r c
Ġsuggest ed
Ġman ually
Ġt ech
com p
T ry
able d
Ġinterest ing
s cript
Ġreturn ed
et ch
Ġnecess ary
A t
Ġal gorith
Ġgener ated
Ġre present
Ġmy self
Ġt arget
pro du
idd en
on s
Ġhas h
at us
Ġappear s
Ġent er
c orrect
n ter
ch ar
Ġoper ator
Ġex amples
/ )
Ġin deed
Ġoption s
Ġand roid
Ġhelp s
Ġn et
cuss ion
ire d
Ġsu ccess
ĠN S
i ction
Ġro ot
Ġdif f
' )
ord er
p ec
ac le
am ed
M an
o bject
Ġmod ule
Ġx ml
ain t
Ġu pload
T r
Ġse ver
ag ed
Ġ %
E rror
Ġwr ote
oc k
Ġframe work
C ould
viron ment
pp ing
O ST
a le
tern al
Ġreg ist
ĠC om
Ġload ed
N T
ap i
ce l
i ence
Ġal tern
Ġpre sent
Ġd b
l in
b log
d ay
Ġgo es
Ġ )
A l
pr int
Ġacc ount
Ġr andom
Ġtest ed
re sh
Ġmist ake
Ġbu ilt
Ġl ength
Ġd raw
ĠH ave
Ġcr ash
wh y
Ġpack age
Ġs l
Ġreg ard
Ġt im
vect or
Val ue
Ġd el
Ġar tic
Ġpers on
" `
3 3
Ġhe ight
Ġc atch
Ġtr ick
Ġpo ssib
u ri
Ġj query
Ġother wise
Ġthr ow
Ġach ieve
Ġ Q
Do es
Ġs n
Ġloc ation
em pt
S et
Ġw indows
5 4
O f
Ġgener ate
Ġexec ute
Ġa p
Ġp assword
Wh en
Ġd em
Ġchec king
is ed
it es
ay er
l ink
7 7
ĠSer ver
Ġsupp osed
Ġcomp on
D ate
h ost
Ġt ask
at form
Ġc ast
end ed
Ġred irect
O r
ĠJava Script
Ġexist ing
Ġ2 00
Ġper haps
ou b
ch o
Ġb in
Ġthread s
se mb
Ġde al
Ġg ave
ĠD id
Ġsever al
N D
Ġt utorial
Ġrele vant
ĠG oogle
Ġno de
G et
i an
lo at
Ġal most
Ġj oin
t ain
v ate
o pen
r ag
an el
n c
ar ing
D e
at t
an ces
ac ed
Ġ- >
Ġ 9
A M
id es
Ġeas ily
ate g
Ġpre vent
Ġab solute
00 00
doc ument
Ġinclud ed
Ġpass ed
g ate
Ġsc ope
Ġact ivity
Ġversion s
I nt
ĠA l
ac ing
p age
con fig
Ġf urther
ou ch
ĠW ith
re ate
5 9
ĠI m
Ġbas ically
Ġcurrent ly
Ġi gn
Ġpass ing
Ġl uck
Ġanswer ed
ot ed
Ġgiv ing
Ġs ql
Ġb ar
I S
Ġqu eries
b l
Ġaccept ed
Ġt itle
Ġd omain
av ig
Ġwant s
ĠD ata
Ġun ique
Ġany one
ĠA r
D B
end ing
Ġsh are
cl ick
Ġagain st
Ġb ro
U ser
Ġweb site
t able
im al
Ġp ython
an n
Ġa way
el come
Im age
] ;
Ġspec ial
Ġ |
Ġc ache
ĠS e
Ġc ss
ĠĠĠĠĠĠĠĠ ĠĠĠĠ
Ġatt empt
Ġcould n
Ġconf used
br aries
Ġselect ed
ff ect
S ee
Ġwor th
Ġp ages
Ġd ri
et er
ri e
Ġrem ember
ch ron
m ore
8 8
sp ec
Ġg oogle
Ġ2 01
Ġload ing
3 6
Ġword s
Ġstart ed
Ġwar ning
Ġg lobal
O U
m od
ent ly
ĠAnd roid
Ġem ail
yn c
P ath
A X
Ġsetting s
ac ks
Ġsc en
Ġhand ler
Ġprodu ct
Ġa ware
ip edia
It em
ĠA ll
Ġma x
Ġway s
A L
Ġappro pri
ĠL ist
U LL
Ġclar ify
Ġa jax
Ġ âĢ
an ch
Ġappreci ate
Ġbu ffer
LE CT
Ġimplement ed
o ad
Ġarray s
Ġrun s
Ġlink ed
Ġexist s
ĠW eb
Ġsee ing
Ġof ten
Ġen vironment
ab ility
h ere
bo ard
h i
g it
Act ually
Ġd ue
Ġe ar
iction ary
Ġinter n
T able
t ual
Ġin her
d own
Ġlo gg
Ġh our
A d
ĠV iew
Ġby tes
Ġbrows ers
ire ction
5 5
ide o
iz ing
pl ace
Ġpar se
P o
se e
Ġan im
] .
Ġacc ording
Ġtrig ger
Ġwr app
s ize
" ).
g ether
V C
develo per
Ġe cho
Ġcol or
in put
Ġaddition al
Ġst ream
m o
Ġalgorith m
Ġper mission
' ).
Ġevent s
B ox
ic ult
Ġsh own
Ġreturn ing
3 7
Ġdet er
my sql
Ġfunction ality
Ġw ait
Ġlong er
Ġrecord s
Ġpur pose
Ġ` [
Ġad vice
Ġb ott
iv ed
is ual
Ġth ree
im age
re w
ĠA t
Ġsu r
Ġartic le
Ġex cept
Ġim pro
ri end
Ġconfig uration
Ġsub mit
ĠO bject
Ġf ore
Ġarg uments
Ġmy sql
Ġsitu ation
Ġex p
ĠM S
do es
ess age
ent ial
Ġso on
Ġch oo
ap ter
Ġdiff icult
Ġpract ice
Ġrequire s
ĠC ont
e ed
et a
Ġal though
ĠA dd
s l
8 4
Ġon es
ĠMy SQL
8 9
E S
B e
wh en
s v
T F
Ġstart ing
st art
Ġdynam ic
Ġfl ag
ĠC on
In ter
5 7
Ġmess ages
Ġt aking
f l
ĠOn e
Ġse lf
Ġconst ant
Ġsec urity
it ive
Ġlook ed
ib ility
st ood
ach ed
P ar
Ġsom etimes
ent er
Cont ext
Ġli braries
P er
Ġkey s
Ġreg ular
ĠO ther
per ty
M odel
med i
d at
Ġh old
m ar
3 9
Ġunderstand ing
2 2
in ue
de v
ry pt
f ix
Ġt e
Ġm enu
Ġappropri ate
Ġb en
AT E
H T
Ġh it
Ġtest s
Ġlog in
pp ed
Ġp rom
ĠF ire
C ode
ool s
A ll
o ice
Ġrun time
âĢ Ļ
Ġev al
Ġpost ing
O K
o ot
om ething
Ġtr ack
py thon
m p
Ġcertain ly
g u
Ġcomp are
Ġstate ments
on y
Ġtech n
ce ll
Ġaut o
Ġbas ic
h one
y our
Ġo p
x y
am p
C E
W eb
loc al
od es
ĠCh eck
tr ue
* .
Ch eck
in it
g re
Ġin correct
c ss
ĠCh rome
Ġsecond s
f ind
ul ate
Ġret rie
x x
Ġfor get
Ġset up
cl ude
[ ]
se c
Ġjs on
Ġen g
Ġput ting
us ion
Ġthat s
R ead
pos it
all oc
ub y
Ġday s
Ġdoc s
Ġinte ger
Ġad v
Ġrel ation
Ġb ook
Ġcontain er
Ġexplicit ly
ĠB ecause
Ġhappen ing
Ġrefer ences
D K
Ġc orre
Ġser ial
" );
est ed
ell o
ĠU se
1 00
= =
M S
Ġun defined
pro ject
c ount
Ġmis sed
Ġpl atform
f oo
av id
Ġam ount
ri ct
Ġbind ing
n ull
ri es
Ġd ig
: \
I ON
Ġco p
Ġa w
Ġpre ss
so ci
Ġman age
ac cess
Ġtem p
Ġin valid
an e
on ly
ĠG ood
Ġc ook
Ġsupp ose
Ġd oub
ic ate
8 7
Ġdecl ar
Ġr ange
ret urn
ari ly
ir tual
I M
es ome
Ġinclud ing
ri ed
Ġcan t
oh n
ri de
Ġexper ience
ĠHT TP
Ġm om
Ġall ows
Ġstr ange
Ġse qu
Ġscen ari
Ġide as
Ġf inal
Ġign ore
Ġmean ing
Ġeff icient
t ry
ver s
E vent
Ġexecut ed
Ġdet ail
Ġm ar
ter s
ĠD OM
Ġallow ed
Ġd est
Ġpointer s
Ġpoint ing
Ġs k
tr act
iv al
Ġrequest s
a ks
ĠL in
Ġ( `
) :
Ġoper ation
Ġmem ber
ateg ory
Ġtool s
Ġf iddle
Ġenc oding
r un
wik ipedia
us es
Ġapp li
Ġbin ary
Ġqu otes
Ġfigure d
Ġspecif ied
ru ction
cont ent
m ail
Ġres ource
B u
con st
ĠS ince
6 0
Ġ` -
Ġle ave
Ġas semb
ain s
e k
ER E
P U
r ite
Ġto gether
Ġsome how
P l
re n
re m
Ġaltern ative
Ġ` /
S ystem
ĠB y
= '
th read
Ġl a
" :
Ġle ad
Ġcontent s
Ġnet work
Ġdet ect
Ġli b
Ġp ush
Wh ere
un der
ĠH ere
ft ware
Ġn amed
Ġconc ern
ar ant
Ġnot ic
Ġc uri
Ġmom ent
t ag
ĠS ystem
Ġcom ing
Ġter m
ent ially
ĠW ould
ri x
Ġsolution s
Ġsa w
ĠC l
Ġpri vate
Ġsch em
Ġz ero
ĠV S
Ġal ong
ict ure
Ġpast e
Ġbott om
Ġex ternal
ic king
Ġcom plic
or ate
f ield
ck et
Ġl abel
Ġal ert
Ġf ails
4 4
or age
re ference
s ome
pec ially
ast er
Ġfin ish
ut es
G ood
Ġ2 0
Ġdevelop ment
ive ly
Ġinterest ed
s es
ob ile
Ġdis cussion
Ġvalid ation
Ġspe ed
Ġs plit
Ġ \
o ke
Ġd uring
cre ate
t xt
b et
Ġgr aph
Ġcon cept
p ast
Ġre lease
ion s
r is
Ġconf ir
s a
Ġby te
Ġm er
p art
K ey
s on
Ġa ffect
est ing
Ġsn ipp
ver t
Ġse m
Ġd ialog
il i
iv es
Ġi OS
Ġst d
re l
Ġ` (
Ġsupport ed
ĠD on
ut h
j avascript
Ġsh ared
Ġf etch
Ġsugg estions
J S
Ġr ule
Ġre pe
A N
w ell
Ġsend ing
Ġt ree
Se lect
Ġb oo
Ġb ody
Ġh op
ĠI nt
Ġgu ys
mb ol
M aybe
sh ow
D O
Ġwe ird
ĠAny way
In dex
Ġac ross
Ġpre c
Ġwonder ing
ang o
Ġp ick
s orry
th ank
Ġapp s
Ġrel ative
Ġgu arant
js on
Ġdebugg ing
Ġattribut es
Ġview s
m ain
ĠWh ich
Ġcomm un
An y
Ġremo ving
Ġchoo se
ced ure
A B
ure d
ar g
Ġr ules
Ġun fortunately
Ġv ote
Ġyear s
6 6
Ġsu per
Ġmain tain
Ġn ative
Ġclear ly
' `
Ġbehavi our
Ġ3 2
ival ent
Ġf ont
im um
Ġbr anch
Ġas soci
Ġcomput er
Ġspecif ically
v s
en ame
Ġ< /
N ote
Ġcomp ar
Ġw ish
res ult
im g
ĠO pen
Ġlear ning
Ġsa fe
Ġbutton s
L oad
av ing
D ef
ul ator
E lement
id get
Ġin ject
Ġcall back
Ġ 64
le an
oc us
H ERE
Ġnotic ed
Ġm ac
Ġf un
ĠN OT
D on
O P
it em
Ġ vector
Ġdescri ption
h ave
-- --
as p
T W
ic ks
Ġw elcome
Ġf am
Ġmon th
Ġh idden
ĠD e
Ġth ird
j ango
ix el
ign ed
posit ory
Ġtr ouble
4 0
Ġsh ell
N et
Ġ; -)
c all
ers on
ĠP l
) `.
Ġb loc
Ġgr id
Ġregist er
Ġinher it
Ġdisplay ed
d id
ĠO R
s ource
Ġeval u
Ġt ip
Ġtw ice
ĠE ven
Ġconsider ed
ĠW ell
Ġdecl ared
Ġinv ol
Ġc ame
t em
Ġdele ted
Ġmod ified
Ġinst ant
ĠU ser
Ġcon v
Ġde ploy
Ġdynam ically
Ġdecl are
ĠA fter
gr oup
Ġgener ic
S L
Ġinter pre
ĠĠĠĠ ĠĠ
Ġlat est
c ore
H mm
re qu
ĠWh ere
Ġl iter
Ġexec ution
r aph
ĠW ill
? )
() ,
og n
Ġdoub t
3 5
` )
Ġsav ed
On e
Ġcou ple
F rom
Ġqu e
Ġv s
rame work
Ġrequire ment
Ġassum ing
d es
m ine
o v
ĠPer haps
um b
Ġdoes nt
g ed
Ġca using
Th en
Ġag o
Ġb ound
pp er
Ġso ftware
Ġnot ice
con nect
Ġcomplic ated
Ġeff ort
f irst
ĠI P
ĠRe g
bu ild
Ġsu spect
Ġd irection
Ġbeh ind
ple te
a a
Ġconf using
li ent
li er
ward s
ĠO K
pro cess
o ff
Re quest
Ġdepend ing
m ary
Ġ //
ĠSt ack
" ;
Ġrem ote
f ox
Ġv ideo
St ream
Ġres ources
] ,
itt ed
U pd
Ġproject s
ang ed
A D
A P
R OM
Ġch oice
Cont rol
ĠU sing
Ġequ ivalent
Ġnames pace
pp ort
n ess
Ġph one
Ġlangu ages
Ġv irtual
Ġvis ible
ac ke
iz er
ple ase
L og
Ġm ine
Ġg lad
sh ot
m ark
Ġf air
8 5
Ġdebugg er
Ġtot ally
ĠF ile
ĠN ULL
avig ation
Ġext end
ĠAr ray
Ġad min
Ġf riend
Ġreason s
Ġus age
U se
ili ar
pre c
Ġhour s
Ġsy n
ĠIn st
Ġlo ck
Ġoper ations
a f
Ġel ab
Ġtr ace
6 7
Ġf it
But ton
Ġdevelo per
g ress
B ar
acke x
Ġmin utes
ribut e
th ere
Ġre du
Ġim medi
ackex change
Ġ` @
ber n
ĠM VC
Ġtrans action
Ġpl an
Ġtoo k
st y
d f
P ost
de pend
C H
Ġconver sion
e vent
ut able
w orks
Ġpart s
Ġdro p
9 0
Ġ` "
im ple
ĠS E
ar ound
ro du
al f
Ġty po
Ġany where
es e
if ier
ĠE clipse
Act ivity
Ġfe ed
Ġgener ally
Ġes pecially
M ap
s um
Ġsp aces
Ġscenari o
ach ing
ĠV B
f in
Ġcompon ent
g ers
is m
Ġeng ine
Ġch ance
ĠOther wise
led ge
ĠT r
Ġimpro ve
ption s
H e
st ackexchange
Ġconst r
ĠV isual
Ġtrans l
Ser vice
s q
bern ate
Ġref resh
Ġcl ause
y p
ver se
U RL
Ġprocess ing
ĠS ome
c s
Ġpro cedure
ex e
Ġkey word
st er
Ġequ al
Ġj ar
Ġst atus
Ġdescri bed
ĠIt s
Ġcod ing
Man ager
U S
} `
c ast
Ġ Z
Ġinst ances
ff icient
Ġclo sed
ĠĠĠĠĠĠĠĠĠĠĠĠĠĠĠĠ ĠĠĠĠĠĠĠĠĠĠĠĠĠĠĠĠ
t tp
c urrent
un k
h and
c ase
Ġabsolute ly
Ġfi re
ace book
V M
Ġh ack
Ġf ill
Ġre produ
E dit
ver flow
Ġp ull
View Controller
Ġcontrol s
man ual
/ #
an c
Ġin ser
m d
ĠID E
ca pe
in ess
ĠAS P
Ġr an
D E
Ġp icture
sh ip
w idth
s ystem
od ed
0 3
Ġent ry
Ġman aged
de le
ĠSt udio
9 7
D F
Ġcom bin
Ġover ride
Ġevery one
H ere
Ġm ouse
e et
() `.
fil es
Ġapplication s
um ber
In st
com pl
am s
Ġw ent
Ġent ity
ri b
Ġauth ent
m atch
Ġu t
l ength
m er
A S
Ġc ross
Ġinte gr
C reate
c lo
Ġf ailed
arent ly
b ase
v let
W e
inst all
Ġdeclar ation
ĠF ROM
m ethod
id ent
Ġf loat
ĠR E
Ġm ix
in fo
Ġan al
Ġy eah
Ġfeature s
Ġbit s
Ġsy mbol
Ġexception s
Ġs light
Ġsimpl er
Ġsnipp et
Ġbegin ning
Ġm ag
Ġhop ing
Ġb us
enc ed
Ġwor ld
Ġth us
Ġar ch
j ar
Ġelab orate
Ġentire ly
Ġlist s
end er
Ġhand ling
Ġc ir
0 7
plic it
Wh ich
ĠH e
ly ing
F ield
re c
O ut
Ġcomp at
ĠT ext
is on
wh ile
Ġobvious ly
p ng
Ġpl ain
Ġpossib ly
ĠG et
Ġter ms
m odel
g ener
4 7
Ġen um
Ġin ner
ĠSt ill
Ġtot al
Ġcre ates
r ic
G reat
Ġear lier
!! !
S c
Ġhead ers
ex ec
r d
\ \
ind ing
e ers
Ġend ed
und le
ug e
p ack
ain ing
sp ond
Ġedit or
Ġfull y
L ayout
Ġconfir m
t u
ĠP ost
Ġben ef
Ġch at
Ġdeter mine
but ton
Ġh im
Ġcop ied
ĠSh ould
et ime
Ġfam iliar
Ġem bed
id ed
Ġne g
n e
F irst
ra ight
k top
Ġfind ing
bet ween
Ġcompile d
Ġsearch ing
Ġ: -
Ġinst ruction
str act
oc ol
Ġg it
Ġl ayer
Ġorig in
add ing
. ,
Ġselect or
l ang
Ġintern al
Ġstart s
oo p
w or
Ġ` #
Ġbl ank
Ġi P
Ġ[ `
? ](
Ġt ouch
Ġstu ck
Ġassemb ly
Cont ent
J AX
c ap
Ġcuri ous
Ġn ested
h a
D oc
cle ar
ĠE dit
m on
P OST
Ġknow n
am b
Ġca pt
Ġli ve
in s
Ġpar sing
Ġscript s
Ġ1 5
st atic
ic ode
Ġwor ry
k now
Ġmatch es
Ġyour s
D avid
Ġc or
] [
Ġdes ired
iv id
ĠW in
a fter
Ġex tract
d omain
Ġst raight
Ġdele gate
or ies
Ġst oring
ĠS et
Ġh int
ill a
ĠG C
Ġdescri be
Ġto ken
Ġm ill
p g
ĠLin ux
Ġpers ist
Ġde v
ver sion
Ġreal ize
Ġany more
Ġsupport s
Ġop in
Ġim ag
compl ish
Ġdid nt
Ġc ap
Ġknow ledge
ĠL et
Ġun it
un c
ĠD ate
Ġinstant i
f alse
SE LECT
Ġrout e
J ava
Ġconstr aint
0 5
ĠB e
Ok ay
d a
up id
St ate
urs or
Ġ Qu
Ġdis c
Ġmis under
Ġcons ist
ĠO f
ĠI M
Ġim possible
ĠE rror
Ġrefer ring
r ows
Ġac complish
enc ies
ĠAct ually
ĠUn fortunately
6 9
e ger
Ġma il
act ly
el per
Ġauth or
Ġbuild ing
Ġare a
' );
dis play
Ġla unch
Ġne ar
Ġen sure
Ġn one
0 9
ĠJ avascript
Cl ick
Ġh ide
Ġd ictionary
ĠIn ter
d k
in es
Ġcorre spond
Ġg ame
Ġ1 2
form at
Ġprodu ction
Ġfor ce
Ġcontain ing
0 2
Ġr id
v as
ĠFire fox
Ġst ay
Ġexp and
n a
S te
r ad
L oc
HT ML
S ource
Ġque ue
an swer
w indow
Ġcom pl
H ey
o om
Ġp ixel
Ġto day
I E
a jax
Ġo dd
Ġcomm it
Ġfin ally
Ġwr ap
ult i
v oid
Ġassign ment
m ake
Ġp ay
Ġma pping
Ġsequ ence
er ic
Ġlot s
ĠF rom
ie ce
ĠL ike
Ġover l
ĠH ope
Ġres p
Ġrest art
re place
cell ent
Ġset s
201 0
Ġter min
ĠN ote
Ġedit ing
v ari
is ing
or acle
ord in
ex ample
t s
Ġof fer
Ġd er
J on
T est
Ġpermission s
App lication
an i
Ġind ivid
Ġrece ive
app lication
Ġs ound
Ġfr ont
Ġa f
Ġ1 6
ator s
Ġunder stood
j av
A C
R I
Ġre search
Ġ$ (
Ġfor ward
i as
L e
Ġco st
aut h
D is
Ġformat ting
u i
y y
chron ous
d ed
ot ing
Ġbro ken
Ġwork around
Ġsub class
? "
Ġimmedi ately
ĠW HERE
a pe
Ġmo ving
Ġcom b
r act
um e
Ġbe com
re quest
Ġint rodu
cre en
Ġknow s
sh ould
ce ed
im ension
Ġdem o
Ġmac ro
Ġcommand s
Ġin line
R un
U T
ĠA JAX
ou nter
il es
Ġretrie ve
m ax
ed u
l en
Ġk new
oth ing
3 8
Ġw a
pl ates
Ġin s
Ġh om
Ġupd ating
Ġlog s
Ġrequire ments
Ġrec ogn
prec ated
Ġp ure
Ġbe come
ro y
com plete
as ks
Ġh uge
Ġ ess
Ġtop ic
an sp
al le
Ġdown vote
0 6
ĠC ode
Ġschem a
Form at
def ault
F F
s ch
b ased
ĠU pd
Ġmem bers
l ash
G rid
m itted
Ġun n
Ġlo ve
Ġman ual
le ep
Ġcheck box
r ation
Ġanim ation
h h
4 9
Ġl ower
m em
a el
ĠW P
Ġclick ed
Ġcod es
Ġco re
ub lish
Ġp iece
is s
. *
as ically
Ġupd ates
om s
ĠU TF
R ow
Ġfr ag
Ġo pp
F A
Ġl ow
ĠC PU
ĠM icrosoft
av en
ĠA ND
c ing
Ġrelation ship
v c
n y
sty le
at er
Ġtrans form
st ems
E N
Ġint ended
E X
ĠS DK
Ġto ld
Ġ$ _
Ġr ound
Ġthere fore
201 2
Ġjs fiddle
v oted
... )
t utorial
Ġind ic
ern el
g ing
z z
Ġre pository
Ġtak en
Ġopin ion
Ġp ot
ag ing
ĠI S
Ġen abled
Ġb log
n s
Ġup gr
Ġco ver
m a
ech an
ĠR ead
Ġnecess arily
num ber
at s
Ġm et
List ener
t im
Ġmat rix
H and
Ġ3 0
> <
z e
Ġn odes
Ġimplement ing
O L
ĠM ac
cl ient
P L
as ure
Ġocc ur
ro p
P r
P E
ĠR es
" ]
Ġi con
Ġb unch
d et
Ġst upid
Res ult
Ġresp ond
ill y
Col lection
ĠS p
h elp
Ġde vices
p atch
u ous
Ġclo sing
m or
Ġsty les
Th read
e v
Ġstr ong
Ġsu it
J ohn
Ġup vote
cl ud
J o
in clude
Ġchec ks
Ġv oid
Ġre set
C lient
Ġ} `
Ġhapp y
w indows
m and
Ġst ated
s ort
* ,
Ġw ont
Ġh alf
Ġf ocus
ĠT H
Ġpri mary
Ġprovid es
ew ork
Ġst orage
p ublic
Ġslight ly
Ġ5 0
Ġcook ie
Ġn or
h o
Ġst ud
im port
Ġexplain ed
ĠP OST
N ow
0 8
Ġcl icking
am ing
Ġman ip
Ġprot ect
nt ity
Ġnorm ally
ĠA m
A ction
Ġh ome
U sing
s y
ad ing
4 5
2 1
ĠOn ly
ra id
Ġsav ing
Ġref lect
Ġu r
Ġappli ed
Ġover load
Ġstep s
po log
Ġh or
i ver
C L
Ġe clipse
Ġpar ser
Ġap i
Ġmatch ing
y ing
y eah
Ġr ot
ony m
/ .
G r
Con nect
C F
Ġdel ay
p ers
Bu ild
Ġr a
W ow
on est
Ġocc urs
Ġresol ve
if est
pon ent
az y
th es
U E
Ġs rc
par se
Ġguess ing
g o
Ġtemp or
li p
Ġde precated
ĠCl ass
Ġco ll
W ould
Ġlimit ed
t d
c pp
ot s
Def ault
Ġca uses
O W
Ġp anel
iz es
A b
At t
ot o
Ġpoint ed
l ayout
Ġexpect ing
Ġpl aces
Ġinclud es
Ġ! =
c al
gram m
G L
um ing
p ass
In fo
f r
it ect
` ](
Ġu nd
Ġprodu ce
g l
IN G
Ġ/ >
Ġwrapp er
Ġbloc ks
Ġregard ing
Ġi ll
Ġacc ur
rem ove
Ġcompar ison
if t
Ġ` \
ĠI IS
ick er
e a
w in
Ġpro xy
Ġser vices
Ġ ^
Ġh ence
(); `
Ġuser name
Ġcont inue
Ġlogg ing
ug ht
Ġbecom es
M ar
Ġad vant
pos ition
Re g
", "
Ġaf raid
j o
R ec
il ities
Ġso cket
Ġrepl aced
Ġm ath
s rc
Ġver t
am er
Ġup on
up date
T im
st ream
Ġm echan
Ġsort ed
Ġvari ous
m eta
M ark
Ġexecut ing
ĠF irst
um s
le vel
l s
pos es
Ġnot ification
Ġread able
Ġlo st
irect ory
ĠF orm
Ġpro file
S u
Ġform s
S how
V ER
Ġsmall er
t itle
Ġle g
Ġc enter
Ġover flow
E D
Ġcompon ents
Ġconv ention
Ġ` '
st ate
Ġgo al
O IN
Ġapp end
R C
Ġre p
Ġres pect
he ight
Ġmo ved
f aces
Ġlar ger
Ġc ar
Ġver ify
us r
Ġresol ved
Ġact ive
Ġpri or
Ġslow er
act ive
: )
Ġor g
Ġfollow ed
Ġ1 1
j or
ĠB Y
Ġre li
ĠI N
set s
Re ference
Ġdepend ency
Ġre load
Ġmark up
s ers
Ġc y
th en
ain er
4 6
st ruct
C ount
Ġsy stems
Ġprom pt
e ach
ĠG UI
s igned
Ġopen ing
Ġpost s
` `
Ġappreci ated
Ġp ower
Ġgu ide
produ ct
ser vice
Ġsur pr
ĠR em
ĠApp le
I I
Ġtyp ed
Ġb o
Ġm obile
Ġprec ise
Ġex port
Ġan not
Ġover head
k it
Ġp ain
id ing
ific ant
p i
Ġanswer ing
Ġim pl
c ent
s m
pos ed
z illa
ist ory
Ġr ad
S ome
Ġbel ong
p arent
v ial
Ġim plicit
Pro perty
le g
Ġo lder
St art
Ġdet ailed
W ill
' )`
Ġexpression s
W indow
in ation
Ġ? ?
R ight
alle l
P re
Ġc ool
as ing
i ag
B ecause
tr ans
Ġscreen shot
Ġunn ecess
pt r
o per
Ġre v
act ory
Ġhappen ed
Un fortunately
Ġprot ocol
Ġloop s
Ġdis able
I K
Ġimag ine
Ġse g
rel ated
P age
Ġpro gress
ou d
Ġknow ing
Ġadd s
d ir
ĠD LL
ak es
X X
li ct
Ġdesign ed
c ould
ex pect
Ġload s
ch at
S ub
r ary
N ice
Ġhigh light
Ġdevelop ers
Ġcou nter
Ġassum ed
ĠM ake
l a
Ġd rag
ul ation
Ġent ries
Ġdec ide
> </
Ġ: /
Ġdepend encies
ain ed
(' #
num er
ĠM an
ĠInst ead
c ond
ĠR uby
Ġch rome
Ġsu bject
onym ous
E n
ot ype
d if
ech o
e ven
Ġg l
ru pt
ĠA d
Ġreprodu ce
Ġserver s
Ġvis ual
Ġincre ment
L ine
Ġaccess ing
Ġp air
Ġconf usion
i od
Ġb ring
u k
Ġread y
par am
: `
in ner
Y ep
ap ache
c ustom
@ "
Ġdisplay ing
i os
ĠĠĠĠĠĠĠĠ Ġ
Ġh ref
H ello
ĠSE LECT
Ġwe ek
Ġtim er
4 8
it ter
ĠS ec
Ġhom ework
Ġi r
Ġcalcul ate
ac y
D ATE
a ul
M essage
Ġmer ge
Ġdis k
) {
m aster
Ġpath s
ar b
n ode
ĠOn ce
st ore
a ff
Ġtext box
a pt
D es
Ġbus iness
h as
Ġm iddle
lin es
Ġok ay
app le
Ġindivid ual
b ecause
art ic
roll ers
ĠAl though
ut il
Ġwa iting
Ġauthent ication
D N
ĠOr acle
ĠS S
Ġprocess es
O C
n ext
N umber
Ġdifferent ly
Ġneg ative
Po int
S ure
B ack
M ethod
on str
T R
D own
p ache
3 1
Ġthr own
Ġinitial ize
ad min
Ġr aw
R em
iv ing
* `
al so
** .
Ġsu m
i um
N ew
s ive
Ġchar m
l ast
Ġ ....
Ġv i
with out
Ġca used
u ff
Ġpre fix
enc ing
Ġl ight
ĠB TW
ĠApp lication
are n
Ġdem onstr
Ġcont in
Ġst ick
?? ?
log y
ing s
Ġmodel s
top ic
ty p
Ġclear er
Ġdri ver
Ġquick ly
ĠA P
Ġf lo
col umn
e el
su pport
6 5
ar p
Ġcont act
Ġ ~
Ġ ed
ĠL og
Ġbr ack
Ġn il
Ġlogg ed
ĠB u
Ġc ut
Ġre write
ch ild
Ġdat es
Ġf ault
Ġsc al
loc ation
Ġrec urs
g i
Ġpo or
Ġhigh er
Ġindex es
Ġtyp ing
IN Q
Ġreal ized
Ġqu ote
W ork
Ġes cape
Ġf oo
pd own
in ct
Ġthr ows
d ll
gr aph
/ ).
es ides
ĠE very
ure s
Ġco ordin
se qu
Ġassign ed
ĠC ol
Ġm s
Ġp a
m et
v m
z ip
Ġfair ly
Ġen able
a im
Ġmar gin
Ġaw esome
Ġconc at
ur al
L ooks
U M
" )`
F I
Ch ar
Ġab stract
Ch anged
Ġsign ature
Ġsign ificant
Ġsuccess fully
Ġma ster
per ties
Ġcondition s
` ).
B ase
fil ter
Ġatt ach
Ġ er
Ġbreak point
ist er
du ct
Ġboo lean
i pe
Ġclient s
[ "
Ġbenef it
b lock
ting s
ĠĠĠĠ ĠĠĠ
oo st
ich ael
j pg
cont inue
Ġad just
Ġne ither
h ome
l ab
Ġele g
re sp
re al
re me
pd f
ang le
se l
g es
dis cussion
re le
A G
Ġse lection
Tr ue
cont roller
Ġd ir
Ġar bit
F rame
7 9
D I
un tu
Ġlist en
Ġopen ed
Ġtime out
Ġarch itect
Ġwh ite
/ `
ro ot
ro oms
est amp
Ġli fe
Ġ1 000
Ġd ll
Ġst ates
= >
R o
it or
Ġl ate
k y
() `,
Ġon line
im ages
and s
ĠV al
b ind
Ġ_ _
Ġpl aced
yn chronous
Ġn avigation
ĠO k
Ġcopy ing
S V
Ġsem ant
AT H
201 1
Ġtell ing
Ġvalid ate
Ġmod ules
ĠE ng
Ġw idget
Ġg one
Ġimplement ations
Ġex it
Ġdec ided
Ġiter ate
e qu
Ġprint ing
S ize
qu are
or er
Ġ` :
j Query
i ant
X ML
Ġpart y
6 8
ial ize
ĠO N
an ced
Ġrender ing
C P
Ġinitial ized
r ails
Ġhard ware
Ġassoci ated
Ġst o
m at
ot er
Ġs ens
av es
dele te
Ġhe ard
ĠR ails
Ġtell s
down load
S ince
Ġc ategory
Ġes cap
Ġdat ab
Ġhelp ing
al k
Ġtr ansp
Ġtem plates
ĠL ook
N ode
T ask
ru by
arch ive
c r
e lement
Ġinter net
Ġcell s
Ġl ack
Ġapp arently
ĠA ccess
ĠIm age
C ell
ust r
ser v
Ġst ri
Ġident ical
ĠWP F
Ġregard less
know n
W indows
Ġ Yeah
Ġw ast
ud o
Ġk ernel
plic ate
Ġunnecess ary
T em
Ġser ious
Ġpur poses
JS ON
In put
Ġoptim ization
m aybe
ar m
Ġclar ification
ĠEx cel
ĠS T
nc y
ĠR ight
Ġg re
A uth
G ET
Ġi e
in i
Ġeleg ant
It s
Ġincre ase
Ġ` {
ard s
Ġdis abled
Ġredu ce
Ġw in
Ġpossib ility
str ap
Ġsc ale
Ġman ager
Ġh onest
b ig
Ġhe ap
Ġb order
Ġre ach
s ession
Ġun able
expect ed
f rame
A fter
Ser ver
Ġsc an
Ġte am
t ion
le ft
Ġp ublish
is ible
t ab
M od
Ġinput s
Ġpart ial
i j
end ar
âĢ Ŀ
d ict
Ġst rict
app ing
ic ial
l ong
be fore
Ġsp ot
pon se
201 3
F iddle
Ġcomp any
sa fe
Ġkey board
Ġun clear
Ġre po
jav ase
form s
Ġiter ation
ĠR un
ann el
art in
co py
ĠSe ems
at abase
Ġconnection s
T H
op s
view s
r ange
Ġma jor
P anel
d ump
Ġind ent
Ġsuggest ing
Ġfo ld
Ġm ig
Ġf lex
Ġt re
ĠiP hone
Ġb atch
M ake
A lex
Ġf our
ul ated
ag raph
P S
Ġconver ted
Ġwhen ever
De le
ĠJ OIN
d on
Ġreason able
Tr ans
im ent
C o
G u
Ġconf lict
cont rol
Ġuse less
de l
Ġint ent
amer a
Ġtempor ary
H ttp
Sh ould
Ġsit es
aut o
) "
el se
a j
ĠT ype
Ġc ursor
Ġconnect ed
S ER
Connect ion
Ġ& &
at tr
ĠA g
ĠA pache
Ġsort ing
.. ...
M at
Ġdownload ed
Ġd ump
ob j
Ġcorrect ed
l ook
By Id
ang es
Ġinstruction s
I C
Ġtri vial
ĠG ET
ĠL INQ
Col or
Ġk ill
Ġact iv
O verflow
Ġif rame
Ġlat ter
er c
col or
Ġb other
Ġ q
Ġlist ed
Ġs ir
ani el
Ġt asks
Doc ument
Ġident ify
Ġturn ed
Ġb tw
/ >
eb in
Ġdis app
n ames
end s
Ġf all
local host
sq li
d ouble
Ġread s
ĠWh ile
u pload
ut s
b re
ra ction
Ġc aching
br ows
oo king
Ġinvol ved
us ers
Ġmost ly
Ġin fin
Ġfore ach
: (
', '
Ġinstall ation
if i
Ġrece ived
p al
Ġprogram s
b ing
Ġcomplex ity
Ġinject ion
Ġrefer enced
ang ing
s omething
Ġhe ar
ĠM ore
angu age
Ġp ool
Ġhand les
Ġrecommend ed
Ġinser ted
Ġadvant age
spec ific
Ġt ick
Ġext reme
O b
Ġp adding
Ġhand led
ag ree
Ġfinish ed
ri st
Ġ: ).
Ġcorrespond ing
G B
7 5
Ġbig ger
Ġdeal ing
Ġmechan ism
Ġess entially
ul a
Ġprovid ing
a q
Ġcert ific
? !
4 2
Ġbug s
Ġseem ed
w esome
c p
c f
Ġgener ating
Ġdeter min
Ġliter al
> >
rib ution
Ġdec imal
pr ot
B l
ĠP DF
z y
Ġd imension
Ġmark ed
ĠS u
Ġcombin ation
W orks
r am
ĠO h
gg le
Ġbre aks
Ġinte gers
R O
Ġpo ly
Ġchild ren
Ġexplain s
Ġembed ded
i est
out put
Ġr ails
Ġgr ab
Ġre ct
ĠTh read
ĠX code
org e
AM E
Ġcomp ared
Ġfrag ment
Ġenc ounter
O pen
Ġper iod
v ider
Ġguarant ee
Ġconver ting
od er
pl ugin
Ġlook up
Ġpop up
Ġt reat
t ml
Ġmag ic
ĠE X
Ġthrow ing
Ġprogramm er
Ġrec ur
Ġa polog
arb age
) `,
ph one
es h
Ġp aren
u c
ynam ic
Ġin depend
amb da
(" #
Ġturn s
ĠM ost
Ġ`$ (
on es
Ġu g
ĠC L
P HP
Ġfeed back
Ġbl ack
Ġarbit rary
Ġmis s
Ġsyn chron
Ġcomm a
Ġin spect
Ġaccording ly
k ill
Ġsome what
Ġprov ider
Ġcre ation
val ues
Ġlin ux
s plit
r b
o ption
le ments
Â ´
it ude
I F
Ġlet s
Ġfil ename
anc y
le ar
ĠP C
Ġkeep ing
Ġorigin ally
Ġl azy
Inter esting
ĠG u
k a
Ġplay er
Ġconcat en
Ġrepl acing
A V
Ġdes ktop
h ash
* )
ht m
ĠSp ring
m ac
Ġconfig ure
t ech
Ġem ulator
s cri
ĠB asically
Ġinherit ance
ĠN et
ĠAct ivity
ac cept
ch a
L ink
Ġent ities
con s
document ation
. `
Ġtal k
ĠCh eers
Ġ= )
numer able
! )
Ad apter
Ġshow ed
c d
Ġpar agraph
Ġ č
Ġloc ally
sp an
Ġal one
Ġrec ent
Ġterm inal
Ġsent ence
ĠA b
m essage
it al
Ġdiffer ences
Ġde ad
ag ue
Ġsm art
Ġcol lect
Ġtab s
act ually
Ġf low
Ġwarning s
Ġst ackoverflow
ix ed
M ain
in y
Ġsu c
w ill
ĠSer vice
l ers
ĠO b
ver age
Ġal ot
om etimes
Ġatt ached
Ġpar allel
ers ion
ĠM odel
at is
Ġc ur
m ulti
ate gor
Ġexecut able
Ġg em
Ġsh ot
ll ing
Ġend s
Ġinv oke
Ġrender ed
he et
ĠW CF
Ġdig its
Ġal ter
Ġsu fficient
Ġcir c
Ġdisplay s
Ġ5 00
Ġcapt ure
Ġsol ves
elp hi
Con fig
on na
Ġs illy
wr iting
p assword
Ġrepresent ation
Ġind icate
Ġcompil ing
Ġas p
iv en
clo se
ĠF F
Ġw atch
200 8
Ex ec
p are
Ġlearn ed
Hand ler
Ġon to
ri ble
Ġresol ution
Ġlist ener
' ;
ĠT able
s ave
Ġexplain ing
T om
past e
Ġman ifest
f loat
Ġr uby
Ġaddress es
os ite
n on
Read er
Ġconfig ured
ĠD is
Ġtrans fer
W r
Ġ201 0
Ġre verse
cre te
pl ot
ier arch
Ġan g
v n
Ġtechn ique
am l
ot al
Ġclean er
s d
Ġdro pdown
wor king
C urrent
E m
or ter
ĠPer l
ĠD I
i brary
Ġre ly
Ġinitial ization
Ġun like
9 5
G ener
Ġme asure
Ġinv est
Par am
Ġcomp ress
Ġsuggest s
Ġcrash es
Ġunder lying
Ġover rid
Ġparen thes
ore d
Ġd iag
Ġst ory
put ation
em ail
H O
Ġtr ust
Ġsc r
Ġout er
7 4
Ġpl us
Ġmax imum
rag ment
Ġcustom er
ruct or
} ,
Ġu l
tag s
Ġappli es
() {
s im
f ramework
Ġalloc ated
l n
) );
Ġf requ
Ġal ph
Ġdiv s
Ġdis agree
Ġre view
Ġ( "
Ġder ived
Ch ris
Ġmanage ment
ĠP o
b b
face book
Ġh over
Ġfl ash
dat abase
g ood
Y I
ĠE ither
Ġ roll
ĠJ VM
9 6
ri an
rele vant
ĠG lad
I G
Ġdraw ing
Ġelse where
( (
ĠE F
Ġf av
Ġ` __
sub mit
Ġcomp aring
Ġ200 8
gramm ing
Ġflo ating
brows er
ĠP re
m enu
com ment
on se
Ġg cc
S p
con f
Ġwhere as
Ġcook ies
u h
Ġmod ification
ĠA ction
Ġaction s
Com mand
back ground
ar r
Ġlet ter
Ġenc rypt
ust er
Ġfail ing
Upd ate
++ .
Ġad apter
Upd ated
in sert
L ook
Ġle ak
cont ext
ĠT est
Ġinter faces
Ġm ut
i bernate
pro perty
C all
B en
Ġas ync
ĠS ub
y ond
ĠM ain
it ed
Ġsec ure
Ġan onymous
Ġdele ting
s creen
Ġrecurs ive
w ing
ut o
ĠâĢ ľ
ar s
Ġtutorial s
] )
Ġsk ip
AB LE
Ġcomment ed
ĠS im
A g
Ġocc urre
im ate
Ġkeep s
7 6
tr ace
L abel
iz ont
b untu
ht access
p ared
Ġconcern ed
orm al
Ġsurpr ised
Ġcommun ity
il ver
are a
ĠB oth
Ġevent ually
N ope
j oin
_ .
Ġhas n
b ie
g s
man y
âĢ ¦
Ġug ly
sel ves
Ġex pen
un defined
log in
Ġcompil ation
Ġcompat ible
e ep
Ġb oot
as ic
Ġmisunder stood
at al
A m
Ġh istory
Ġenter ed
ber t
sp ot
Ġpack ages
Ġlo l
V ery
ist ic
Ġprevious ly
ĠO ut
Ġpast ed
Ġs leep
atis f
Ġupgr ade
ĠTh ese
Ġaccur ate
Ġas ynchronous
P h
Ġc ra
Ġg onna
ant s
Ġfold ers
ites pace
ĠTh ough
Inst ance
P A
al endar
, "
Ġex press
Ġplay ing
G lad
Ġplugin s
d raw
resp onse
ĠL ooks
Ġcare ful
5 8
Ġdatab ases
( [
Ġtri es
user name
' ?
Ġcan vas
Ġextreme ly
The y
\ "
h mm
Ġthem selves
Ġrem ains
im in
9 8
st ack
f ree
ex ist
Ġduplic ates
Ġim p
Ġdat at
I X
Ġsign al
d y
Ġg arbage
S D
Ġf acebook
Ġbro ad
Ġguarant eed
Ġab ility
ĠV ery
ĠS omething
C ustom
ĠAn other
ĠV M
ĠP ar
ĠF acebook
Ġlocal host
ĠN ame
Ġpl ot
M e
Ġref act
Ġh elper
Ġf acing
Ġconsider ing
ew rite
tr l
ĠM any
F ound
Ġs al
Ġsingle ton
in ks
Ġdoc uments
Ġmin imum
5 3
Ġbe yond
gg reg
w o
Ġrest rict
Ġob j
Ġ} );
ĠStack Overflow
ard ing
Ġim ple
Ġan no
Ġarchitect ure
Ġd en
con sole
iter ia
Ġmonth s
is k
e val
il er
> `.
Ġassum ption
ĠEx ception
i us
Ġdest roy
r andom
Ġparam s
ath an
E ven
N ull
ĠE vent
pl us
Ġlog ical
Ġprint ed
A wesome
Ġint ention
Ġoff set
E NT
y a
Ġs quare
ĠUn less
S im
i qu
Ġdes er
Ġsh aring
Ġal ias
mo zilla
5 2
ĠT om
Ġal ign
Ġgener ates
200 9
Ġbrack ets
stand ing
Ġsub st
Ġap ache
t n
7 0
> .
Col umn
Ġb undle
d ated
il ter
Gr oup
Ġanal y
7 8
gre ed
Ġb ash
t a
Ġrecur sion
Ġresult ing
ĠI d
Ġser vlet
Ġc ard
Ġ` _
Ġselect ing
Ġref lection
Ġexper i
Ġth ous
Ġ4 04
ploy ee
Ġrepe at
en e
Ġprint s
12 3
A A
v oke
Ġdisc over
ang er
p th
ĠW orks
ĠQ t
* "
Ġloc ated
Wh ile
++ ,
app end
t ri
Build er
Ġwor se
Ġsh ad
Per haps
F unction
gu ide
Ġr are
S ession
Ch ild
tem plate
Ġinit ially
clud ing
ĠEng lish
Ġob tain
Ġhad n
Ġ` &
ry ption
c ache
( ...
blog s
4 3
Ġ201 2
Ġcl aim
ĠS ure
o lder
ke ll
l at
in c
r an
su per
Ġspecif ication
Ġeas iest
D ialog
d ri
A cc
init ial
Ġcoordin ates
Ġph ys
Ġtyp ically
' :
Ġu pper
ĠC OM
Ġform ula
() )
for ce
f etch
Ġmin ute
Ġt end
E M
vious ly
vari able
Ġfore ign
Ġaccess ible
Ġlog cat
Ġ est
I P
Ġbe an
ri ction
et ers
oc o
t ip
Ġperson ally
It ems
ĠS V
Ġmod ern
C II
Ġboo st
mod ule
ĠN ew
def ine
Ġw ide
1 01
Ġmach ines
head er
Ġ" /
Ġhost ing
Ex t
Ġrem ain
Ġre putation
is es
Ġstop s
Ġdefin ing
le y
sp ring
Ġgroup s
Ġcompil ers
ple x
Ġl ic
Ġmill ion
ategor ies
Ġa head
c atch
z one
Att ribute
develo pers
s ame
r ase
D ER
Ġir relevant
ĠL e
F actory
Ġres ize
N ULL
Ġhope fully
s end
oo ps
t arget
Ġdepend ent
ong o
Ġsitu ations
Ġi p
Ġcertific ate
Ġhard er
u be
arch ar
ĠSec ond
D T
Ġmodify ing
": "
Ġinser ting
Ġcontain ed
Loc ation
iss ues
Ġch art
I L
check ed
---- ----
ok ed
Ġinvest ig
reg ex
est er
sec ond
a i
m ode
Com ponent
Ġinstall ing
enc ode
S ch
U rl
ential s
past ebin
ĠWith out
ĠW ord
Pro cess
Ġany ways
ĠO verflow
Ġinfin ite
Ġs atisf
Val id
fer ences
Ġh ex
Ġn aming
s imple
un g
Ġtw e
Ch ange
Ġexpen sive
Ġcons um
t ree
Ġcont rollers
ĠBu ild
Ġz ip
) ...
ĠSe lect
Ġimple ments
ĠF ramework
ĠH ttp
Ġrele ased
Ġ` `
ys is
Ġinter val
Ġ< <
Ġadv ance
Ġh ierarch
Ġfor um
s ince
Ġrequest ed
ĠT ake
ase t
Ġnum eric
Ġp ip
Ġpixel s
Ġconstraint s
urre ncy
Ġthem e
gr id
ĠD ep
om ic
c or
m aps
Ġt on
Ġy ield
el ess
Ġcompat ibility
Ġassign ing
Ġkind a
Ġcre d
Ġextend s
Ġgreat er
ĠC reate
ty le
v i
Ġsp an
Ġaccept ing
u ed
M ichael
all ow
for ward
Int eger
Ġexper iment
Ġrespon s
Ġfi ref
Ġproduct s
tem p
ĠD elphi
ĠPro ject
Ġred und
Ġtech no
H ash
st atus
Ġhigh ly
ĠG o
Ġ( $
ad ata
M ike
ah a
ĠD ef
Ġdis cuss
ĠS P
Ġfiref ox
o oth
Ġsepar ately
An other
) )`
ic ol
Ġtim estamp
re ed
de cl
l abel
Ġmatter s
Ġpro b
R ob
ri ll
I B
IM E
Ġcl ue
S ec
Ġcr it
Ġdri ve
And roid
Ġim m
F oo
D D
U sers
Ġdec ision
oper ator
Ġde ep
Ġlet ters
e ff
r ound
Ġto mor
/ ?
U p
ul ating
et ter
Ġdist ance
Ġn avig
Ġor ient
ĠP age
P DATE
Ġdirect ories
comm and
Ġgu y
Ġj ump
Ġident ifier
Ġpre sum
oc ation
Ġrec ently
Ġsy nc
ĠP r
D ec
Ġex cellent
ĠM ay
i vers
Ġmin imal
p m
ay s
Ġfail ure
ik i
a u
Ġvi ol
To String
Ġenc oded
mem ory
D et
ĠD es
b lob
Ġs ources
A LL
St ack
Ġv ol
Ġsuit able
by te
Ġp atch
J ames
P ATH
Ġtomor row
ser ve
Ġrefer s
b est
e es
Ġel imin
Ġid s
Ġopp osed
Ġconsist ent
Ġnew er
Ġenum er
Ġd ot
Ġrepe ated
b acks
s k
Ġwh itespace
ĠP DO
eb ug
v otes
R el
it map
ition al
S ql
F T
Ġlink ing
h ello
Ġdocument ed
] :
E L
ĠTr ue
Ġsu mm
ĠP erson
Se ems
Ġupload ed
ĠK ey
ĠM on
pro blem
c ut
Ġaccept able
ex cept
W rite
ĠE ach
R OU
Ġse per
Ġw ww
Ġintern ally
Ġ 80
ĠX SL
ĠAg ain
... "
S ounds
Ġcon crete
c ard
Ġex cel
Ġdist inct
Ġv ague
ac ity
Ġp se
R ect
Ġchar s
9 4
Ġfunction al
Ġiter ator
Ġan ch
Ġsure ly
ĠM ark
im plement
th ink
select ed
Ġcon ven
FA IK
ec lip
h ip
Ġh ook
ĠRE ST
ic ated
at ives
N G
St ill
Ġsp ent
re port
Ġ !!
et y
r al
ilver light
und red
ĠPro bably
Ġsl ash
Ġhand lers
ens ive
Ġspecify ing
I O
ar ning
Ġrece iving
Ġalloc ate
Ġperson al
Pro ject
Ġclo ser
M B
Ġun expected
Ġatt ention
Ġ$ .
af ari
ent ity
Ġa ggreg
A Y
Ġlo se
Ġs amples
Ġstrong ly
FI LE
e fficient
Ġsh eet
de bug
ĠUpd ated
Form s
Ġm edia
Ġinterpre t
Time out
Ġprodu ces
Ġsign ed
Ġpop ulate
D ep
Pro gram
ĠI B
Ġ1 3
ock et
Ġ` %
M ode
am ent
Ġke pt
Ġfact or
se ction
Ġline ar
Ġoperator s
Ġbeh ave
Ġ[ [
C O
Ġrespon ses
Ġrad io
Ġbox es
M M
em ory
Ġ2 4
Ġsub mitted
Ġformat ted
em pty
M on
al though
ĠAct ive
Ġl im
ĠT ime
Ġoption al
u a
ac c
pl orer
P ython
im ation
Ġcl icks
Res ponse
tw o
p ush
os ition
9 2
Ġrest riction
Se arch
em e
Ġcast ing
Ġscroll ing
D aniel
ĠH as
n eed
Table View
sc roll
Ġnice ly
Ġa udio
ĠL ine
ĠD oc
B TW
Ġfact ory
Rec ord
be h
Ġc amera
b a
Tem plate
Ġus ual
ous ly
Ġ" .
ĠA jax
D ictionary
ent y
Ġbloc king
ĠG r
Ġ1 4
ation al
l ive
Ġpro fil
Ġthought s
ck ets
Ġdel imit
Ġrout es
F S
Ġas pect
N AME
ĠI NT
f aq
Ġprogramm ers
wr itten
Res ource
e g
T ake
HT TP
Bu ffer
c ategory
l oop
Ġim g
Ġaccess ed
Ġs izes
ab ling
Ġid i
Ġstructure s
ad ly
() );
po p
ff ice
Ġtag ged
ist r
] +
O ver
comp ile
Add ed
Ġam big
C S
ab out
B r
in ci
($ _
Ġ2 5
ĠUn icode
A SE
e very
Ġsend s
ĠG ener
ow se
Ġoff icial
w p
pl ication
Ġan t
E nd
ĠID s
qu estion
c sv
Ġcompil es
Ġdisapp ear
cri ption
om as
add ress
Ġpot entially
Ġoptim ize
T ag
ĠS y
Ġa verage
Select ed
ribut es
ĠU S
or n
Ġz oom
ep ort
Ġprec ision
M enu
Ġignore d
ab c
Ġextension s
Ġv oted
Ġpri v
] `.
Ġ| |
Ġattempt ing
Ġpot ential
M artin
ĠC ustom
ĠC ons
Ġ" $
Ġe g
Ġc ached
Un it
ok u
ĠIM O
pe g
ĠMS DN
m ath
Ġsch ed
o le
av y
t ools
Ġben ch
= `
U t
f s
Ġdevelop ing
Ġh undred
On ly
ĠURL s
Ġhold s
Or der
Ġread er
Ġdist ribution
it ems
Com p
M att
fo lder
ĠS ol
A PI
ar row
F r
ĠU N
ĠG it
8 3
A ccess
Ġcalcul ation
ak en
Ġunlike ly
Ġedit s
: @"
ĠW ork
A ML
ĠS how
D raw
gg ing
E ntity
Ġsome body
U N
ĠĠĠĠĠĠĠĠ ĠĠ
form ance
f act
sv n
Ġtechn ically
Ġte ach
yp es
Ġre name
` '
Ġp df
P aul
Ġres er
ĠE ntity
ROU P
Ġh um
Ġwhat s
Ġst ru
lo se
b el
ĠN ever
al ert
Ġprefer red
ĠâĢ Ķ
eclip se
app ly
Ġpos itive
n n
Ġth x
Ġautom atic
Ġor d
ĠA cc
r t
"> </
sp ace
Ġn ight
Ġsa f
d jango
ĠS te
(' .
Ġli f
Ġsto pped
arg s
un less
fer ent
g est
: /
if ies
ers core
Ġoutput s
B o
Ġa x
U ID
H ead
Ġt u
99 99
print f
ex ception
Ġcondition al
U L
Ġins ight
Ġtrigger ed
Ġbre aking
Ġcomb ine
Ġar t
Ġthe ory
Ġprot otype
Ġbelong s
Ġver b
Ġalgorith ms
re ally
b ash
Ġwant ing
st ill
Ġindepend ent
en v
Ġsemant ics
Ġsol ving
Per fect
Ġbit map
p aces
Ġas sert
W T
ĠAn swer
Ġoper ating
Ġswitch ing
Ġ* )
Ġmod al
Ġm eta
Ġdefinition s
Ġwr ites
Ġinter act
in ally
Ġd a
l ar
Ġg oog
( {
Ġredund ant
ĠD jango
ĠG rid
M any
Ġport ion
b oost
Ġsim ulator
Ġb acks
m ag
Ġle aving
Pro duct
M P
Ġm ere
i i
Ġfire bug
Ġframe works
f ont
Ġtrick y
Element ById
bu ffer
ast ic
ĠF lash
ann a
r ate
Ġsymbol s
ĠB l
p attern
Ġper l
Ġvis it
Ġopen s
os ity
Ġanno ying
Ġide al
ail ing
p ag
izont al
Ġacc ident
Ġ`$ _
Ġpr ice
stand ard
Ġst udio
Ġmis le
to String
Ġbegin ner
Ġth umb
Re f
ĠN othing
Ġevery where
d ist
ĠC SV
comp at
re h
s est
Ġmention ing
Ġc ent
Ġl ambda
Ġdirect ive
Ġallow ing
v is
ĠAP Is
de c
Dele gate
Ġdown voted
E Y
ĠC all
ĠGC C
ĠQu estion
r s
ĠS afari
iz able
" ...
u id
Ġ" <
i ring
s ign
ĠS ame
Ġsession s
Ġis ol
be ans
is ation
ĠM at
Ġret ain
lic y
Ġma ps
f ire
Ġh ur
ĠI O
st op
sh arp
Ġinstanti ate
typ es
an x
Ġscr atch
o pt
M ax
B inding
ĠP h
al y
ĠS ql
Ġn at
U TF
Ġfl aw
Ġb ul
Ġwrapp ing
Ġma ven
At Index
ĠA LL
Ġrefer encing
Java Script
ĠG reat
ĠT CP
Ġexper t
S omething
ĠArray List
Ġpract ical
n x
Ġsearch ed
word press
blog spot
iz ations
pri vate
Ġadv ise
Ġparticular ly
act er
C CE
Ġcol ors
ĠCont ent
Pro vider
n il
ĠS SL
Ġhand y
Ġd ict
P eter
F C
Ġmult ip
M A
Ġfix es
Ġr ate
bo ot
Ġpattern s
Ġcare fully
Ġcop ies
.... ....
y e
Ġser ies
Ġloop ing
Ġcr iteria
** ,
t mp
Ġpro f
pri se
in ary
ĠThere fore
= $
Ġd jango
ĠCom p
Ġtrig gers
Ġg reen
Ġeffect ively
Ġ* **
SS ION
Ġh y
ĠSt art
Ġ 00
Ġexpect s
function s
Ġtrans ition
Ġtransp arent
In deed
Ġclo sure
one y
Ġinv oked
Does n
ant ed
s ites
g en
Ġst age
inst ance
ĠDate Time
Ġfix ing
ĠUpd ate
i ate
g cc
Ġgener ator
h ide
E d
, ,
Ġanal ysis
ĠM ap
Ġopp osite
Ġt ill
h ref
Ġtr a
h ar
el ine
Ġf ace
: "
cont ainer
Ġfil led
Ġalloc ation
Ex actly
Ġcomp reh
ĠA h
Ġnot ation
Ġsimpl ify
8 2
Ġsubst it
multi ple
Ġed ge
Ġqu al
ĠâĢ ĵ
eng ine
Ġcl one
artic les
N O
Ġeffect s
und ament
" );`
Ġexecut es
c ce
ĠXSL T
ex pression
ative ly
Ġmin or
h idden
u zz
F ilter
Ġlabel s
Ġch annel
Ġsimpl est
Ġhierarch y
l anguage
em a
f orge
Ġlead ing
6 3
9 3
um my
ĠC ore
Ġsh all
size of
N e
Ġc md
Ġro b
Ġfeel ing
Ġprocess or
Ġcirc um
ĠM e
Ġprotect ed
m ove
L in
Ġm ate
Ġpar sed
Ġdat aset
n ers
Ġstore s
Ġpri mit
velo per
ĠB ack
m f
5 1
Ġannot ation
R ange
C ool
lin ux
... `
Ġser ve
] ;`
az ing
per l
am n
Ġwh ose
ĠT im
ĠE n
Ġis nt
Ġsp ring
requ ire
Ġcra zy
H tml
ĠIs n
Ġback up
Ġsh orter
re nder
7 3
Ġfi red
ĠA ss
c ial
m ay
ĠS c
ĠH ash
Ġorg an
S tyle
Ġindic ates
Ġreplace ment
os en
DB C
K it
ĠN ice
Ġtransl ate
()` ?
Ġch ain
m t
" *
m vc
Ġdecl aring
Ġcomple ted
Ġplatform s
Ġqu ality
sc ope
ook ie
Ġun signed
Ġreport s
Ġcl uster
And rew
Mar c
oo lean
Ġorder ing
ic i
Ġnot ed
Ġevalu ate
ĠPro blem
Ġwrapp ed
ĠAS CII
Ġover kill
A ss
Add ress
en k
Ġcan cel
Ġprogramm atically
sh ared
ĠC o
Ser ial
Ġapp lic
f ill
po inter
Ġreli able
P erson
Ġdes cript
7 2
Ġp i
ue ue
In it
ateg y
ĠM ar
Ġw ild
es cape
Ġwast e
Ġach ie
ĠCons ider
Ġg ithub
if f
} "
Ġad apt
the y
> ,
E B
d ynamic
Ġsp end
C ON
ĠR AM
Ġregister ed
Ġlevel s
w ould
oco a
leg al
Ġfo ll
Ġcommun ication
Ġpr inci
li es
r ough
Ġst at
Ġcred entials
Ġro le
Ġear ly
or ig
cl usion
Ġaw k
un it
r out
T ried
class es
Sc roll
Out put
t ool
ĠS ometimes
ĠE xt
Ġclass path
sing le
Ġrecogn ize
Object s
St atus
ĠS ource
get ElementById
ĠE D
ĠSQL ite
u ly
object s
od b
Ġen code
F l
Ġd anger
)` ?
... ?
1 10
Y up
Ġsub scri
Ġsepar ated
p a
T ab
Ã ©
Ġ< =
rows er
Ġpre d
g lobal
O B
Ġsc ore
pect ive
c er
č Ġč
app s
O per
Pl ayer
semb ly
oub les
ĠL ink
ĠIM HO
Ġprecise ly
Ġ* "
Ġre use
Ġper cent
c cept
cl es
Ġjoin s
ĠRe ally
us ive
Ġmisle ading
E E
Ġh ate
Ġpl enty
p ages
ount y
ĠJ on
T O
Ex cellent
Ġprocess ed
Ġon click
fore ach
Ġsuc ceed
L D
# .
? `
m edia
Ġnear ly
Ġinv o
aut if
col lection
** *
G ot
ĠOpen GL
ep ad
Ġimp act
Ġflag s
ĠS ession
T E
sec urity
as y
s n
Ġconstruct ors
5 00
ĠX P
ipp ed
j sp
pro gram
Ġwe ight
Ġenc ryption
Ġoverrid ing
R A
N ever
all ery
Ġun related
al ways
b ad
rill iant
Ġman ner
L et
ĠS imple
Is n
L ength
Q UE
h igh
ho lder
Ġ> =
Ġatt ack
load ing
end or
ent ication
Ġdis patch
Ġas ks
con vert
Ġread ability
Ġseg ment
n ce
Ġde pth
Ġgre p
H A
ĠTh ose
Ġdesign er
Ġcuri osity
Ġre n
Date Time
Ġg lob
6 2
C ore
an other
us hing
ĠĠĠĠĠĠĠĠ ĠĠĠĠĠ
Ġ$ ('#
Ġfilter ing
az on
d rop
ise cond
; "
Ġh er
Ġback end
Ġnum er
ut f
ĠC urrent
S m
pack age
OU NT
Y Y
!! !!
connect ion
Ġwor st
Ġ{ }
un ity
ect or
x sl
h ey
Ġfav or
we ight
Ġj o
Ġ201 3
S ame
ĠB ase
z er
f ault
al a
il s
gg ling
U R
Ġap art
Ġ' /
add ed
read ing
Ġcall er
ar on
z a
Ġequ als
Ġ( )
OM E
Ġbl ue
an a
Ġsw ap
Ġh ang
Ġtip s
Ġoptim ized
Ġex am
Ġwor ried
ĠCont rol
p icker
Ġr isk
ĠE m
for um
Ġcy cle
em atic
Ġun known
ĠW as
pro perties
Ġpre ced
Ġ` +
not e
Ġcoll ision
Ġstand s
Ġ+ =
ER T
Pro bably
ith met
Ġ:- (
Ġ6 0
f riend
O ptions
ĠFire bug
Ġd ra
() ?
Ġsuccess ful
Ġmere ly
Ġmist aken
Ġconstant s
Ġlist view
> "
fe ature
ester day
R ed
Ġurl s
[ :
Ġfoll ows
Ġsimpl ified
Po inter
Ġext ended
L ike
) ).
ind er
Ġm ock
Ġst e
Ġfo oter
ĠM od
Ġpress ed
y cle
exec ute
Ġset ter
l imit
s ually
Ġsub sequ
T ree
pro file
Ġapply ing
Ġpre pared
o ptim
re st
ĠObject ive
Ġrelative ly
ec es
C C
R OR
W elcome
L S
Ġp y
Ġv ary
at ile
ĠN ode
Ġanch or
Ġcollection s
ĠC lient
Ġill ustr
Ġ4 0
Ġp at
Ġliter ally
Ġincorrect ly
23 4
ik ipedia
Ġaccept s
Ġn arrow
com ing
Ġ1 9
Ġhe avy
Exec ute
AM P
Ġo s
k ed
and ard
Ġc sv
IN F
Ġw anna
Ġbuild s
o ptions
Ġ );
Ġevalu ated
Ste ve
ult ure
M ore
Ġ 99
ĠP ut
Ġnew bie
Ġpse udo
Ġdele g
Ġpro posed
Ġma pped
id s
Ġob serv
Ġaltern atives
Ġfr ames
E nc
Ġra ise
ĠL oad
ĠU buntu
our s
Ġmanip ulate
s uch
Ġdefin es
Run time
s ys
ĠCon nect
f c
Ġswitch ed
li ed
b en
Ġlead s
Ġthous ands
in cluding
Ġ( '
C ar
Ġto wards
k i
Ġtext ure
ĠRe quest
let s
M ay
ss cce
E nt
ĠJ Query
Ġf undament
p ad
Ġimpl ies
Ġdat etime
Ġinterpre ted
un t
T ER
ĠM aven
print ln
Ġformat s
Ġim ply
Ġgr ad
X ml
N um
d irectory
ifi ers
ĠC G
in o
ex actly
my sqli
Ġover all
Ġput s
er ry
Ġre ject
Ġc url
Ġb ounty
Ġstandard s
vect ors
Dis play
Ġoccurre d
Ġn ature
St ore
Ġu i
Ġdig it
ĠN O
Ġgr ow
SE SSION
Ġm alloc
Ġg ain
Ġstart up
Ġremo ves
gg er
Ġweb page
y out
Ġs ake
ĠDid n
Back ground
m ind
Ġb ounds
Ġpers pective
Ġcorre ction
Ġimm utable
V S
ĠI F
L Y
un ique
Ġdownload ing
C SS
n an
ĠIt em
M icrosoft
ĠJ o
oo b
ee k
Ġcod ed
Ġam ong
Ġb ool
ra pper
def in
d ot
Ġperform ed
b oth
Ġd umb
` :
Ġb ooks
Ġdeploy ment
k b
Ġwor ries
Ġphys ical
ĠC orrect
Ġpop ulated
Co py
Ġl ay
d irect
` ...
n one
Ġconnect ing
b ound
Ġsh ift
ipp ing
V ersion
p ment
cont ents
Ġcont ract
c v
Ġpass es
' );`
Ġover write
ribut ed
ssib ly
d om
Par se
u ing
S am
Ġnew s
1 000
Ġfun ny
Ġrepresent s
Ġdec re
ĠW or
AN K
group s
int o
inst ead
Al though
Ġpl s
et urn
W idth
ĠLin q
valid ate
Ġund erscore
su ccess
d ig
ĠS wing
ithmet ic
be gin
Ġch e
n ormal
Ġdimension s
al one
) /
Ġpre ference
Ġintegr ation
Ad min
des ign
Ġb esides
U D
does n
Ġsub set
ect ion
ĠF iles
pl ain
bre ak
Ġmix ed
Ġm or
re y
Ġtechno logy
Ġch ose
m ut
ĠThat s
Ġwill ing
> `,
L ast
Ġafter wards
ĠO per
Ġint end
c md
ing u
Ġno body
ip hone
Ġmist akes
S ave
in ject
G raph
Ġconc urrent
Ġpa per
ex p
Ġdest ination
Ġ Query
ĠA uth
A CT
.. /
Ġescap ing
ĠF oo
v oting
Ġenc aps
ĠTh us
Ġbacks lash
Ġapplic able
Y PE
O D
Ġass ist
ĠEx plorer
f unc
ĠOR M
ĠR ed
D atabase
Ġeng lish
> (
C orrect
ke et
Ġgener ation
equ als
ĠN ull
Ġcalcul ations
Edit ed
Ġmisunder standing
act ivity
pro bably
A greed
Ġfind s
post s
1 12
C ase
ĠJS F
P T
ĠD O
H ost
mor ph
That s
Ġpair s
As ync
Ġsh ape
field s
D b
Ġreport ing
cre ment
ĠPl us
Ġloc king
Ġm ass
reg ister
ĠC R
W S
to ken
St r
app ed
Ġschem e
D ave
Ġfilter s
project s
Ġas ide
c oded
idd ler
Ġflex ible
res ources
Ġgraph ics
< ?
Ġ`$ .
T C
Ġf its
Ġartic les
p ite
fil ename
ĠList View
ĠJS P
ĠS tr
ĠDoes n
N one
Ġme et
Ġin fl
ĠR ewrite
er r
xx x
ĠU RI
m obile
ĠVal ue
Ġ ).
P C
Ġserial ize
Ġim pression
gre p
ud ent
ĠVB A
ĠPro cess
Ġseper ate
Ġtransaction s
n ever
Ġb al
Ġut f
Ġintrodu ced
fer red
\ .
ition ally
S y
" `.
Ġcle ver
comm on
ca ught
oo se
age ment
Ġch osen
Ġserial ization
Ġdescri bing
Ġrev ision
l legal
Ġevery time
Ġimport ed
Ġsql ite
Re ce
Ġperform ing
w atch
Ġident ity
Ġ< -
ĠD atabase
Ġnew line
Ġp ipe
Ar g
w ait
ĠT ABLE
Ġwh eel
Ġsy s
v an
rypt o
g reat
W ait
Ġtechn ical
Ġtr oubles
Ġre build
on ce
Ġloc ations
E qu
Ġmo ves
e gr
D an
Ġvert ical
Ġm icro
Wr iter
Ġtransl ation
Ġsection s
ĠS cal
Ġspe ak
Ġy esterday
Ġ( (
att ribute
ore t
ĠED IT
D irectory
E ng
ĠJ ohn
Â ł
Ġv otes
Ġun icode
Ġmin im
Ġw iki
sh ort
Ġform er
Ġmon itor
for ums
e ared
AT A
Ġmatch ed
P art
G oogle
Ġt iny
u able
Ġ1 7
Ġle aves
Ġregist ry
ĠTom cat
Ġd om
Ġpo licy
ĠEvery thing
ici ency
Act ive
Ġiter ating
Ġbas is
sc ape
8 1
ĠF ixed
Ġdest ructor
Ġcor rupt
n ed
db c
hi bernate
ev in
( ?
point s
Ġfi rew
sh ell
ke ys
Ġph oto
Ġsupp ly
Ġimplicit ly
in a
ĠJ DK
Ġto m
ul er
. '
Ġmess ed
` $
ĠEdit ed
ĠH ence
Ġport able
l ate
ĠN one
pl atform
m ult
Ġ[ "
us c
Ġs vn
Ġinstall er
ĠTr ans
Ġwork er
Ġcount ing
b at
y an
Ġlink er
Ġo h
Ġinterpre ter
ĠM ethod
Ġsh ut
ĠĠĠĠĠĠĠĠ ĠĠĠ
Ġrect angle
Ġsc op
Ġinter action
Ġdec ent
Ġ< ?
ag s
ic on
m ouse
Ġparenthes es
# ,
que ue
play er
Ġapproach es
r m
Ġtr aff
ob ox
Inter val
Ġdiscover ed
Load er
ĠM ath
de code
.. ?
Ġneed ing
ĠSe arch
ĠD avid
ms g
id ence
% =
Ġstack trace
Ġex pose
d est
Ġspe aking
ĠY OU
Ġ? ??
Ġserious ly
rig ger
in line
string s
b one
o logy
F YI
I ST
st ep
Ġjs Fiddle
Ġkind s
Ġdeclar ations
Ġtraff ic
Ġplan ning
Ġ vectors
ension s
ĠiP ad
k ens
Ġcir cle
ch anged
ingu ish
m alloc
Ġsub t
Ġcre dit
r and
Ġcount s
Ġad mit
Ġscenari os
l and
b es
( :
W in
L ibrary
ri p
w s
Ġex erc
ri ef
O F
P ress
_ ,
. :
Ġfirew all
Ġscript ing
ĠA FAIK
e ither
Ġassum es
Ġcalcul ated
Ġsub query
Ġleg al
Ġde alloc
4 1
ass ign
D u
M ath
Ġth or
ĠS ch
Ġencounter ed
c ar
Ġown er
Ġf oc
e ks
ĠM essage
ĠH aving
N OT
Ġcount ry
S pec
ip s
Ġdanger ous
r r
ĠĠĠĠĠĠĠĠĠĠĠĠĠĠĠĠ ĠĠĠĠ
CH AR
, '
par ams
F ragment
Ġdat as
N ick
Ġ1 8
' ]`
" />
k o
Ġf ac
Ġl and
Ġpriv ile
Ġ? >
De v
Ġboot strap
Ġc at
Ġ> >
W or
M r
iz ard
ĠInter net
Ġca ught
app y
Ġloc ale
` ),
l ined
form ed
source forge
Ġwe ak
Ġpassword s
Ġcomp ute
* ?
ent o
M utable
C re
al es
Ġul tim
ĠS pec
J B
Ġprint f
ad oc
Ġ-- >
Ġadv anced
D L
Ġindex ing
ĠEx ample
Ġmet adata
Ġprior ity
Ġpi eces
ĠH ibernate
Ġtr unc
Ġleg acy
Ġregard s
Ġcor ner
Ġpl z
Ġ... `
Ġsav es
istr ator
Ġbe at
Ġhost ed
Ġ" "
Ġfriend s
artic le
Ġdes c
0000 0000
ious ly
v ideo
Ġg en
ĠHope fully
ĠG L
Ġselect s
ab lish
Ġgot ten
Ġf ly
Ġindex ed
t k
ac s
Ġpost er
M ost
E ric
i et
cons ist
ĠF A
ĠS m
Ġsem icol
Ġlimit ation
Ġimprove ment
9 1
Ġex e
Inter face
Ġut il
Ġconcept s
det ail
ĠA uto
ĠI NS
Ġsl ide
He ight
Ġapolog ies
n ost
Int ent
Ġm utable
Ġorient ation
ĠTh ink
Ġstraight forward
ĠR ec
mf ony
Ġorder ed
and er
Ġconven ient
Ġha ha
Ġ9 0
i am
R ule
G o
d ialog
Ġget ter
] ]
ĠT ab
i en
Ġlic ense
P ri
Ġbranch es
ĠI de
ĠInt eger
Ġ$ ("#
Ġcrit ical
Ġst ar
lib s
__ `
Ġreg ion
b ool
in side
Ġselect ors
C ache
soft ware
b s
bu ilt
ĠA RC
Ġar row
Ġprom ising
Po ssible
Ġut ility
Ġcheck out
Ġcircum st
Loc al
Ġc ategories
Ġpro ve
Ġp in
ĠX AML
ĠL oc
" }
Ġreser ved
so cket
st raction
Ġmy sqli
Ġalph a
ide os
p ub
Ġbu y
T itle
Ġback wards
Ġd ie
ĠNS Log
H elper
s can
Ġcon clusion
p anel
ist ics
Ġbas ics
N ext
t om
Ġw er
E C
get ting
Ġcr on
m x
Ġh iding
p u
se m
h ack
Ġfl ush
ĠM uch
pon ents
in vent
Ġtime zone
Ġlet ting
Ġstr ategy
ow ers
12 34
Ġfeel s
Ġthor ough
E lements
ĠBut ton
" ),
Ġarg ue
W HERE
ĠT ask
Ġch unk
Ġclo sest
ĠAs ync
ru pal
c enter
an ing
Ġtr ailing
Ġmess y
s ay
Q ueue
to gether
; `.
M D
w idget
at ory
Ġclar ity
e h
7 1
Ġs pl
R ender
t otal
Ġin efficient
Ġmill isecond
IK E
ition s
Ġdefault s
up dated
un signed
Ġstud ent
ĠView Model
fix ed
ass uming
Ġmacro s
select or
d l
K e
ĠX Path
re lease
event s
Ġsc rew
Ġsort s
Ġhit ting
ĠA R
ĠTh x
ĠB tw
ĠSV N
ĠV C
l ation
Ġrot ation
. _
d p
Ah h
Ġrem aining
Hi bernate
Ġtom cat
ab ilities
at ter
S imple
Th omas
Ġindent ation
Ġlim its
Ġst able
result s
Ob j
Ġtr uly
Ġcomb ined
ott om
Ġpresent ed
Ġcheckbox es
ser vices
ĠW H
Ġd ude
Ġtre ated
Ġpl ug
Ġax is
man aged
O ops
Ġup voted
Ġcle ared
Ġh its
Ġ` *
Ġm al
sh eet
Ġf resh
rec ord
Ġro om
h ard
Inst ead
ĠK eep
() "
Ġprevent s
er ial
Ġinter rupt
Ġsupp lied
Ġpower ful
Ġ' \
Ġany body
Ġc alendar
Ġinvol ve
IN T
Ġnavig ate
Ġw all
t t
form ation
Ġmo v
Ġweb server
Ġgr am
E very
Ġsize of
ĠCon sole
Ar tic
T e
ri k
Ġcover ed
Ġv archar
ĠB esides
error s
T L
ĠScal a
Ġdeploy ed
bet ter
dif ferent
it able
` ;
Ġp ag
Ġelimin ate
Ġex clude
O O
sch ools
fe ed
Ġstay s
i or
` -
ret ch
Ġstory board
12 7
v ol
th rough
loc ks
B lock
Ġter rible
Ġencrypt ed
ph en
z ero
ĠF urther
app er
ri ver
H m
ser ved
Ġar ithmetic
h over
My SQL
Ġ" -
beh ind
ach es
3 00
Ġwe eks
a o
Ġescap ed
S H
S ol
Ġsu sp
c oding
un ks
Ġtyp ical
act s
Ġpop ular
po sing
Ġtrack ing
ct or
a N
a wn
Ġqu ant
g h
Ġd ummy
ĠO OP
Ġdist inguish
ert ain
Ġon Create
: [
Ġcontain ers
Ġpro of
R ich
ruct ure
sw itch
Ġ` !
ave l
{ "
Ġintrodu ce
Hmm m
Ġbinding s
Ġenc our
Ġinsert s
tern atively
det ails
Ġmain ly
Ġreport ed
Ġrot ate
> '
f usc
pre vent
ch rome
medi ate
) '
tutorial s
ĠF B
iqu es
U G
cle an
Ġprinci ple
Ġf ade
Ġ" \
Ġstri p
ĠM o
I W
ing er
l ass
Ġinherit ed
lf iddle
Cont ainer
Ġattempt s
F ind
v isual
v ia
Ġmention s
ĠOR DER
auth or
Ġcommun icate
D P
M in
Ġfl at
Ġn ic
# #
ĠNS String
Ġrare ly
ĠPro duct
C G
ĠHas kell
Ġmess ing
s ample
ul ner
M AX
ST R
al ign
ĠAdd ing
comm it
RE ATE
Ġstru ggling
Ġto ggle
Ġbr aces
ĠAdd ed
t or
T op
ify ing
spec ially
Be an
ar n
Ġhold ing
u itive
Ġg e
B undle
Ad am
Ġreal ise
Ġj av
Ġrepresent ed
ang ular
ult ane
EX T
To ken
Ġstrict ly
Ġsk ill
Ġtim ing
Ġch o
ĠINS ERT
Ġm oney
Ġimpro ved
Ġcombin ations
ĠL E
Ġsens itive
Ġex c
ĠP y
Ġdir ty
h an
Ġwer en
I gn
Ġs sh
Ġf ancy
Ġambig uous
Ġannot ations
autif ul
Ġclear ing
Ġdemonstr ate
Ġne at
Ġli es
Ġrec all
Y ea
ĠUI View
Ġnat ural
Ġcomment ing
is p
Ġdatat ype
Ġh ell
Ġinvestig ate
Ġsp read
Ġsh e
Ġexperi enced
Ġhum an
Ġind ices
ĠP hone
v im
com put
pro gramming
1 99
St orage
Ġqu oted
Ġab straction
om et
ĠIn deed
S P
a led
Jo sh
Ġpoint less
ĠP K
z ure
Ġs ed
Ġp aint
ĠC F
ĠCont roller
ĠT w
D omain
Ġshort cut
) (
L u
Ġmanip ulation
V AL
Ġem ails
Mat th
m ust
Ġhor izontal
ĠR el
Ġprimit ive
Ġfi res
Ġun ivers
Ġth inks
Ġw ise
Ġappro x
as c
Ġblock ed
B oth
E ach
Ġ ]
ĠM ight
Ġenter ing
Ġsubsequ ent
[ ]`
Ġgreat ly
Ġdiv ision
e per
Ġinstanti ated
E F
s ence
ro ov
Ġin complete
Ġsol id
wor ld
word s
Ġmeaning ful
Ġconcern s
tr ack
j ob
at io
Ġkeyword s
ĠR ef
Ġsm ooth
Ġbenef its
NS String
Ġsl ider
vir tual
ĠOb viously
Ġnot es
ch art
Ġsch ool
QUE ST
c py
g ist
el t
Ġhundred s
n able
orm ally
Ġcap ital
Ġs an
mod ules
/ ~
j a
wr ap
Ġhint s
Ġso ckets
/# !
Ġactiv ities
( ...)
OS IX
) *
Ġbr ain
e ffect
Ġest ablish
ĠE nd
s dk
Ġrec reate
ĠA B
Ġlo ss
Ġexerc ise
roov y
ĠG ROUP
Jon athan
Ġb ud
g res
Ġ* .
R ows
Ġconf use
Ġ2 000
Ġle aks
Ġaccident ally
h ell
Ġam azing
process or
Ġn av
s g
Ġarg s
25 5
Ġrecommend ation
P ass
Ġch all
M emory
loc king
us ic
Ġsty ling
s un
Ġpack et
? ).
Ġdec ode
ib ling
?? ??
Ġre ver
C at
S l
Ġaccount s
el s
N U
Ġpull ing
ĠS ilverlight
and box
T ouch
Ġ3 00
N othing
O ff
Ġsubmit ting
sql ite
ĠE d
Ġval uable
Grid View
ib ly
Ġo mit
S O
ĠUn ix
Ġgroup ing
Ġcustom ers
Head er
en um
load er
/ ),
In voke
u ation
dat etime
P arent
Ġver ified
Ġcomm its
Ġfiles ystem
f inal
m ing
Ġpro ceed
br owse
Ġnames paces
P hone
Ġrob ust
Ġposition s
Ġw ire
ad o
et e
ĠR o
c ur
ic ious
d s
Did Load
Ġ` ==
ĠU PDATE
oo oo
N ames
ĠS ounds
as ync
Ġfont s
Ġra ised
ap shot
c ity
reg ular
st at
red irect
ex it
F iles
Ġupload ing
prot otype
y ear
ok ay
ĠT R
Log in
compat ible
Ġsplit ting
Ġstud y
inter pre
S creen
[ ^
n av
Ġh ot
Ġaffect ed
f un
ri ve
ct ype
sh are
ĠOr der
wh atever
Image View
Ġhor rible
W idget
Ġres ort
Ġsur round
[ $
Ġext ending
Ġintegr ate
Ġsend er
ĠInter esting
Ġun sure
ĠEx press
Ġeffect ive
ot os
Ġthread ing
Ġassemb lies
per mission
Ġb are
Ġprodu ced
ant astic
A ND
w as
Ġun re
O ption
Ġfloat s
ĠF unction
Ġavoid ing
Ġfrequ ently
ĠP ri
12 8
ĠX ml
c gi
} }
inter face
Ġoptim al
Ġre ached
ter m
Ġrandom ly
ĠPro perty
Ġm ask
Ġco vers
ĠAb out
Ġrespons ible
D el
t ried
ĠM ongo
Ġcomple tion
Ġfr ustr
Ġtu ple
S ET
Ġa im
h or
Ġrout ing
ĠT em
Ġat omic
ĠDoc ument
Ġ200 5
With out
ĠW indow
Ġv ulner
Ġredirect s
IN SER
I V
P ack
g ap
c url
I R
Ġconvention s
Ġjar s
h m
Ġimport ing
Ġanim ate
Ġsim ultane
INSER T
ref man
Ġconc ise
gg y
Select or
t ables
Ġeff iciency
m aven
Ġ' <
P osition
q t
Ġconfig ur
Ġse es
Ġh ibernate
Input Stream
6 1
Ġvis ibility
D OM
L ong
res ource
s yn
Ġp e
Ġweb sites
Rem ove
Ġrespond ing
V ari
V isual
Ġproblem atic
Ġsyn chronous
n ice
Ġ2 3
Ġt xt
Ġnotification s
Ġbo ard
Tim er
Ġgener ics
aw k
Ġ^ ^
Ġdevelop ed
spec ial
img ur
o llow
ĠEx actly
b inding
Ġread ers
Ġbeh aves
ĠCh ar
Ġavoid ed
Ġincre asing
M o
Ġclo ck
ĠCh ange
Ġfetch ing
g b
al t
d en
r ick
um ps
Ġfore ver
Em pty
ĠD ec
Ġstyles heet
Ch rist
Ġcrash ing
R S
Ġloc ks
ĠV ersion
Ġend ing
Ġrepl ies
Ġun ion
ss l
ĠB ig
re write
ĠF YI
ct r
dele gate
ĠS ET
ex amples
V ar
Ġs il
Mod ule
M T
product s
ĠL ibrary
Ġhonest ly
d i
Ġliter als
Ġth o
ĠInt ent
ĠRem ember
Ġv im
ĠAt t
Ġex ceed
Ġpract ices
ĠReg ex
Ġtwe ak
a ur
C OM
' "
S ort
pl ing
Ġweb service
Ġapolog ize
Ġjob s
mer ge
Ġlock ed
A SS
z en
Ġlib s
ro s
++ )
de ploy
R out
Ġaggreg ate
ĠF ound
Ġdescri bes
Set tings
Ġmig ration
B itmap
IM IT
Ġpoly morph
Ġgram mar
ot ion
ĠCan not
Ġposition ing
P ut
Ġperform s
em on
ĠE R
Ġquery ing
mm m
Ġcomput ers
Ġpl acing
gr ad
Ġfor ced
D S
u ss
Ġscroll bar
Ġpush ed
Ġb rief
iv ot
ĠB etter
sol ution
4 00
P icker
Ġp ushing
Ġun us
Ġlin q
Ġrout ine
Ġt it
j an
Ġsearch es
run ning
ĠSt andard
pack ages
ph rase
Ġbench mark
ser ial
Ġparenthes is
w ow
Ġun install
Ġassum ptions
Param eter
Ġtext area
ĠCL R
p erson
Ex p
Ġapp ending
M ail
Ġbuild er
ĠP ath
w t
gin x
ĠU sually
h am
Ġt ail
Ġb ill
Ġbott len
Ġrelationship s
T arget
Th x
Ġcall backs
Ġsal t
s pe
v in
Ġattempt ed
M ac
Un less
R eport
ex port
cont ains
ess ages
Ġe yes
g win
25 6
ong odb
il ing
ance l
wr ong
SER VER
g y
Ġev il
qu ire
er m
Ġcircumst ances
200 7
Ġfast est
Ġp le
ĠB est
gg ed
pe at
ĠSO AP
ĠN ext
Ġpre view
O ther
Con s
Ġle git
L o
Ġsignificant ly
ast e
Ġequ ality
Ġlayout s
ĠA L
Ġdec or
ĠGr oup
ĠP S
Ġthe oret
Ġal together
] `,
Al right
ĠM V
E AD
Ġnot ify
Ġstream s
ĠI T
ĠIn dex
can not
Ġcatch ing
ĠSt ate
ri al
ach ine
Ġcompress ion
G lobal
Text Box
Ġclo ses
Ġm ed
ac count
Ġav ail
Ġoptim izations
ĠZ end
ĠDe v
Ġmar ks
Ġto kens
ent ry
ar in
Ġdiv ide
Ġv endor
Ġprofil er
Ġrest ore
ĠFA Q
Ġdestroy ed
Ġapp le
av ed
ĠC S
Ġmar king
Ġsupport ing
Ġ( [
ens itive
Ġbus y
Ġdetermin ed
Ġoverl ook
k er
ĠVal id
ĠCurrent ly
om atic
ĠF l
d r
Ġar r
Ġretrie ving
ĠF ind
Ġ== =
l t
Ġmor ning
g ame
Ġin consist
Config uration
Ġobject ive
Ġch unks
B rian
Ġpo ll
Ġword press
att ributes
S ingle
Ġalign ment
D C
Wh o
ĠA V
cre ated
e lements
ĠPl ay
Ġk n
if orm
ĠCom mand
); `.
Ġpick ed
Ġlimit ations
Ġdro pped
ag rid
T wo
ĠCon fig
Ġredirect ed
Ġang le
J im
K evin
ph a
s i
Ġd r
J ason
imension al
not ation
< <
g em
Ġright s
set tings
Ġvari ant
t oo
Ġj sp
Ġrece iver
ET E
gener ated
ĠW r
Ġre plicate
ĠIS O
Ġprocedure s
en n
Ġv oting
Ġdra wn
Ġevalu ation
inst alled
cor p
Ġmig r
Ġrefact oring
Ġmix ing
d t
Ġas sets
est ure
Qu estion
C V
Ġwork flow
mis s
f ound
Ġr ace
nt act
Ġcol our
ĠM B
Ġun its
Ġturn ing
Ġsuit ed
ĠAcc ording
b ro
Ġign oring
Ġfi ring
16 8
Ġ ve
Ġexpl orer
Ġz one
ist a
Ġmut ex
Ġtechn iques
b ooks
h ib
Ġr ough
Ġtool bar
ĠE specially
AT ION
Ġinter cept
hand le
Ġb and
Ġnew ly
Ġ2 2
rol led
Re ally
List View
ĠIn put
H ans
Ġreply ing
b asic
ĠG iven
C lose
C R
or th
em o
S ocket
0000 00
Ġpri m
const ruct
re ak
An swer
import ant
ctr ine
f b
Ġpress ing
ĠG PU
enc oding
ĠRe ference
D ebug
D ir
En abled
Ġpart ition
Ġha bit
Acc ording
if ically
ĠINT O
Ġhard ly
Ġdec om
Ġpre m
Ġdel iver
C ond
lat est
Ġpre dict
viron ments
Ġs dk
er ing
ec king
Ex pression
Y ES
Ġme as
pro v
le ast
Ġint ell
Ġregex p
st udio
Ġcontin uous
Ġn oob
Ġfi ve
iss ue
bin ary
ĠReg arding
Ġpure ly
' ),
How ever
j ohn
ĠDe veloper
Ġconv in
. ?
f ish
Ġdes pite
L O
el ix
ĠBe fore
g on
âĢ Ķ
D ouble
ĠSt ore
Ġsnipp ets
ĠMon o
ĠN umber
Ġ" [
Ġoffer s
ĠO O
ten ance
Ġdetect ion
ĠH and
Ġex cl
Sh ell
Ġnic er
s us
Ġer r
G e
th eless
Ġ-- -
m c
Ġ' $
Ġpresent ation
Eng ine
Ser vlet
b its
v y
o int
H as
ĠMan ager
Ġb und
Ġmodification s
m k
Ġch eers
in ing
Ġchar set
n othing
P ort
Ġmark er
Ġgu id
Array List
Ġd uration
Ġoverl ay
RE QUEST
ĠPo int
Be gin
B al
ĠG ive
char acter
Ġfig uring
ĠL ast
Ġinter mediate
f ast
ve y
Ġpossib ilities
ĠCol lection
W ord
gin es
ig uous
U RI
Ġconst ruction
ĠA lex
m ember
Com par
Ġem ploy
Ġaut ore
Ġachie ved
Ġmillisecond s
ĠT O
Ġgoog ling
ĠT ools
Ro bert
Ġconfir med
U B
ĠG ot
Ġinsert ion
Ġ% >
Ġw p
plugin s
we et
Ġcomm as
that s
Ġconcaten ation
Ġd ed
Ġ[ ]
Ġd ere
Ġrefact or
vari ables
g a
mon th
Rel ated
Ġx code
Ġinvol ves
ĠG raph
Ar gs
Ġsp am
Ġsepar ator
mar gin
Val ues
Ġaltern ate
Ġal igned
ign ore
ĠM in
yy yy
Ġf ol
Th ese
il led
ĠDI V
qu eries
ĠIE numerable
Ġ@ "
âĢ ĭ
P ane
Ġrestriction s
OR M
ĠR ob
Ġredirect ing
ab et
ist s
Ġcom bo
C D
Ġpro c
p c
gr ade
sec ure
Ġanim ations
un e
s udo
Ġforgot ten
param eter
Ġinvo king
ce ler
Ġsub string
ci i
Text View
Ġmis read
Det ails
A IN
ĠH tml
ĠCl ick
Ġdatas ource
Ġconstruct ed
L a
ĠEx ec
ĠB oost
Ġinitial izing
ĠB ar
ĠD ebug
l ooks
Ġexist ed
Ġloo se
Ġun ix
er es
Ġrefer red
Ġb all
Ġin f
R oot
F ull
ĠS M
Ġsh if
and on
Ġhigh est
ĠF inally
Ġsub tract
Ġsu dd
AtIndex Path
S w
act iv
log ies
Ġtermin ate
Ġimmedi ate
Ġpast ing
Ġpack ets
Ġms g
sc ale
B rowser
gn u
if rame
Ġlist ing
g ar
s en
Par ser
per formance
ER Y
initial ized
n l
Ġpur ch
method s
Ġmat erial
pr ice
Ġrepe ating
Ġ' .
ĠCo py
ĠAny ways
=" #
de vice
F ixed
ri er
Ġfor k
Ġde eper
ĠP ower
ant ic
Ġstand alone
IT Y
ĠSh are
Ġv b
Ġserial ized
what s
gre SQL
ĠCol umn
t ake
ĠS ingle
IE numerable
Ġreal ised
AR T
Ġocc as
H OME
oom la
Ġst retch
Ġnot ing
Ġvalid ator
Ġretrie ved
Ġre lying
Ġc ru
C r
Ġcalcul ating
A O
d one
Ġv ideos
ĠA N
Ġlisten ing
Ġsudd en
Ġevery body
. **
` /`
ĠL ooking
Ġtransform ation
Ġr anges
: -
Ġ201 1
Ġus able
Ġint s
Ġh o
Ġapp ended
pr act
ĠS ay
ĠH ad
Ġexpand ed
Would n
ord ers
.... ..
( @"
B O
99 9
Ġ' %
Ġmark et
Ġpicture s
b tn
Ġsto pping
J son
rib ly
ĠDef ault
Ġ} ,
ide one
Ġc art
Ġdelimit er
p ick
Le ft
ĠAd min
ĠDe le
Ġsens ible
Ġhur t
A E
Ġregist ers
Oper ation
Event s
Ġi phone
Ġdist ributed
Ġsaf ety
h r
C ategory
F unc
Ġby pass
Ġob fusc
'] ;
Ġcomput ation
ash ion
sq lfiddle
Ġfriend ly
AG E
Ġdis abling
i ri
ĠCh ris
pro p
Ġ` ?
Jo e
lin ks
Ġlay ers
bl ah
is ons
or ient
ĠH elp
le m
Ġregist ration
y ep
Ġa h
ech n
l ig
Ġre writing
Ġsec ret
Ġpost back
Com plete
ĠS cript
Edit or
ĠĠĠĠĠĠĠĠĠĠĠĠ ĠĠ
Ġd ash
Ġang ular
ĠC trl
r q
Ġun w
Ġdri vers
mar ks
A uto
Ġcom fort
Acc ount
Ġ2 1
re mo
yout ube
Ġ/ *
Ġph ase
Ġsemicol on
/ "
model s
Ġbroad cast
dif ference
Ġ`$ ('#
Ġ( !
' `.
Ġimport s
c od
Ġv ice
load ed
S end
Ġ4 00
Ġtw itter
part y
ĠST L
Ġplace holder
Data Source
Ġc ity
N A
Ġp uzz
Ġapp let
d as
Pointer Exception
bug s
Ġarch ive
ĠF lex
By tes
iter ator
J an
as cal
Ġverb ose
ser vlet
ĠJ AR
P M
Ġre install
m ad
t ouch
Ġworks pace
c ourse
plic ity
state ment
ĠC ON
ari o
Ġplay ed
Ġw alk
Ġhead s
valid ation
ĠSet tings
Ġsynchron ization
Ġare as
Cons ider
b tw
Ġ` --
solute ly
ip her
order ed
Ġtermin ology
Ġdec rypt
Ġindivid ually
ĠAn g
il o
ell ow
N E
ĠT ree
UL T
Ġsa fer
Ġin tr
Ġprevent ing
C ast
m ight
Ġa ff
Ġed ges
re ce
gorith m
Ġ 01
av ailable
View s
And re
typ ed
ĠUI TableView
Ġen vironments
14 7
Ġde b
Ġre nd
Work ed
Ġg od
U PDATE
E l
x html
Ġsy ntact
Ġbrack et
v o
fo ld
R andom
r ot
ou n
app ro
c y
ĠP OSIX
NS I
Ġmath ematic
f an
ver ter
M ag
ĠP art
I ter
ĠW rite
Ġexist ence
ĠL IKE
(... )`
ah oo
? .
gre sql
B ook
pp y
U pload
ĠF TP
edit ed
Ġhas hing
Ġpart ially
ect ed
ard less
Ġassoci ation
in itely
Ġp c
Ġor acle
f n
Ġmis match
Ġpred icate
v a
des ktop
Ġultim ately
ab y
ra ft
f ocus
ĠT ried
Trans action
us iness
ĠIn it
j am
Ġord ers
M atch
Ġicon s
um ar
T M
Ġ. /
Ġsoon er
Ġin corp
Ġinitial izer
ĠOS X
posit ories
l as
el f
Ġduplic ated
comp iled
call back
B asically
Ġover r
en ge
In valid
Ġtool tip
Ġbig gest
ĠD own
Ġpublish ed
Ġpresum ably
sh e
pl an
Ġport s
Ġiter ators
hand ler
Ġnum py
W IW
j ure
en able
Should n
Ġbad ly
tw itter
urn s
sm all
ke ep
Ġ$ ('
ic o
Ġm en
ĠApp arently
ĠP ATH
Ġiter ations
Ġfrag ments
N ik
A li
Work er
ĠP ass
Ġag ent
DB MS
t ask
ĠU TC
Ġph rase
+ "
ĠN E
Ġquick er
ĠC re
Ġres izing
Ġsequ ences
eb u
ra ig
1 32
u et
al ing
c ible
ĠB UT
Ġbottlen eck
Ġsurpr ising
Ġdemonstr ates
I Z
m peg
ES C
F in
E nter
Ġst ating
Ġsem i
Ġrecogn ized
code plex
Did n
cre ating
R ewrite
: '
K en
Enc oding
ad ed
th x
list s
Ġse ed
Ġen force
Ġfundament al
Not ification
h ad
Ġfor th
Ġn a
Ġmain tenance
Ġfol ks
d ing
Artic les
Ġbet a
er b
net work
Ġem ployee
D one
Ġp ul
as ible
get s
By te
ĠPerson ally
Ġcorrespond s
Ġt en
dri ver
Ġb old
Ġin coming
ĠJ son
new s
ĠC MS
AR Y
Text Field
p ay
Ġoverl ap
br anch
And y
bo ss
ĠJ PA
press ed
if e
Ġinv isible
M I
Ġclass ic
ĠInt ell
pro gramm
Ġtick et
Ġex posed
pro c
ĠB itmap
( /
b order
Ġb lob
ĠY ES
Add ing
Ġen gines
st e
jo y
Ġn g
Ġbl ind
Ġthumb n
P ool
Ġscal ing
ĠTH ANK
Ġsumm ary
Control s
Ġst atically
O DE
IN E
Ġmaintain ed
ĠUS B
n avigation
Ġload er
App ear
lo l
Ġcons ume
Ġfun c
Ġb ub
ĠD NS
U ST
re set
Ġ( +
Ġli ked
serv able
Ġm and
Ġ" %
S C
ang les
dif f
Ġrout er
J eff
! "
8 00
edu led
se par
Ġg ames
H ar
Ġ' '
Ent ry
P at
ad ow
Ġprivile ges
** ](
Ġhash es
ri ent
Ġ{ "
n i
Ġview ing
ĠC I
Ġloc ate
Ġded icated
a ver
ra it
Ġend point
Ġz er
Ġconvert s
I LE
O RE
U P
rem ote
D iv
exist s
N ER
th an
as m
Ġ )`
Ġre vert
M c
ĠRes ult
Pro blem
Ġinit With
Ġcl ip
Ġpre serve
ĠM ag
Ġpersist ent
pp ose
Ġcent ral
b um
in ction
Ġoverlook ed
Be fore
es pecially
ĠOper a
check box
in crement
th row
erc ial
P y
ber ry
ĠRem ove
Ġmultip ly
ar Layout
per haps
ick et
Ġthrough out
ec ode
ĠL ayout
Ġtarget ing
c ookie
s leep
c odes
Ġcomb obox
/ ,
" >`
AL SE
ession al
Ġrend ers
ĠF eel
cons ider
ll y
as per
polog ies
; }
| |
Ġcap able
View Model
Ġ/ >`
Ġshad ow
Ġdown votes
Ġv ir
Ġpercent age
ĠT e
ud ge
ps on
low er
Ġprefer able
Ġtyped ef
em bed
Ġsu do
Ġconflict s
T ool
Ġro ad
Y a
Ġbuffer s
SD L
lar ge
Ġsp r
t ics
Ġo pt
Ġp ause
Ġgrid view
f x
Ġtable view
l ay
bo Box
Ġ" #
B er
s om
Ġreason ing
Ġpoor ly
ag ain
mis sing
Ġm id
Ġcompar isons
"> <
Ġchoo sing
Ġclose ly
R T
Ġhy per
Ġvert ex
On ce
boot strap
ĠC ount
ĠE nter
owers hell
ss h
ir a
ĠP ay
ĠWould n
Ġwidget s
Ġround ing
Ġdomain s
) );`
ast y
Ġdist inction
f am
comp are
Ġy a
Ġstruct s
w d
ĠP eople
Ġan c
ble d
Ġout dated
ĠĠĠĠĠĠĠĠĠĠĠĠĠĠĠĠĠĠĠĠĠĠĠĠĠĠĠĠĠĠĠĠ ĠĠĠĠĠĠĠĠĠĠĠĠĠĠĠĠ
W as
M edia
g ive
M ulti
re et
iction aries
% .
Ġatt acks
** **
Ġla pt
Ġcur ve
v archar
ĠP L
Ġ ought
Ġsub mission
Graph ics
F ire
ĠX Code
Ġincre d
Ġfor cing
Ġlif etime
D R
ĠA zure
support ed
ĠDo ing
Ġre ve
ĠU p
s r
Ġpre pare
Ġrece ives
od a
ĠâĢ ĺ
Ġ Â
Ġcan did
Ġaffect s
Ġadvant ages
Ġconver ter
de mo
ab e
des cription
A ST
develo pment
re v
Ġoff line
Ġappropri ately
ĠT ool
ann ed
Ġcy cles
d ro
m v
qu ote
v isible
6 00
Ġoutput ting
t c
ĠG NU
ĠI I
ĠJ query
edu c
ĠOk ay
Ġauto complete
by tes
child ren
or a
Web View
Ġex tern
( *
V isible
Ġf ashion
Ġbu ggy
us C
Pr int
S um
a fe
Ġ` ^
Ġmer ged
ĠE C
ĠType Error
r ices
Ġag reed
read able
Ġadmin istrator
Ġpr inter
Ġcompl ain
Ġword ing
ist ration
ch ain
Ġ* /
enk ins
Ġ: :
b ottom
Ġrestart ed
Sec ond
ĠG WT
ĠSV G
P DO
I nd
ro b
Ġen v
Ġ( *
Ġenc lo
a lex
b undle
h old
se ct
" ))
Ġcustom ize
Ġbring s
b al
ut ed
clud ed
Ġrequ iring
Ġdisc our
N eed
s ur
Ġmult ith
Ġe ye
Du plicate
Ġp om
ĠM D
pro xy
Ġred irection
IT H
? ,
g ree
Ġhighlight ing
P i
Ġsh ame
Ġautom ated
Ġj q
Ġre phrase
()` ](
Ġflex ibility
Ġsim ulate
Ġon Click
Ġfor ums
h oot
set ting
ut ter
ST IN
Row AtIndexPath
k in
en ess
US ER
less ly
ĠE L
Ġp ing
e at
bl ack
ĠSec urity
Ġs adly
len ium
edit or
M ember
-- -
B ig
Ġd ark
Re place
ĠM AT
u el
11 11
ĠS W
Ġsn apshot
Ġsafe ly
n om
Ġ2 56
Ġappear ing
gener ate
em bers
] *
is set
Ġcol le
Ġsu ffice
ĠAl ternatively
re fer
) \
Ġmulti plication
Are a
int eger
56 7
Ġre invent
Ġtem pl
h g
Ġcomput ed
man ager
Ġi os
Ġob sc
ĠInst all
sy ntax
Ġindic ated
P G
com ments
orig in
v b
ĠA nt
Result s
top ics
Ġart if
fr ont
S top
! ).
gener ic
Ġrec re
ĠForm s
mat rix
Ġag e
ĠK EY
ĠJ an
Ġoverr idden
( \
F ont
Ġcoordin ate
in f
r it
t rigger
en ames
Ġsimultane ously
h s
Ġtext view
Ġmon it
c ir
De vice
Ġi llegal
et ic
A nt
A aron
Ġsp rite
Pr ot
Ġequ ally
ĠJ DBC
se ems
Ġsu ff
Ġre open
Ġgrad ient
Ġtit les
Ġvol ume
Ġh ist
v anced
ĠP R
Ġsim plicity
ĠP NG
H ome
am a
ĠS ave
Ġcirc ular
ir ks
ĠSer vices
Ġ* `
sc ala
Ġpresum e
Ġqu ot
web site
ĠRes ponse
Ġfrequ ency
ĠM Y
Sh eet
w ar
ĠD irect
ĠSt ream
Ġillustr ate
ĠV AL
u is
Sim on
ĠN eed
oc ode
ĠM edia
at o
ĠMore over
Ġin vent
Ġconsider ation
== ==
Custom er
type of
Ġconc urrency
ar ter
column s
G ame
Ġt ight
Tr ace
STIN CT
sol ved
Ġredu ced
_ "
ar c
ap es
Ġreal ity
u z
il st
Ġinter po
iz ers
P RO
S A
Par ams
Ġden ied
Ġweb view
om an
Pro perties
ĠInter face
Ġh arm
u ent
Ġa ud
Ġser ved
Ġcho ices
Ġoverload ed
K B
ĠCont ext
j ac
n b
Ġh ar
Ġfact ors
co ll
AV A
ign iter
Ġf an
Ġb low
Ġclarify ing
ĠP ack
Res ources
ĠPost greSQL
Ġlisten ers
Ġren amed
ir m
ĠR est
sole te
Ġtre es
Ġf elt
ab s
10 5
Ġs q
ĠX HTML
Ġt d
Ġr atio
config uration
Ġsynchron ized
m uch
Ġcl oud
so cial
Ġfe asible
Ġconstant ly
g t
Ġm p
Ġv an
1 80
ĠA ccept
n ight
el en
depend ent
requ ired
cont act
Ġoff ice
Ġcomfort able
ĠM ax
SS CCE
Ġp icking
ĠA ut
Th ose
ear n
=" @
Ġess ential
ap is
P assword
Ph il
D ATA
N UM
ax is
Ġrespect ive
} .
im ated
" ;`
c out
on click
comp any
Ġedit ion
Ġprefer ences
ĠText View
er man
Ġ" *
test ing
Ġfill ing
f lo
E mail
Ġw ow
Su pport
H ub
Ġm vc
ĠWin Forms
ĠS w
ĠShould n
A ccept
K EY
Ġ1 28
Ġrel ate
Arg ument
R eturn
ĠC OUNT
ĠH mm
ĠT wo
Ġro les
Ġm ot
Ġ`< ?
Le vel
g an
Ġcons uming
ĠO ver
patch er
Ġrestrict ed
ĠR DBMS
ĠR eport
Ġscen e
ad es
am ps
Ġen h
v oter
y i
Dele te
ĠER ROR
J ack
ĠN Hibernate
200 5
ic ul
ĠAdd itionally
uet ooth
Ġs andbox
ĠIt ems
be an
code project
ire s
gr ind
ak er
B ro
ca pt
ĠC H
R ad
Ġanim ated
P tr
Ġfetch ed
ĠAny thing
am pp
ĠDep ending
Ġsm ell
Ġpersist ence
Ġpreced ence
Ġvar s
Ġpre g
ĠJ IT
AC K
r ant
Ġspecif ies
ĠAsync Task
Ġinher its
Ġalph abet
ĠG UID
M ight
Ġle d
ĠAng ular
Ġht access
ĠEx pression
trans form
ex cel
act ers
Ġpip eline
Ġ1 27
ĠĠĠĠĠĠĠĠĠĠĠĠ ĠĠĠ
Ġinform ative
ĠLoc al
Ġapp eared
ag ine
Ġ` ``
ĠMV VM
Ġt ied
" ];
y per
ar se
ĠM ulti
Ġver sus
Ġt ough
ĠE S
F older
us able
N I
Ġf f
clud es
Ġpul led
Ġguarant ees
Ġ} ;
Ġlapt op
Ġf ake
str ong
comp iler
p an
Ġunus ual
Ġper man
ext ension
Ġcommon ly
Ġbreakpoint s
F alse
Pro gress
Ġconvin ced
B ody
Ġrepresent ing
a e
un es
Ġinv ocation
ĠDes ign
Ġprofil ing
Ġclar ified
ĠS H
Ġoper ate
Ġg ather
Ġle x
View ById
num eric
Collection s
T S
r ich
ĠD et
Ġvi able
] )`
end ency
Ġinter active
st orage
avi or
ĠH ead
ug h
can vas
Char les
Ã ¶
id ers
ĠC lo
ind s
Rich ard
Ġcomm ercial
re peat
Ġg ray
f d
s b
table View
ĠU sers
Ġfinish es
roll ing
ĠF r
Ex ample
Ġdiscuss ed
t ot
Ġs ides
19 2
ĠDB MS
Ġt a
m its
Ġp ng
Ġskill s
Ġfor ces
Ġhighlight ed
Ġteach er
K ar
To List
Ġfoc used
Ġreli es
Gener ic
n os
reci ate
Ġp en
Hand le
] );
Ġ et
Ġconfirm ation
4 04
] "
Ġsubject ive
in ternal
Ġaccur acy
P R
Ġint uitive
Ġzer os
ĠW ikipedia
Ġclean ed
Ġbud dy
Ġ" `
c ks
de m
Dec imal
Ġfo ot
sch ema
Ġtransl ated
Sec urity
Ġwhere ver
re k
art z
Ġout come
Ġco res
AS P
ĠBu ffer
. ](
e asy
ĠFurther more
ĠT FS
Ġequ ation
Ġpersist s
V is
h l
ĠTw itter
g if
Ġt ap
ĠM emory
Ġp un
Ġinterpret ation
ĠOut put
ir th
Ġdisc ard
omet ry
A ut
Ġmat rices
Ġsubclass es
s ense
Ġpick er
n ope
ĠC lear
pro per
ĠSim ply
Ġtri m
Ġspec s
ch ris
s ync
SS L
Ġoccas ion
Ġalloc ating
Ġconversion s
Ġsupp ress
java x
ij n
Ġent ers
al i
Ġdiag ram
se y
V ector
} )
Ġrespect ively
sty les
= (
j q
Ġstructure d
Ġassist ance
tr unk
Ġstd out
Ġtr ade
ĠText Box
Ġb rilliant
aps ed
10 7
n el
xx xx
ĠWh ether
Ġcost s
Ġsemant ic
Ġmail ing
bl ank
Ġmill ions
fl ash
et t
Ġst ub
Ġpo lling
Ġbr owse
nost ic
32 4
c alcul
v ention
. ).
answer s
ref resh
ĠK ind
he ets
ĠC ar
Ġvol atile
atal og
log ic
Ġcenter ed
M E
Not Found
Ġnot epad
Ġcap abilities
3 01
ĠA NSI
mo v
Ġintegr ated
Ġconcaten ate
bl ue
Ġsudden ly
Ġt bl
ĠWh o
H H
Id ent
process ing
det ect
Ġ`$ ('
Ġstream ing
Ġlower case
Ġcheck mark
to ggle
Ġcont rad
Ġdel i
ĠB inding
An imation
Ġver sa
ad vant
ĠD ictionary
F L
ï ¿
add y
p id
Ġrespon sive
Ġcompl aining
Ġcar ry
Ġ: =
Ġnew lines
od ay
sd l
ĠMat lab
n p
ĠTry ing
ĠE l
with in
ĠAss uming
Ġal i
et ty
Ġeffort s
qu ired
ĠSt ackoverflow
b ob
pos able
Ġche ap
ĠSet ting
Ġ' -
Ġhard coded
Ġtr ad
ĠM r
() )`
ap se
1 64
ĠM obile
Ġrele ases
ĠT oo
15 0
c ross
Ġexperi encing
an ies
ĠA DO
run time
Ch eers
re es
Ġslash es
ur ally
c os
p do
Ġman aging
Ġg ap
Ġas px
Ġ[ **
d c
Ġsu ffer
ĠR ich
Ġsched ule
D rop
Ġsmall est
ĠF alse
ĠPro perties
Ġg allery
Ġtermin ated
) [
D river
12 0
" `,
Ġrepl aces
Ġ Ã
Ġcl on
M ouse
Se lection
Ġshad er
ing ly
Ġkind ly
Matth ew
H o
Ġcomp osite
E G
AR CHAR
Ġoverload ing
m i
Ġupgr ading
L AB
Con vert
Ġt ons
Ġbul let
do be
ph as
ĠâĢ ¦
n ative
Ser vices
Ġchall enge
Ġun fortun
Ġcontin ues
ca de
Ġefficient ly
ï¿ ½
= [
Ġt ired
ĠHTTP S
Ġex its
Ġmin s
script s
Ġf raction
num bers
Ġtri al
ĠConnect ion
Ġfrustr ating
Ġover written
Ġab ort
ĠAl ways
Ex cel
w ant
ĠD at
U ES
Ġrelation al
ĠBuild er
p k
ĠI nd
Ġ3 1
Ġprom ise
rel ative
ĠP O
Ch anges
ĠĠĠĠĠĠĠĠĠĠĠĠĠĠĠĠ Ġ
I A
d rag
her it
Ġsp awn
off set
up s
f all
L OC
ber g
Ġdis pose
resh old
ĠV irtual
ĠTH E
Ġch apter
pre g
Ġrestart ing
eter min
Ġ} );`
Ġmer ging
Ġmov ie
ĠD rop
pro j
inner HTML
sh op
Ġoccur ring
Ġ` ~
Ġthous and
on line
Ġtr icks
ong s
Ġjoin ing
12 5
Fin ish
ef fer
Ġset ters
ĠJS Fiddle
Ġsur face
Ġd amn
Ġal ive
ond ay
Ġbl ur
echn ically
Ġth rew
sh ift
Ġdeleg ates
Click Listener
Ġpro pag
ĠObject s
Ġdetect ed
Ag ain
el led
gener al
Ġland scape
ĠEng ine
de ep
Elements By
Ġregex es
o ving
re du
ov ie
org ot
Ġn asty
Ġset Timeout
it ting
Ġreach es
ĠIn valid
log s
Ġdat agrid
Ġind ication
m en
js bin
de bugg
F air
Ġpa id
a id
t in
Ġ` //
Ġclean ing
Ġexam ine
/ $
thread s
ol t
Ġdis connect
onest ly
Mutable Array
Ġcorrupt ed
10 4
ĠPro gram
as sets
j dbc
ĠCh anging
Ġm d
Pl ay
{ }
Ġy ep
ĠM aps
Ġhost s
Ġignore s
Pro file
Ġevalu ates
ĠM AX
ĠM ichael
p ool
Ġop acity
Ġ2 55
Ġre positories
ĠF ield
Ġsee k
-------- --------
Scroll View
Ġ2 6
Ġun safe
a ware
ser ialize
Output Stream
Ġo mitted
Ġ educ
Ġmass ive
Ġdifficult y
OR DER
lear n
set Timeout
Ġcon sequ
ull y
Ut ils
ĠY ep
p air
Trans form
Ġ` =
Ġc ul
Ġfil enames
00 1
sec ut
Ġrequest ing
Im pl
Ġexplan ations
is ense
Ġown ers
c ounter
Ġf reed
Ġ( .
ĠU B
Ġrem ark
Ġign or
OU T
Ġreason ably
urs ive
dis able
ou l
wh o
Be ans
ĠLE FT
Ġ+ +
Ġincre ases
is n
c ached
ĠF K
ap id
Ġsom etime
Ġthan x
2 000
f ail
ĠGrid View
Ġviol ation
F ramework
Ġ ll
Ġno ise
Res ol
Ġal t
ĠDLL s
c b
at able
un icode
com ple
Ġch ances
Ġlist box
ĠM ike
Ġguid ance
st al
Ġhand s
, $
o ph
ĠD R
ĠL ong
m ic
Ġconsum er
in valid
ĠB en
Ġdraw able
W OR
app ear
az or
com b
ĠG B
sim ilar
Ġpag ination
Ġ[ '
ĠON LY
ĠA M
Re pository
ĠV ari
B ob
Ġpre processor
Ġmaintain ing
< >
Ġmark ers
int ent
Ġdele tes
M art
Ġc pu
Ġbin aries
Ġmod ifier
Ġposition ed
ak a
mac s
Ġsub domain
ĠMongo DB
/ *
Ġ !!!
ĠD b
pos al
ĠE nt
cept ual
Con f
d ont
ĠString s
du plicate
ĠB ased
G E
Ġn esting
Ġun iform
D est
ON E
Ġrecurs ively
Ass uming
qu ick
Ġlaunch ed
em y
ĠGu ess
S plit
Su per
ost ream
un ix
2 64
Ġcollect ed
Ġmeant ime
Ġtroubles hoot
Ġview DidLoad
t ecode
M aster
set up
Ġprotect ion
=" {
M ove
ĠNot ice
hand led
uc ene
Mat rix
L ib
Ġ â
n u
Ġtal ks
ĠU DP
ĠD ATE
ph oto
are st
Ġover writing
Q t
Ab out
Ġh ole
Ġat tr
Ġph ones
com ponents
Ġup votes
Ġanal og
Ġxml ns
) ),
Im port
Sh arp
answer ed
Ġs qu
w er
f ade
. $
Ġn ib
Ġ10 24
` "
Ġprogram atically
so ever
ĠB asic
ĠF ragment
Ġsp in
ĠI ll
ER ROR
Ġmig rate
x ls
Can not
Com mon
Ġfilter ed
A llow
Ġex change
e q
Ġbe ans
H elp
O rient
Ġtr uth
Ġsub view
Ġk illed
Ġrepeated ly
tri m
... }
( .*
ĠF iddle
w rapper
ere my
Ġ1 23
ĠJ AX
ĠNet work
ĠAdd ress
Ġidi ot
m pt
F red
.. )
Ġ200 7
Ġide ally
r ink
Ġstud ents
Ġsan it
con cat
Ġbr ought
G ROUP
ĠS ort
ĠJ RE
E CT
H aha
Sm ith
S ection
3 86
Inst all
aa aa
Ġmajor ity
Equ als
( *)
Ġmargin s
\ /
r vm
com ponent
ĠMS VC
g z
ĠM att
Cont ract
Ġt un
ad s
Ġ" _
ca le
an sion
ir ror
M Y
l im
ĠII RC
Ġli kes
j u
rec ogn
ff ee
Ġview er
ĠLog in
( &
ut ing
Ġcr ap
Ġ... )
Ġpay ment
Ġsubstit ute
ĠS HA
ĠO Auth
Ġev idence
g mail
=" /
Ġget ters
Ġren aming
Ġbound ary
Ġal right
Ġglob ally
Ġ" ,
Ġlo sing
Ġwide ly
scan f
om pson
Con sole
S ign
Ġh ello
read er
Ġant i
us ually
Ġc raw
Ġrev ised
ĠF OR
A F
Ġpro pose
ord on
Ġcur ly
per fect
fo llow
Man aged
Ġconfigur ations
un no
ĠD ouble
Ġpri me
ĠWork ed
ĠO ffice
R uby
draw able
p ic
ĠD E
Ġavoid s
B tw
Ġsuc ks
Ġtrigger ing
Ġview port
( @
W P
att ach
cl one
avi ly
Lin q
Ġsatisf y
Ġwhat soever
) **
b all
Ġlar gest
= %
Ġaddress ed
Ġask er
ĠSer ial
L ock
R ay
po ver
l ambda
Ġper mut
dis abled
F loat
cont ained
Ġlogg er
Ġyield s
n ces
ĠRun time
Ġin c
Ġhop ed
Ġgl ance
++ /
Ġ`$ `
g ment
ĠR ow
Ġst ock
go ing
t ra
ab solute
ĠG PS
T IME
Ġsequ ential
Reg arding
Ġbec ame
Ġder ive
ĠU nder
Ġrid icul
H igh
Com m
ĠCustom er
Ġt mp
time out
elen ium
Ġmag n
) +
ad er
Ġident ifiers
Ġde als
Ġ100 00
Ġan s
Just in
u ity
Ġdisappear s
Ġact s
ĠR ather
Ġb an
web kit
Ġdeser ial
A udio
ĠDis play
Ġband width
Ġconver s
any thing
Ġincred ibly
Ġtarget s
n ested
Ġunderstand able
Ġc ulture
ĠP aul
ĠS uch
2 14
Ġt el
ĠF ort
( -
Ġha vent
Ġfor b
C ocoa
Ġlat ency
par ser
Ġx path
Ġprodu cing
M et
ec ycle
S B
10 9
> `?
Ġcon form
P op
xy z
Ġinject ed
Ġshort en
Ġde gree
F elix
G reg
g ems
Ġac celer
ne ath
ĠM er
80 80
Ġr ake
lin q
Ġdig ging
prevent Default
Ġcomput ing
Ġprem ature
C trl
Ġsl ides
Sc ott
Pl us
k r
Ġc ards
ust ed
Ġcontext s
Ġbl ah
U RE
Ġrefresh ing
al gorithm
T otal
ub untu
b as
oot strap
Ġguide lines
ex ternal
rodu ction
ĠP eter
R est
T y
ud a
... ).
PE G
out er
Ġnull able
prot ected
expression s
control s
g ue
ĠL IMIT
Ġdu plication
ĠSol ution
2 13
a udio
Ġd edu
Ġinter view
ben ch
Ġcapt uring
s ender
ĠV ista
W arning
Ġund o
ir ation
ĠH er
ĠSM TP
Ch art
c ool
av or
Th ough
comm ons
t imes
ry stal
( !
Q U
Ġun used
m att
th umb
uff le
st rip
Ġsign als
tem plates
ol ic
ĠD EL
Ġl en
Ġcompress ed
Over ride
at omic
Ġc trl
Ġweb app
un fortunately
on al
Ġob solete
ĠG ame
sc ore
Ġauthent icate
ul ates
IZ E
ag h
ir able
ication s
Ġd ictionaries
f a
K eep
! ?
) ]
k ar
cu rial
sl ide
Ġdescript ive
ĠI L
ad cast
Ġhe avily
ĠS keet
Ġmin us
Ġconven ience
Ġsubt le
Ġh ides
array s
Ġscreenshot s
Ġtext field
Ġ_ "
un ny
Ġsatisf ied
ĠGener ally
E r
ĠPar am
Down load
() );`
For Key
ĠM akes
Ġi ve
ir k
m are
ĠD ialog
201 4
spec ified
Ġ200 3
y ea
g c
Ġun managed
Ġspe lling
ock out
Ġa ward
ĠN ormally
10 6
2 20
ĠD irectory
names pace
Ġar ri
an o
() '
const ructor
la unch
m n
Ġm ent
al ready
Ġdeploy ing
Ġexport ed
Ġvert ically
h ope
m ongodb
Des ktop
re p
as cade
bu f
param eters
F ocus
Ġm ount
ĠW S
end o
R yan
Ġin fer
Ġo pport
Ġscreen s
re q
head ers
ĠC y
Ġph r
M X
st uff
C alendar
M ad
Lin ux
Ġdem and
Ġminim ize
exist ing
Ġc rypto
ĠSy ntax
Ġu buntu
In sert
) ..
yp ed
j b
Ġgoog led
aut om
C lear
ff ff
Ġclean up
in voke
Ġsp inner
tab s
f ord
Tem p
Ġupgr aded
A FAIK
Sc ope
al most
config ure
B etter
ĠL ocation
Ġvalid ating
P al
19 0
res ize
Ġmeaning less
nt il
Ġr ank
int egr
th em
str aint
++ `
Ġspecific s
M er
Ġdro pping
L ayer
Ġbo ss
fl ush
Ġcrash ed
Ġreprodu cible
) -
L ight
Ġprob ability
E num
Ġrespons ibility
i ation
Des cription
Ġindepend ently
Ġamount s
Pl ugin
secut ive
D am
Ġs ad
h om
Check ed
Ġser ves
Ġs ibling
tic ks
enc oded
inc ip
L at
L ooking
B ounds
Ġc ave
ĠR GB
2 17
Ġdownload s
drop box
Ġround ed
b on
ĠS L
ro le
ĠPro gramming
Ġconstruct s
ĠSc roll
St udio
Query able
C ursor
(' /
pl ist
Ġgr asp
Ġstat istics
Ġ" ...
Property Changed
ĠW arning
} /
g d
p rom
Ġassert ion
i y
u f
Ġrele asing
Ġlegit imate
am azon
) $
Net work
custom er
Ġf tp
util s
Ġ`$ ("#
Ġanaly ze
U nder
r ap
' ))
Ġshort ly
z A
Ġinstanti ation
Bo ss
Ġisol ate
ĠF iddler
Ġdefin itive
ach im
d ates
int f
11 7
Serial izer
p at
Ġg mail
ĠN um
gre es
Ġfew er
Http Request
J oh
Th anx
Ġunder neath
Ġm oc
aph ore
F ree
ep age
B B
Ġbuffer ing
j dk
I con
ter min
Ġpre sence
Ġshut down
on load
ĠAcc ount
Ġg ems
ĠMan agement
Ġvisit ors
f tp
it o
sh all
Ġe ase
ĠW elcome
ĠĠĠĠĠĠĠĠĠĠĠĠĠĠĠĠ ĠĠĠĠĠĠĠĠ
19 7
M is
Ġdown voting
ĠC ocoa
av oid
Im ages
Ġvert ices
} `.
3 64
N C
23 5
Ġ`. `
Reg ister
ens ity
Ġcompreh ension
ĠInt el
Ġf inger
D ay
B ER
m ig
Ġfavor ite
2 24
m essages
er ived
Ġdiffer s
c ant
d ie
Ġinfl u
r fc
ad a
Doc uments
fin ally
Call back
acks on
" _
P attern
a us
i h
Ġcul pr
m g
c urrency
al ias
Ġx sl
Ġn ginx
Dep ends
Red irect
ex act
Ġw izard
ĠA dobe
Ag ree
ic ially
thread ed
Param eters
(" %
ĠB rowser
po ly
2 15
K er
thon y
Ġmapping s
Ġton ight
char s
] /
Ġback ing
C raig
ĠE ric
tim estamp
ol f
C OUNT
ack ing
De veloper
ĠSS H
Ġreject ed
> /
Ġb orders
ĠSelect ed
Ident ifier
B ased
l u
J P
m al
G W
qu otes
Ġasynchronous ly
b c
Ġbr ute
ere view
Ġby tecode
Ġcomp act
T ypes
ĠS end
11 1
88 59
Ste phen
Ġcandid ate
ist ry
B est
po ssibly
p adding
ar ounds
are ncy
Ġtempor arily
Ġread only
ĠSS CCE
ld oc
ĠL O
Ġend ian
Ġrough ly
al ax
C oder
a uses
w arning
Ġbr and
dig it
ĠNet beans
ru it
Ġcollision s
G en
am i
) ](
ex per
Ġrec over
Ġlow est
Ġobserv ation
C AT
cond ition
Gu ide
CT ION
Hash Map
St atic
ver ting
M ENT
5 12
Ġrep et
Ġincre ased
org an
Ġaw ful
Pro xy
Ġsaf ari
Ġ:- /
ext end
Ġsch eduled
ex pl
Ġth ru
ast ructure
Ġat least
ĠE lement
D ist
ah ead
Ġear th
my site
H a
] {
ĠHash Map
A sh
FF FF
Ġ`+ `
ĠA D
> ::
c over
ĠE nc
sh ark
Ġindic ating
Ġscal ar
T EXT
b rew
ĠM artin
init ialize
ĠW SDL
Ġwr iter
ri se
ident ally
ĠB r
ĠR eturn
Ġcomple tes
Sub mit
Ġcomm itted
Ġmod er
Ġcompl iant
OR T
p ip
Ġ} `.
Ġp aging
wh ite
Ġdescript or
orig inal
N on
Ġsuff ix
ĠGit Hub
ed List
Ġx aml
Ġinconsist ent
ĠMar c
Ġsurround ing
M Q
Ġslow ly
ĠSure ly
G iven
ĠIde ally
Ġf ool
Ġunivers al
trans action
O li
Ġmod ul
on Create
every thing
wp f
ĠPr ot
Ġpo ps
h elper
Ã ¼
Ġhe ld
H R
report ing
lo gging
Ġx ib
ĠSer vlet
XX X
Ġmand atory
S ite
cl aim
Ġgroup ed
ĠPr int
Ġspread sheet
% @
g able
O rig
ob ody
10 8
Ġwast ing
ĠB ad
ĠO ption
our n
= {
es ide
ex pr
p ur
text area
Th ink
S ide
Ġgr ate
ED IT
R aj
Ġdatat able
ad apter
Ġext ent
Date Format
X Y
as sembly
C lo
My Class
__ __
= /
li braries
J ob
Ġreli ably
cl oud
ĠE JB
Ġr ich
Ġem phas
' '
Ġdo ctype
Ġremote ly
ĠH appy
Ġencour age
ic le
Ġ:- ).
ss on
UI TableView
Ġguess ed
Ġbro ke
mult ip
Com ple
Ġg db
Ġdoub les
Ġauthor ization
l an
Ġnow here
re pository
ast ore
ĠDe velo
act ual
ĠE macs
); "
Ġobtain ed
m apping
my admin
Ġbul k
download s
Ġcol on
ĠStr ange
/ >`
Ġc um
g oo
b oolean
pers ist
ch anges
Ġnumer ical
T T
per form
S k
d an
Ġcombin ing
) !
Vari able
Ġaccess es
Ġlaunch ing
ext ra
sort ed
can ner
Ex cept
Ġimpl ied
dest roy
Ġso le
ĠN PE
r ics
ĠP arent
ĠTR UE
k n
p ing
Ġth eres
Ġconstruct ive
re nt
Ġscroll view
plot lib
ĠLe vel
ĠNot epad
ren ch
ĠC ake
Ġpolymorph ism
e ature
Ġprocess ors
v g
Ġf aced
Ġwonder ed
Ġconsist ency
Ġ` *`
Ġtechno logies
Ġuse full
ject ion
ch anging
Ġd ots
Ġjav adoc
Al ert
Ġp ivot
ĠR A
v ide
Ġautom ate
wr ites
ĠD aniel
pen ame
now n
Ġsubstit ution
B ind
Ġde part
iz z
St range
Ġindic ator
Ġculpr it
n ose
Ġn it
Ġscen es
Ġsk ipped
Ġbound aries
ĠH ome
implement ation
Ġtu ples
ov a
ĠA greed
Ġ2 8
ĠD ESC
Ġenum s
Pr ice
[ [
Ġf antastic
est amps
ĠD AO
ĠMAT LAB
c art
H aving
ĠUN ION
Ġst ats
Det ail
k ernel
mm et
ek ka
y up
I CE
y le
ers ist
Ġap k
T ables
Ġdis miss
tr ansp
Ġwild card
Ġnot ified
alax y
ĠPl ayer
Ġexpl ore
Ġcapt ured
M ill
IN avigation
f lex
p ixel
ĠL anguage
ĠAN Y
Ġoptim izing
ĠUI ViewController
$ {
Ġactiv ate
Ġnight mare
ĠVAL UES
Cont ains
u int
Ġsecond ary
hmm m
n ary
Ġfam ily
Ġm usic
Ġtri angle
A jax
Con verter
Ġ{ `
Ġhead ing
wor th
p ublish
day s
w a
Event Listener
2 28
var s
ri f
ort o
IT E
ĠNS Array
Ġre plic
(" /
g lob
Ġtra verse
om in
in tern
Ġpl ans
thread ing
Ġpop ulating
$ (
12 9
Ġdist ribute
W all
. __
Ġred raw
ĠCom m
2 32
j ay
Ġt ack
Ġr ating
Ġpat ience
Ġplay ers
Ġmathematic al
ĠL a
13 7
c mp
ĠCon vert
B it
Ġex tr
ĠC C
Ġoptim izer
Ġpain ful
Ġins ist
ertain ly
get ElementsBy
django project
Ġpl ist
par sing
H int
Ġroll back
Valid ation
Sh ort
izont ally
Ġda ily
=" "
sm art
in v
en ger
h ex
aw esome
S pace
Ġparent s
Ġser ving
ID E
c alled
Ġqu ad
Ġwas nt
fil er
second s
build er
M IN
h istory
id ge
Ġpr one
200 6
k ind
er ik
11 9
Pre ferences
Ġa pt
Ġcomp anies
pre pare
igh b
15 9
Ġc ake
sq ld
; `,
Ġmisunder stand
Ġinterval s
match es
Res ume
State ment
E ither
Ġdirect ives
11 4
did n
Ġp ane
De velo
P ad
16 7
ĠN either
11 6
OP T
Ġdesc end
Ġem acs
Ġs we
ĠC REATE
; '
J oin
ĠE OF
Ġdifferent iate
Ġjo ined
al pha
Ġdetermin ing
act or
Ġgot o
Orient ation
Ġrel ates
'] ,
Ġreload ing
DI R
m u
v able
Ġin compatible
oc s
> )
Ġon load
ook ies
acc ur
ag g
Ġconsist ently
ĠReg ardless
Ste ven
ri m
Ġupper case
effer nan
FILE S
has kell
ic ating
Ġ1 50
ĠAR M
ĠEx cept
Ġjava x
Ġcontact s
Ġ`== `
u ro
pro gress
FA Q
Ġassoci ative
Ġcomp et
ĠS C
ru ption
$ _
an imate
ĠJ ames
B rad
m ill
de pth
st ar
im p
Ġcon secutive
Ġph otos
ĠData Table
K ind
com par
Ġtrad itional
Ġsh oot
Ġimportant ly
Ġoverrid es
Ġ4 5
< =
ou th
Ġher oku
ĠTe am
A CE
Ġas well
on ical
Ġgre y
Ġs ke
Ġfall s
Ġambig uity
Ġexpl o
ass ert
Ġob server
Ġali ases
dec imal
Ġqual ified
t iny
Ġbar s
does nt
ado be
Ġcontrad ict
ĠSim ilar
Ġas c
ĠC TE
der r
gu y
gu ides
Ġ`/ `
ĠRes ource
graph y
Ġrel ations
Ġdead lock
S ample
w x
S keet
ser ving
p and
ip y
ĠHer oku
T K
i Phone
te am
re verse
eth eless
M apper
Ġwa its
# //
s low
B asic
Ġ$ ('.
auth entication
fin ish
T ools
2 18
av is
Ġh ass
Ġstri pped
ĠP ort
Ġth reshold
Ġs ix
b ies
Ġclear s
Ġsuper class
B rilliant
g iven
Ġl ag
Ġdo able
Ġk ick
mag ic
Ġbefore hand
index Of
Ġgu i
ash es
CT YPE
Default s
Ġident ified
Ġ$ {
Ġdrag ging
Ġc aches
Ġdis advant
if ferent
Ġal arm
Ġ$ ("
let ter
Ġdirection s
Ġf ear
13 9
, -
Y S
Ġinstanti ating
equ al
Ġqu it
a ud
set Text
od d
ĠR FC
ĠAny one
ĠB it
Ġ.. ...
b locking
B ad
ĠD raw
Ġmen us
ĠIN NER
... ]
. <
is ms
Ġpast ebin
Ġdest ruct
. (
Ġocc up
čĠč Ġč
P ager
ex us
Ġs am
Cont ents
sh al
ĠM enu
est or
Ġowners hip
al th
Ġbal ance
ĠB oolean
Ġcomp rom
ĠCh ild
Ġclaim s
me an
h u
ĠD one
Ne il
Ġ2 7
Ġnew est
d avid
ag ers
Ġ( -
ĠC A
ĠRewrite Rule
redu ce
Ġdecre ase
I LL
ĠUn defined
Ġtouch es
Ġab andon
Ġbackslash es
I an
P DF
ro ph
Ġext ens
ĠWor ld
c am
Ġm im
Set ting
Ġre compile
Ġclick able
is posable
Ġda emon
ĠP attern
ĠData Context
d imensional
ru ment
Ġover ly
Ġcast s
ĠW ow
ĠF ree
Ġexp ansion
count ry
Auth or
Ġbe autiful
th ree
Ġhe y
ĠSu per
Ġsil ently
Y ear
Ġun initialized
r ather
A x
Data Set
Ġorient ed
res um
Ġaspect s
ĠTim er
Ġpre defined
Ġdetect ing
Ġw ich
Field s
Ġcompreh ensive
_ *`
ĠS un
Ġsl ice
resp ons
i ated
Ġcompl ains
Wor ld
Ġpro x
Ġcould nt
CE SS
im pl
Ġbit wise
Ġcode base
Ġsignature s
F inally
ag ent
Ġlim iting
incip al
parse Int
O wn
Ġdec ides
ams ung
Ġlog ically
lib c
Ġfall back
b g
ĠV ERY
R ep
12 4
op ed
Cell s
Ġcertific ates
z o
Un known
UD A
." *
Ġh mm
Ġpoly gon
arg uments
ump ed
ĠQu ick
Ġoffer ed
rout e
st able
Ġdele tion
Ġdri ving
Ġcont r
Ġoverl apping
Ġconvers ation
ĠString Builder
ĠH ard
Ġsched uler
Des ign
ed antic
is er
al ak
OM G
Ġtheoret ically
] ?
} );
num py
Ġsp ending
32 7
Ġunfortun ate
sim pl
3 14
ĠApp reciate
Ġsimilar ly
y et
Ġswitch es
f it
en ing
pr ite
An g
Ġque ues
Ch rome
ĠIm agine
V ideo
Ġr is
Ġlog o
ĠRe lease
25 0
sa f
aw s
Ġextract ed
ĠAm azon
ĠWord press
c n
Ġwar n
C REATE
S ur
W E
ert ific
ak ed
Ġfore ground
vol atile
2 27
ord s
30 6
Ker rek
Android Runtime
Ġhang s
ent ities
Ġqu oting
i w
* /
ĠTH EN
Ġwast ed
For RowAtIndexPath
i ro
Ġde ar
es ign
Ġluck y
' ;`
ĠEdit or
e as
Ġsepar ation
ul ations
12 6
] =
D at
Ġhe art
Ġs lo
ry an
accept ed
sw ap
k h
Ġ`< /
Ġincrement ing
Ġlog out
Sh ar
ĠN aN
Ġexpl ode
Ġinstant ly
Ġatt aching
Ġre think
Ġvulner able
Ġcont iguous
Ġun checked
Ġen abling
Ġen for
Ġas set
Ġty pos
yp ically
Ġord inary
Ġgrate ful
Ġt ends
B ag
ord ion
Ġsuspect ed
Ġ Ð
Ġauthent icated
j on
Ġh ood
Iter ator
ĠIntell i
ĠS ign
inject ion
t m
re ct
ĠS elenium
Ġter nary
ĠW M
Ġmat lab
Ġf lip
Ġsign ing
decl ared
Ġcontrol led
Ġtable View
ĠRel ative
ĠL D
ĠOpen CV
Ġextract ing
per f
'] ['
( .
l ayer
Ġwork book
ĠDEL ETE
Att ributes
Ġobsc ure
ur t
Ġsal es
c ursor
Ġg ist
th anx
Ġr ude
Ġedit able
ĠĠĠĠĠĠĠĠĠĠĠĠĠĠĠĠĠĠĠĠĠĠĠĠĠĠĠĠĠĠĠĠ ĠĠĠĠĠĠĠĠĠĠĠĠĠĠĠĠĠĠĠĠĠĠĠĠĠĠĠĠĠĠĠĠ
so ck
ĠN ope
ra de
Ġnon sense
x aml
sw ing
Ġout line
') `.
Ġintrodu cing
2 29
Ġinter section
ĠH i
Ġtextbox es
w all
Off set
Ġp an
call ing
Ġidi om
Rout e
ur er
Ġproject ion
Ġconstruct ing
Ġincorp orate
iv ation
Ġen joy
Ġhead ache
' >
post gresql
as king
Ġcomp osition
Class es
b d
Ġcl ang
Re lease
Ġconsist s
s am
and y
ĠF ull
Ġ` ,
Ġsp acing
ust ration
ĠS IG
Ġob serve
RE AD
Pl ace
W are
http d
el ist
Ġside bar
Ġy ea
p ull
Ġprovid ers
m ade
ĠD rupal
Ġcor ners
list view
)) )
V er
o y
Ġn s
Cont act
mat lab
M VC
ĠM ust
ib m
ĠOb j
++ ?
be it
ĠSome one
Ġwould nt
ie f
David H
Ġquant ity
Ġopport unity
Ġt ile
ĠT arget
ĠE ND
16 6
loc ale
n amed
ĠIn no
rad io
Ab stract
Ġnumer ous
` <
Ġst um
K S
Ġg esture
tu be
Ke ys
ĠActive Record
Ġautore lease
H ard
u ate
ĠConfig uration
cont in
Ġtransp ort
Ġmove ment
orth and
Ġrec ip
Ġfav our
fl ag
Ġattach ment
ed y
ĠY et
orient ed
olic y
l iter
Ġc al
ro ke
ĠWor king
syn chron
l ite
J avascript
Ġwidth s
ĠSecond ly
pro vider
Ġimprove ments
plus plus
c ategories
t bl
oo f
() ](
u fact
16 0
typed ef
Ġcap acity
sy mbol
Ġh acks
Ġsur prise
P ay
Jon Skeet
; )
Ġlocal ized
Ġexc use
Z one
10 3
") );
ĠCol or
Ġoper and
13 4
ro ck
Array s
Ġres ized
Ġprof essional
ĠShare Point
Ġs d
ĠMy Class
H older
() ->
aa a
U m
put er
Ġob served
& `
UI View
Ġta ught
Ġdes ire
resum ably
% ,
ss entially
Ġhim self
IST S
Ġgraph s
high light
LE S
Ġredu cing
Ġalter ed
ĠN on
Ġd t
M G
h aha
link ed
ĠL o
ĠG MT
Ġgr ant
)) `.
Ġu ri
Ġview ed
B ug
Ġrun at
File Name
Ġsh ip
ĠB ootstrap
Ġfig ht
() ).
Ġmag ically
Ġf atal
Ġrefresh ed
B L
mod al
Ġf ish
Ġprot ot
Ġbook mark
Ġthumbn ail
Ġab c
Ġg eo
not es
Ġscr ap
Con ceptual
Ġw ikipedia
Ah a
ĠMag ento
w ide
so ap
clo sed
cpp reference
Ġem bar
Ġport rait
La unch
es it
P RE
Pro c
Ġhass le
2 23
Ġ1 01
Or acle
Ġs ized
C lock
Ġform al
Mod al
Ġdesign ing
c oder
ou nce
Ġenumer ate
NotFound Exception
ĠLine arLayout
Ġcl auses
Fr ank
Rece iver
Ġinvol ving
B ill
et ary
Ġview model
orto ise
t ar
Ġvari ation
Ġtim estamps
re load
off ice
ĠF rame
id y
ĠG lobal
S W
o z
id i
Ġsy ml
tech n
Ġc tor
ĠS ir
11 5
t x
Ġalert s
Ġno pe
Ġra ises
Ġsl ot
Def ine
RO OT
() :
ĠP E
Ġwr aps
su pp
inter esting
ex tern
RE NT
Ġnet beans
Init ial
Ġad opt
For ums
" "
E clipse
ĠCL I
T ony
d og
Ġtrace back
Ġdate picker
Ġglob als
ĠGu ide
C enter
Ġcollect or
Ġassoci ate
Ġcap ability
J ay
ft en
Ġpurch ase
C ard
ĠC ell
ĠS ite
ext ensions
ĠSh ared
11 8
ĠUI Image
ĠSingle ton
se q
10 24
Ġ ),
ĠAnd rew
ĠSpec ifically
herit ance
Ġ{ {
vers al
Ġl s
ĠH EAD
ax on
STR ING
ĠIm port
ĠW ait
Ġrad ius
Ġtrust ed
34 8
F etch
chart s
_ `
ul ing
2 25
Ġre written
pre fix
Ġestablish ed
ext ract
Ġscop ed
Ġdec oding
2 26
ĠBack ground
Em ployee
Ġyou tube
am ount
Bal usC
Ġ' #
Write Line
z ing
z end
comm unity
Ġauth ors
Ġter ribly
Ġbl ame
Ġexcl usive
N amed
Ġregister ing
Ġhack y
ĠCan vas
Ġintegr ity
b f
ĠR ad
ĠCall ing
Ġpre pend
i q
ALL Y
Ġde grees
sub string
th eme
_ *
20 7
allow ed
ĠNever theless
enn is
al og
") `.
Ġas cii
h d
ĠWh atever
Ġdown side
Get ting
Ġwh ilst
App le
= \"
Sh ared
Ġind irect
Ġ7 0
av ity
h ouse
Ġin sp
ĠR andom
Ġhor izontally
em acs
ĠS UM
ĠL isp
add r
Ġinvalid ate
Ġvari ations
t ick
out side
so c
ast ian
Mon th
Ġevalu ating
Ġaffect ing
ĠEdit Text
anc ing
Ð ¾
Ġdu pe
x s
Ġinspect or
čĠčĠč ĠĠ
L R
m ask
ht docs
Ġb tn
ĠW AR
Ġmagn itude
V B
ĠW ITH
6 01
Ġwhich ever
ĠL ua
feature s
es cap
Ġp ic
ad ays
Th ompson
Ġ< >
Ġkill ing
n ick
Ġp are
F WIW
OU R
Ġintern als
Ġdll s
f actory
ynam ically
how to
Ġt iles
Ġ6 00
o ple
ĠJ Boss
ĠSu pport
ĠF ollow
In v
} ;
im als
St udent
14 9
Ġpract ically
Ag ent
Column s
Ġobserv able
D ear
Ġc out
Ġsw f
Ġenh ance
Ġ; -
L IB
mem bers
fr astructure
A v
Ġspot ted
T YPE
j peg
ĠUn it
Ġ< %=
Ġflaw ed
Ġridicul ous
c ake
ĠRe place
Ġtr aining
ĠBy te
Ġwonder ful
/ )?
ĠL abel
Ar ch
access ible
std out
U ri
Ġh ooks
Ġobject AtIndex
App arently
Ġassemb ler
Ġgot ta
part ial
Ġscal a
lect or
M O
o on
w ind
ĠL L
gu ard
Pack age
Ġmake file
i OS
Ġmembers hip
ĠT ag
Ġtransp arency
Ġli e
32 0
P ixel
Ġhelp ers
ient s
ĠUN IX
Ġm ongo
ĠH ello
ĠF ix
15 7
Ġforget ting
ĠL OL
Ġthorough ly
ĠBuffer ed
Ġrecord ing
list ener
Ġad vert
a ik
Ġtable t
ĠImage View
Ġdiag nose
Ġcir cles
ĠM AC
tech net
Ġbegin s
ess or
Ġdecom p
ag ma
Jo achim
Ġdelay ed
Ġenumer ation
G ive
Ġad jac
ĠD omain
ĠWord Press
Ġvalid ated
p icture
ur u
Ġlear nt
qu ence
Ġmon o
Ġb eside
Ġre play
ord ova
Ġsub views
ĠGet ting
hh h
as soci
c uts
ĠForm at
h y
17 7
or ity
K on
Ġr am
ap ers
Ġsh apes
z ed
b t
H ope
Ã Ń
ch e
Ġbrows ing
des c
Ġoverload s
amb das
dri ve
wr iter
Ġin verse
Ġte aching
Ġo ct
ĠP RO
G it
com plex
Ġconf ident
D im
Ġmanip ulating
Ġwin forms
mar c
=> "
tim er
tom cat
er ning
ĠM ouse
sh adow
C ookie
Ġattack er
h int
ch annel
Ġ2 9
ĠL at
Ġbu cket
tri vial
Ġmal icious
M oo
' `,
ĠTem plate
ĠD ynamic
ru ments
interpre t
l tim
th ese
ĠB ro
rec ursive
Ġun readable
Ġtop ics
Ġclosure s
g reen
n ik
Ġlif ecycle
B ound
ĠPre tty
Ġf idd
-- >
! .
Ġsw apping
Ġseg fault
Ġlight weight
Ġaddress ing
Ġrecommend ations
es se
ĠD TO
As sembly
% `
- `
p ower
her oku
" ]`
ĠD ave
cal endar
Ġ' ,
AS CII
ug et
Ġassign ments
sl ider
Ġs ane
Ġre boot
Program mer
i pt
Ġsu ite
Ġawk ward
ĠH AV
arg ument
ĠReg ards
Ġadjust ed
oc ument
embers hip
ĠJSON P
Ġpanel s
p ure
ch ecking
F il
Ġinher iting
Ġna ive
friend ly
Ġun aware
ĠSte ve
3 84
Ġinter f
Ġbecom ing
ĠLog Cat
Ġvir t
ĠE E
Ġweek end
and ra
ack er
Ġdeser ve
start ed
pe ople
ĠO ur
del ay
ĠDI STINCT
ad ig
ph an
Ġarray list
16 9
graph ics
ĠNet Beans
20 9
Ġli ves
S n
ph ere
ĠIn sert
Ġ< !
Ġsh rink
19 4
18 5
Ġdetermin es
50 9
arg v
struct ure
ĠSu ppose
" +
Any way
Ġd d
Ġbegin ners
b atch
Ġform ed
Ġst icking
x code
st ud
Ġ* (
Ġh ouse
Ġlength s
Ġc v
Ġoff icially
DE L
Ġ4 2
dis patch
L ines
s an
Ġex hib
Ġtouch ed
r ain
3 77
Ġp s
x path
Ġs ing
ab bit
Ġ200 9
Ġlack ing
ne g
Ġisol ated
h ot
al d
ĠJ Panel
il ation
ĠC ategory
Ġsynchron ize
or is
Ġpro p
cont rollers
Ġver ification
ĠDele te
ĠList Box
ĠU rl
ĠJ oomla
sub scri
D irect
o C
graph ic
lin ing
V O
Ġwork arounds
qu al
ĠPar se
J ECT
on us
13 6
Ġcorrect ing
Ġbuilt in
Ġvari ety
Ġs lic
ĠV ector
Ro le
Ġf ul
Ġappear ance
ouse l
spring framework
nn nn
u u
Wh ite
Ġdecor ator
ol a
Ġcrit ic
Ġsit ting
R ot
Rem ember
FT ER
Ġprimit ives
cod ereview
D ig
Ġstd in
asp net
R OW
Ġp ending
Ġquestion er
18 7
Ġpay load
fr ames
01 0
A K
Ġspe ll
er min
m achine
Ġ`& `
spe ed
Ġm ad
Ġpro files
ĠP anel
URL Connection
Ġin i
ĠC P
Ġsp arse
pre tty
ĠData Grid
Ġworry ing
b ra
c m
l ot
ol as
ĠJ AVA
Ġsh o
UI Image
ll ib
ur y
ĠC AN
F ox
en abled
14 4
Ġp g
ĠH igh
ĠK e
Ġsu gar
aly tics
ĠEm ployee
Ġconflict ing
:\ \
ory board
yn chron
Ġde vs
Ġa ir
Ġprov ision
30 7
ht able
Ġsh orthand
ĠR out
Ġupload s
Com ment
ĠS MS
P os
ĠRun ning
Ġprim arily
E numerable
ĠT ell
s pl
Ġnull s
dro pdown
Ġh anging
jam in
ĠM aster
ar re
Rece ive
R et
ĠS D
ĠB L
ap k
ĠJ Frame
Ġ` ...
Ġmod es
b an
oo o
00 7
SS QL
Ign ore
ĠView s
V E
su bject
sv g
Ġre used
in x
Ġhost name
+ '
S M
Qu ick
_ (
pre dict
idd ing
con sum
Ġbub ble
ĠF ALSE
Ġedit ors
button s
l azy
ĠG AE
~ /
er ce
B inary
Ġhack ing
limit ed
ose ph
Ġdebugg ed
Content View
[ @
ĠG em
C apt
ĠO DBC
W ay
Ġrever sed
H ot
Application s
a que
Ġaccur ately
h ak
Ġbring ing
Ġmonit oring
ar th
Ġdiscour aged
13 8
ĠI ter
F ore
Ġrender er
ic a
Ġv ast
our ses
Ġ% {
F ollow
ĠUn able
ss ue
Ġco z
Bl ack
Ġcom plement
Auth entication
Z ip
ten ess
Ġembed ding
AA AA
Ġnat urally
Ġcl utter
ĠH is
([ ^
` !
Ã ¡
Ġ; ).
Id entity
T oo
ĠC T
fire fox
nb sp
Out Of
âĢĭ âĢĭ
tu ple
Ġacc um
18 9
N aN
Equ al
recogn ized
st ant
not ify
S ometimes
pre vious
Ġseg ments
Ġincrement ed
x ampp
Ġlic en
Ġnot ion
s izing
ct l
Ġno vice
En vironment
c ause
Ġl acks
Ġroll ing
ĠPost gres
v ance
Ġ` =`
Ġunw anted
String s
" ].
Ġw x
ĠO rig
Ġoccurre nce
jquery ui
Ġecho ing
p aint
NS Array
C I
ick y
% ;
ash ing
Ġcompare s
S ir
uri st
) ".
Ġ );`
Ġover come
ĠCom mon
ang ling
Ð °
ĠC UDA
ack ed
Al ways
Ġ1 99
Ġintegr al
Ġtheoret ical
Ġapp arent
in n
Ġc f
Ġconnect s
V ert
Never mind
Ġphp myadmin
TR UE
O s
Ġdo zen
Ġdis posed
Or Default
S pe
Ġdef e
ĠMy Sql
ĠUser Control
exp and
S eb
Ġ` |
ĠS top
ĠL OT
Ġp x
sl ice
C A
ĠE num
ĠK now
CL I
( ".
ar is
Ġret ained
collection s
Un caught
Ġignor ance
b locks
char acters
accept ing
Ġisol ation
Ġscrew ed
In clude
sol ve
14 0
ĠReg Ex
ĠArray s
Ġexpress ed
E ST
Ġid le
Ġ5 000
Ġsubclass ing
! =
F aces
m utable
Ġwatch ing
AN G
Ġback ticks
W H
Ġ4 8
Ġsent ences
read ed
Ġpip es
enc rypt
got o
Ġte h
Ġprotocol s
Ġ:) )
17 9
Ġr and
Ġactiv ated
ĠM ode
ign ment
tot ime
ĠCom par
mar king
code pad
Event Args
Ġgr ows
l or
Ġwrapp ers
o j
p ot
work er
im ately
ĠTh ought
13 0
vari ant
t alk
at ly
str len
Null PointerException
Ġ:( .
un ately
hold ers
ĠV im
Be h
D r
P ause
oo per
ĠL earn
const ant
Mart ijn
Ġh yp
Ġvis ited
sch ed
Ġinstall s
Ġe ll
ĠG oog
C ity
Ġ" '
Dis pose
Every thing
M apping
ir l
Ġcare s
W atch
N F
Ġrun nable
W EB
ist ed
Ġple asure
W rapper
iler plate
Ġpay ing
Ġpro pri
Ġun pack
pass ing
Pre tty
t ure
Ġen light
lock ed
Ġre usable
Ġpro posal
in ese
bu cket
30 9
OR S
t f
Ġr u
depend ency
programm ers
clo sure
Sim ilar
st ats
ĠW OR
ĠIn jection
15 4
g un
on rails
depend ing
W R
Ġremo val
Not ify
Ġconv ol
c raft
at ra
ĠD an
ĠDis pose
Ext ra
ĠC ache
NS Log
F X
se lection
], [
Ġexperiment ing
Ġre act
Ġscan ning
dot net
ĠAuth entication
Run ning
SV N
k ms
gu ess
m el
{ $
F inal
Ġpar ses
' =>
P ekka
y ml
Ġn est
ĠIn side
f ork
in formation
ad ic
ĠN ick
fo oter
ir it
Ġnative ly
R am
T D
ic ator
Ġpl ane
Ġt ed
Ġ`[ [
AB C
Ġex cess
Man ifest
VAL UE
pt o
Ġgr ace
Ġcount ries
Ġopin ions
Ġste pping
C y
ĠM is
ĠF ILE
dem os
] `?
Ġenter prise
ĠBe gin
qu ot
Ġinst ruct
Ġbother ed
ul as
mod ified
Ġun changed
edit ing
ĠUI ImageView
Ġstr uts
User Defaults
Wor king
ĠPower Shell
C ross
Ġshort est
My Admin
** ?
Ch a
ĠAs sembly
ĠD im
Ġinvo kes
Ġto String
Ġ" (
Ġcluster ed
Ġw ater
Ġgr ound
string ify
Ġs ong
Ġem ulate
pri ate
Ġmax im
T w
Ġin con
t ail
ĠN e
Ġcons ult
Ġff mpeg
Ġex ha
Ge orge
? ".
b asically
valid ator
3 000
ĠJ NI
ĠL ar
Ġutil ize
or ical
ification s
* (
ĠS am
ĠOut look
Ġany how
Ġvari es
Ġtem pt
ĠO UT
Ġless on
Tag Name
ct uation
Ġ8 00
Ġperiod ically
Ġencaps ulation
Ġbr ace
ert ools
f ar
L i
try ing
Ġne arest
Ġcustom ized
l c
, ...
3 34
Ġback ward
Dest roy
l av
lin er
D ynamic
Ġy ellow
j boss
ĠSE O
Ġdra ft
Ġplace ment
store d
we ek
c ro
s f
ie u
h it
so ph
Ġout lined
Ġconc erning
. ".
s in
Ġb atter
Ġmechan isms
ĠIB M
ĠJo sh
ĠO ff
St ruct
B C
ĠP OC
Ġj oke
Ġc d
pop up
request s
ĠDe vice
s ometimes
get String
Sy ntax
ic ates
Ġwho ever
PL AIN
in ate
2 12
an imation
sequ ence
Ġclip board
Ġseg ue
Ġspl ash
bar s
direct ories
j e
su gg
ĠDef initely
, %
âĢ ľ
Ġmo ot
b az
Ġb ot
D ict
st mt
not ations
ON G
Ġsub process
ah h
ruby onrails
59 6
Ġd up
al ter
l ime
ĠRead ing
sp r
ĠView Controller
r ames
Can vas
Ġcover age
s ensitive
Ġt ie
Ġpre v
Ġ3 3
Ġfour th
ĠU ri
Cont rollers
servable Collection
Ġj umps
Ġelab or
c plusplus
n th
z oom
Ġscop es
h ence
ia lect
me aning
Ġresol ving
Ġtempl ating
Ġ" @
Ġ:) ,
pre view
Ġensure s
" '
m ond
ĠSer iously
an onymous
ĠM U
Ġgraph ic
b ird
Ġfile d
log ical
S DK
ĠN exus
20 4
Ġorgan ization
re pl
ĠI ve
ret rie
Ġ3 5
Ġsem aphore
Ġrout ines
Ġinterpo lation
Ġcy gwin
Prot ocol
Ġdeleg ation
ĠS ocket
s ens
Ġassoci ations
Ġ rolled
ĠP M
ro om
Ġpersist ed
ĠA wesome
r er
ĠS adly
y z
Ġth in
Ġdo ll
Ġh eck
Ġro ck
Ġresult ed
M oh
Ġre alloc
ĠG od
Ġsepar ating
Ġw ifi
B oolean
ĠJ ob
L oop
ĠB ook
c ancel
ĠM FC
ĠIn fo
Christ ian
c rypt
Ġresol ves
ĠSt atus
/ _
C UR
N odes
r ules
ĠS ur
Ġpen al
ĠV er
Ġbe ar
Ġco ffee
Ġtr unk
T unes
Ġdeser ialize
ĠD OS
Ġscan ner
Ġunnecess arily
Ġne ighb
Ġplay s
g od
in ja
Class Name
Ġse lenium
Ġdelimit ers
D a
Ġocc ured
2 80
L P
Ġc urrency
Ġsign s
Ġman ages
ep ar
l ated
ra pping
ĠUn ity
Ġspecial ized
Ġcl ues
o auth
ĠTrans action
Ġag es
Ġpar sers
Ġtransition s
defin itely
format ted
K ing
m r
Ġl d
30 3
open cv
Ġfill s
Su ccess
D imit
Ġpse ud
re po
t l
ank ly
bo y
id en
Ġsyntact ic
S a
Ġdirect ed
15 6
Ġunderscore s
Ġcomple teness
ĠCre ating
j k
ĠB O
po ll
comp iling
con n
ID s
ĠB inary
ard o
Ġregular ly
F i
ĠCom ponent
ex plain
Ġb iz
ĠTh anx
ĠD ebu
25 9
13 5
ok en
Ġcor p
in cludes
Ġimage view
ĠDep endency
ant ity
Ġinher ently
fold ers
19 6
Ġhom epage
F B
Ġre order
th ought
.... ...
Me h
ĠW i
Ġneg lig
Ġhe he
c in
Ġc pp
Ġ` >
Ġb ur
Ġvari ants
Ġtext ures
Bl ue
ACT ION
1 0000
? ),
M sg
Sp an
2 16
ĠM ail
ĠTHANK S
ĠW EB
object ive
r ating
Ġcount ed
ade c
Ġphone gap
ĠR ange
Ġprefer ably
js f
Ġdoubt s
r f
v d
Ad rian
ĠA FTER
ĠC ast
Ġexp ired
Ġredu ces
Im plement
clo sest
v ik
Ġtr ap
18 6
Ġtreat s
Ġde ferred
Ġam ended
li able
Ġgen ius
A pologies
re ferences
mitted ly
Ġdeli ber
Un icode
AY S
A pi
Ġh esit
Ġconsum ption
Ġintell isense
Ġshe ets
i ry
mb ed
ĠValid ation
Ġcontinuous ly
ch er
pre v
Ġword ed
ase ts
Ġd am
Ġspec ially
ĠS k
C K
Ġqu irks
Ġover view
past ed
Tom alak
nost ics
= &
v id
ĠIde a
Com boBox
Ġalloc ations
im ag
Ġsu ck
Ġintention ally
t ell
Ġjump ing
st udent
ĠB ox
Ġnotic ing
m as
DavidH effernan
ĠRem oving
Ġinflu ence
Ke ith
r ass
z ens
Ġin accur
d ictionary
P et
ĠBack bone
bro ken
J eremy
Ġm irror
Ġext ensive
test s
C lip
Render er
l ie
ĠM IME
Ġparameter ized
14 5
: **
ud ging
Ġwrong ly
Ġcor ruption
Ġtre ating
ĠOP s
Ġre base
us age
3 88
ĠHead er
! ,
Ġsy mpt
f ly
Ġre post
ann es
FA ULT
Ġprof essor
p et
r ake
Ġcont rary
H or
# ?
rom ium
Reg ex
17 0
bl ur
Ġquot ation
C red
J e
ĠC URL
Ġvis itor
Ab solutely
ex plicit
Ġper f
ertific ate
in spect
Ġh am
port ion
key board
Ġ... "
f p
al king
Argument Exception
ĠMod ule
pre pared
'] )
17 6
~ ~
Ġe at
and ro
ĠT op
17 4
Ġscroll s
ĠGo ing
H idden
77 7
C ounter
iqu eness
EG IN
2 10
H am
v or
Ġin frastructure
ĠO ptions
o sh
Ġbuffer ed
ou ple
pa per
j unction
h aving
Ġexport ing
Se an
Ġf b
ĠB OM
Ġsubscri be
at ar
an et
ec ks
Ġres ides
- %
Ġformat ter
Def initely
Ġre q
Ġg ate
ĠC O
Ġad s
app engine
Ġtool kit
b ot
l int
ĠD AT
ĠV is
should n
mm ed
SQL ite
c ards
Ġm ime
Ġf li
Ġimpl ications
Ġd unno
D A
__ .
ĠJAX B
o ved
Ġnow adays
dat ab
s ight
ĠO ops
Ġset t
P O
Ġhttp d
ĠSS MS
Ġ" +
ĠAs k
Person ally
Ġoccasion ally
m aking
In ternal
Ġencoding s
18 4
M a
Ġso ap
Ġsw ipe
F ab
to k
Ġtrunc ated
s ounds
Ġch aining
`` `
ĠON E
Ġsu its
per ldoc
Ġfin ite
Ġdepart ment
ĠT itle
g allery
Ġha ir
wr ote
Ġperman ent
Ar un
Ġp tr
Ġpropri etary
Down List
En able
Ġl az
Ġtext s
Format ter
ĠM aking
sub str
' +
Ġpar adig
Ġgu ard
G I
ĠX SD
ac ob
over ride
le ave
ĠX SS
ĠF ilter
Ġted ious
Ġsumm ar
Cre ating
n at
ĠC alendar
tip s
U sually
Pro gramming
ĠD ist
Ġconfig uring
f ragment
Ġwh it
Rel ative
Ġmeas uring
Ġidi omatic
Hash Code
4 01
Ġc urs
Ġfl icker
ĠEn vironment
bers ome
Ch annel
C are
c x
Ste p
Ġd f
id imensional
Ġun set
ĠIm plement
H ad
l it
Ġret ry
ĠG e
ĠC lose
]. [
ĠH ost
64 7
Ġsucceed ed
Ġsusp ic
Z a
Ġ`$ ('.
24 0
ĠWeb View
Ġsyn thes
Ġfundament ally
Ġad b
Rec ogn
R F
or row
al tern
my domain
H C
od ate
Ġsemant ically
U SE
Ġ` ;`
ro g
Ġg if
li as
ilo soph
Ġlookup s
acc ording
ent in
Ch anging
az ine
ap an
Ġchart s
Ġartif act
` (
Ġsubst ant
upload s
G ordon
z es
Ġp it
Ġdeser ves
Valid ator
2 11
Ġpublic ly
sy mfony
P air
Ġtermin ates
Ġcorrect ness
Ġres ume
Sub view
Ġhapp ily
add Class
Ġmaintain able
V irtual
il ine
ĠR C
Re fer
ĠEl se
ĠC ASE
Ġthread ed
b i
Sh are
Ġoptim isation
G i
c roll
Ġa de
ĠE mail
Ex ternal
INavigation Controller
d bo
Ġrect angles
An thony
Ġsw ing
Ġ> >>
ĠEX ISTS
ĠAtt ribute
FL AG
_ ?
adec imal
& &
Ġm icrosoft
XX XX
ar a
Ġins ane
Ġdere fer
Ġpre t
2 99
ĠV ARCHAR
Ġmod ifies
ĠAr g
Ġl ambdas
Ġvalid ations
ĠSS IS
Will Appear
N ative
h al
j ira
20 6
Ġserial izing
P ER
Ġfree ze
p thread
sh a
Ġe ager
Load ing
ĠBl ack
Ġsc aled
Ġdialog s
Ġreflect ed
Ġact ing
ĠCom pare
ĠSt atic
Ġint ensive
Ġ\ \
ĠJ eff
Ġrem ind
Ġd ice
rad ius
ll er
27 9
er sey
and re
key word
Ġtim ed
A NT
Ġsu br
14 6
Ġrespond s
math works
Ġhyper link
d ynamically
Ġunderstand s
Andre as
index Path
3 32
F low
Ġj udge
Ġ3 6
Ġto ast
00 9
Ġact ively
ĠRE PL
ab lo
uri ous
U s
ic ing
ĠPl ugin
Ġest imate
Ġprinci ples
ver ted
ir c
om bie
ĠP ascal
fl at
Ġw at
Ġp owershell
ĠA T
ĠJ enkins
Ġweb kit
gu i
Ġs un
Ġd i
ĠD DL
30 4
Ġencaps ulate
ĠSm art
o gram
so ckets
ad b
Ġpare ns
Ġle aking
ĠU UID
36 0
A RE
H uh
Ġsubscri ption
hand ling
ĠC ool
ĠE DT
Ġc URL
t el
Ġdo zens
Ġrec ipe
Ġst re
ĠPro file
Com pare
Ġdere ference
In Background
ĠIntelli J
C ulture
Ġsub mits
pub s
Ġc s
dist ance
Ġemploy ees
w alk
Ġcum bersome
Ġso ft
Ġworks heet
ĠX E
ra z
unk nown
Ġdisapp eared
J ared
auto complete
ĠF air
Ġb i
ifi able
Ġhyp oth
G G
Ġw ider
W M
View er
dele ted
F ORM
decl are
Ġl ang
Ġco s
2 19
ĠAr ch
Ġsh ed
E val
Sol ved
re ason
Ġpro ced
vert ical
H EAD
box es
Ġoccurre nces
Ġprefix es
u ary
zer kms
b m
install ing
Ġgrab bing
ty pename
20 8
ĠSy mfony
uis wing
ĠR SS
Jo el
Ġtel net
ĠC ent
E rr
Ġex posing
ĠB rian
pro g
Cl oud
% '
S IZE
Ġ rig
other wise
Ġsk ipping
ĠS tyle
super user
an th
Ġname ly
Ġdisapp oint
ĠMU CH
bre vi
ĠDO ES
4 80
pri mary
ĠM ove
Ġarchitect ures
look up
il a
Draw able
Ġreg ions
D rag
w g
Rem ote
Ġvan illa
ocument ed
S adly
Ġpro d
Ġdes irable
S N
ĠAuth or
comput er
Ġtype of
B art
Ġrepl ied
Ġembar rass
[ \
c ertain
Ġgr anted
Ġinform ations
ef aces
IE W
A le
Ġsk in
Ġcru cial
aw t
SL aks
Ġmultith reading
r at
Ġs vg
ĠRe fer
Po ssibly
Pass ant
Ġco inc
ab stract
ĠNull PointerException
debugg ing
Ġcave at
Ġparagraph s
do ing
Ġdealloc ated
x l
Ġhard code
Ġnotice able
Ġport ability
V lad
Ġat m
ĠM UST
Ġsp ans
Ġpolymorph ic
] ).
Ġrem inder
ident ity
s al
n it
T echnically
Ġconf uses
Ġexp ire
ĠSol r
M ah
R ails
Ġ1 20
ĠF ont
std in
Ġsufficient ly
} '
get Text
Ġspr ites
] '
appro priate
"] =>
h ood
Ġaccomplish ed
Ġsusp icious
d h
sem ble
ĠActive X
Ġex iting
ru le
ĠCh anged
Ġbench marks
track ing
ĠGraph ics
e le
r n
ĠWH EN
Ġp id
Ar t
Ġnet working
CO DE
Ġmeas ured
K umar
en vironment
Ġ2 50
Ex it
Ġanno y
Ġar rows
c op
get JSON
Ġ< %
Ġvis ually
mon key
om p
Ġinject ing
e i
> ();
Found ation
uzz y
as z
Ġexpand ing
b ill
Ġany time
D amn
Ġintrodu ction
ĠM onday
ĠE VER
Ġtr acing
Ġresearch ing
l ooking
it ation
N ib
Ġp ub
L anguage
or p
Ġb lo
St andard
3 56
00 01
ĠT urns
50 7
Ġspecification s
ĠJ oin
ĠCh rist
ens us
G V
em p
Ġen ables
Ġ= /
decl ar
Ġx D
Ġbrief ly
g lad
Ġin lined
A pache
IM HO
Ġtwe aking
ar ren
Dep ending
Ġ( @
styles heet
ĠS l
ĠWe ird
Ġi Tunes
Ġ( :
Ġshould nt
Ġindent ed
Ġsee king
Christ oph
b us
Ġpublish ing
ct rl
n ix
pl er
Ġquery string
Ġhash ed
\ _
Ġev ol
ET A
ĠE ssentially
be ing
". $
" },
v ation
or on
ĠA pologies
Ġidentify ing
Hans Passant
Ġintell ig
Ġred is
AD D
Ġer ase
C OL
r ams
ind ent
ĠPh oto
Ġneglig ible
ĠB ob
ĠN u
ordin ate
pro of
Ġl aw
B UG
Ġown ed
+ `
Ġn p
ĠInno DB
Ġbatter y
M ich
'. $
Ġt cp
Ġar range
G ap
pro f
Ġflag ged
Ġw s
ĠR ender
Ġinter op
Ġmy st
il son
cont rib
Ġremember ed
l m
ĠJo e
Ġdeb ate
ĠE qu
return s
Ġfront end
Ġpost gres
Type Error
ĠQ T
? '
Ġa ster
class path
Ġjo y
" -
ot ally
Cre ated
ĠSW F
> ?
find ViewById
Ġj dk
ul k
Ġ` ?`
ie ved
ĠB al
Ġmulti pl
C ASE
ĠExec ute
m iddle
al ysis
ĠC DN
Ġaccess or
NUM BER
ĠS F
date picker
Ġdri ven
Ġtrack er
R oh
Ġ`[ ]`
Ġtrunc ate
Ġab use
ĠPer formance
Ġgl ass
Ġt aste
Ġst ress
Ste fan
Sw itch
S ION
Ġspecial ization
Sch ema
t asks
st rict
Ġadv ised
' }
Ut il
lect ed
u an
qu is
ig t
Ġfact s
IV E
me ans
Ġund ocumented
17 5
ĠSt udent
pos ite
S leep
Ġc rypt
Ġcan onical
gr ails
ĠU ltim
ĠD D
ĠT otal
Ġenclo sing
i is
ordin ates
ĠDown load
D emo
Ġf iddler
ĠJ et
15 5
Post Back
Ġbill ion
F lash
c z
Ġc ascade
PU T
Ġtim ers
Pat rick
m ob
ĠT ouch
Ġdo g
et te
ĠN P
Ġ? >`
Comp any
17 8
ĠY up
Ġper mitted
ĠTr ace
4 000
k k
C ap
Ġf ro
velo city
rem ember
Ġpat ient
Ġun int
Ġimpro ving
Post Execute
P eople
Ġh i
Ġlat itude
d ue
ĠU ntil
Ġrepl ication
Dis patcher
OU LD
Ġc ro
ro cess
P icture
> &
ĠC E
Ġequ ival
Ġem it
Ġoper ands
anc er
E ND
Ġre aching
f ancy
Ġwork ers
Ġ: |
T ABLE
Ġg zip
ation ship
Ġsu cc
re spect
Ġreprodu ces
G R
^ ^
host s
see k
ĠREST ful
nom ial
Ġam end
ĠG lass
Ġprox ies
Ġform ulas
RE S
Ġsuper ior
Pre sent
Ġmoc king
+ )
ĠCG I
Ġo ops
Al most
Ġdecision s
J OIN
S al
lo s
port s
ĠP UT
ĠN ST
Ġduplic ating
Ġ$( ".
i ans
ĠComp iler
j m
is o
V ol
Ġrot ated
Ġcoll ation
Ġleg end
Ġdiscuss ing
Ġshif ting
Out let
Ġg aps
ĠX Y
Ġcouple d
R aw
ru b
F ROM
c lock
pl s
rag ments
Ġinvestig ating
Ġreset ting
ĠEX E
Ġchannel s
Ġs ilverlight
prot ocol
Ġadjac ent
f our
u gg
Ġ' @
Ext ension
Draw ing
special chars
Ġcomp o
Ġpartic ip
Ġtouch ing
s ir
im an
um m
eb ian
line ar
sv c
Ġge ometry
ĠJ PEG
how ever
LE FT
ĠCom ment
we ak
g roovy
Ġrecre ated
ab or
` )?
d m
Ġ' {
S to
Ġdat astore
int ro
char set
ab ic
ave en
Ġdelimit ed
) =
url s
effect s
ĠPer fect
Ġsubr out
s quare
Ġbeh aving
ĠCont act
AC CESS
embed ded
Y TH
Ġrot ating
ĠMo zilla
Ġgrow ing
M ult
ĠP ublic
Ġappro ved
ĠUn caught
Ser vy
ĠCould n
r g
Ġdat asets
An notation
Ġnever theless
application s
ĠA ES
Ġautom ation
ret ain
C ancel
F ix
Ġpermut ations
e z
Ġmis ses
remo ved
ot ic
Error s
F O
TH ANK
ĠCT RL
Ġsec s
aw ait
ĠIn clude
Ġengine er
report s
Ġsegment ation
Ġconcurrent ly
p in
Ġman agers
Ġ201 4
f aster
oc ks
current ly
m ber
ĠA NT
30 5
ĠMain Activity
/ '
if er
enu ine
Ġnormal ized
Ġop aque
WOR D
ĠG PL
ĠH aven
Ġac know
55 5
ĠAd am
init With
Ġcont ribute
W on
st o
Ġar rive
ĠTH AT
($ (
conf irm
Con struct
24 7
remo ving
Ġhelp full
Char acter
D ude
_ ^
ĠT ypically
St uff
Ġdri ves
Ġdetect s
Ġpun ctuation
Ġd ream
oc c
add EventListener
G esture
Ġb g
Ġade qu
ro k
ik es
Product s
Ġsequ entially
am mad
ĠM SSQL
ĠK n
Ð µ
ur ch
fo pen
y m
Ġi o
Ġdesign ers
18 8
ay lor
Ġcont ribution
ĠFort ran
ĠAb stract
Ġmigr ations
. -
b eta
Ġqual ify
" `?
Get Type
ĠPo ssibly
autif ully
3 59
set Interval
19 8
10 2
P ersist
Ob viously
Ġcou pling
he ap
Ġthem es
Ġtermin ating
Class Loader
Ġr vm
er d
Ġassign s
Ġrep aint
t i
Ġre using
3 15
j et
Ġw ake
Ġdeliver ed
? ...
T A
25 7
ribut ing
mmet ric
ĠC r
ĠA udio
Qu estions
f ailed
l ife
Ġshort cuts
Ġconv ince
: =
Ġun caught
Ġmiddle ware
Ġ`{ }`
ĠWr iting
ĠHand ler
D en
Ġstar ters
K an
Ġs in
ST AMP
u ke
ĠClear ly
5 234
im plicit
fact or
P ower
ĠC ase
Ġab sence
Ġg ig
Ġun comment
Gener ally
4 56
Ġst umped
ĠS creen
23 7
[ ,
ac er
What s
Ġintrodu ces
AP P
; `?
p se
Ġtry ed
Act iv
olt Clock
Ġvirt ually
m q
J erry
ex press
produ ction
EF ORE
wh ether
in ition
Ġ1 92
ematic a
ĠL ets
tr icks
Ġnon etheless
Ġw an
Ben jamin
( _
amp a
97 0
Any one
R a
c identally
WE EN
n or
34 5
d ers
ĠA part
Ġtyp ec
Ġpresent ing
ĠIP v
ĠEnter prise
Ġf ed
Ġconcaten ating
../ ../
Comple ted
Ġtarget ed
Could n
L ee
Ġj unk
Ġlong est
Ġperform ant
Ġb onus
Ġdemonstr ating
M ock
Ġim ho
9999 9999
angular js
Ġreve al
N athan
Ex press
ET WEEN
200 3
Ġengine ering
Ġsim ulation
man age
ĠCy gwin
Ġ5 12
+ .
s amples
Ġintention al
ws gi
Ġu int
l st
19 5
IS O
ĠF ore
Ġc ube
t b
ĠH ans
cl uster
Ġco der
Ġalter ing
Ġc atalog
Ġ`( ?
ip es
ĠSome how
ĠC are
ĠT y
Ġcomp ound
ĠTh omas
Ð ¸
Ġjust ify
j ack
auth ent
ve x
Ġun iqueness
IM O
ress ion
ĠĠĠĠĠĠĠĠĠĠĠĠĠĠĠĠ ĠĠ
Ġdeclare s
Async Task
! `
L uc
Ġf re
ĠSc ott
optim ization
ĠInput Stream
ĠSte p
++ ;
Ġbiz arre
F ill
Ġin secure
cat alog
Ġserial izer
ĠR azor
Ġsub queries
Re al
Method s
Ġsmooth ly
W IN
Ġ9 5
Ġaggreg ation
j ames
ab ove
unt il
Ġman ufact
Ġrecommend ing
T ip
Ġs sl
po licy
Ġgraph ical
sign al
ĠM P
ra ham
Ġdev ise
INF O
Ġim o
Ġcover ing
Ġb ank
Ġre pos
Ġun handled
ĠL uck
" ..
Ar r
Des c
fam ily
edit able
Ġview Controller
" ](
S cale
s ig
Ġph ilosoph
C a
Ġ[ *
Ġback bone
Ġtra versal
Ġpreced ing
k w
ĠQ ueue
prec ation
LE ASE
Ġjav ac
Ġun answered
exec ution
Multi ple
L C
har per
Ġsole ly
Ġcontr ast
R od
Ġc rop
ĠG AC
Ġra ising
ĠRewrite Cond
Ġsymbol ic
n odes
Ġprov en
Ġchall eng
f air
Ġi var
Ġcoll apse
ic ed
ĠF eb
ĠGem file
ĠUn known
ile y
Ġoffer ing
Ġadv oc
Ġviol ate
cre t
Se quence
IG N
us ively
th ew
post roph
ĠM et
Ġset Interval
av in
ĠMulti ple
Ġpress es
c sharp
ro c
ĠG ithub
p aul
Ġex cluded
ĠD AL
ons Ware
EB UG
P ublic
r as
Ġrespond ed
Bar mar
f usion
(' <
mod ify
c ost
Ġsl iding
Current ly
Ġw ind
Ġforward ing
Ġsched uling
Ġreg ener
Ġ{ '
cu it
ri age
ag ged
Ġchar ge
Ġem p
str ange
Ġultim ate
Ġr m
Ġbe autifully
33 7
ed ge
yn ct
exception s
Ġclon ing
Ġincon ven
Ġh ung
cript or
arch ives
ĠEd ition
value Of
trans late
ĠWhen ever
RE F
H en
off icial
ĠP at
Ġdefe ats
g wt
Ġplace holders
compat ibility
3 50
e al
google apis
Thank you
ĠUI WebView
text box
Bar Controller
ĠC lean
Set up
Ġw sdl
ĠG alaxy
Ġalloc ator
Ġconfirm ing
ag on
Ġlarge ly
ĠI gn
ĠF WIW
ĠR OW
ame l
Ġsuper fl
M F
ane ous
Ġdecre ment
Ġac ade
r arily
s aved
Gener al
M vc
Ġback ed
(" <
ĠO ct
az z
ĠRE AD
Kerrek SB
Ġpseud ocode
Ġcomplic ate
ĠMin GW
W AYS
Ġbit maps
Sp ring
s ound
Ġm ong
Ġ: \
ĠAct iv
With Format
Ġgo als
y er
Ġs en
16 5
S UM
Ġreal y
Ġsucceed s
Ġincl usion
L ar
P aint
ĠF ailed
Ġx xx
fam iliar
Ġcon junction
ĠUI Button
F antastic
20 5
sch em
ĠA llow
ĠS ize
Object Context
Ġcompar able
Ġr ub
Ġuser id
ĠReg ister
ĠF actory
con current
ĠIE EE
Application Context
ob viously
[] ,
Ġ ing
W W
w cf
ĠG rails
view er
ĠEx cellent
ĠU pload
cu be
m atic
tr and
Ġ# <
Child ren
k g
m ike
Ġinitial ised
as soc
y ahoo
Ġ= (
D LL
h ook
dat at
ass andra
Ġa rise
ed ay
Ġlong itude
Ġred esign
_ -
Ġp edantic
); `,
+ ,
F ALSE
Ġcost ly
s il
ing ers
Ġy o
28 9
Ġpain ting
d j
Ġp ad
Ġval grind
ĠDo ctrine
es ian
se lenium
Ġint ro
Ġsm arter
bit map
ĠRe al
Ġreload ed
respons ive
/ :
ari us
Ġconsum ed
ĠRec ord
3 54
Ġen s
99 7
ng th
> ";
D AT
p ow
ĠJ Unit
Ġbo ilerplate
Ġaff ord
ĠI V
Ġpro hib
un load
Reference Exception
S ay
ch emy
Lo gger
Del ay
G C
y ield
x sd
ac ont
Ġserial izable
Ġhor ribly
ĠR oot
ĠApp s
transp arent
Ġa postroph
an notation
Ġtri p
Alex ander
T utorial
ĠP op
Ġt icks
ĠClo jure
m aint
de precated
Pl atform
L OL
Data Table
col on
ĠDep ends
P N
it a
Ġinter fer
defin ition
Resol ver
P ref
ĠR ep
C lean
D arin
G reen
e or
Ġth nx
P ORT
i ance
Ġess ence
* ](
Ġan n
Ġto ward
Ġ- (
6 86
Ġenclo sed
Ġ" &
Ġanch ors
Ġfancy box
T ube
Ġmod ular
IG HT
23 0
Ġresult set
Ġre pro
Ġsh uffle
my app
yy y
un ion
Ġal bum
Ġ3 4
Ġund es
[ `
Ġto ler
as cii
Ġlo ses
Th ing
Ġso cial
i ar
ĠS B
ĠT erm
Ġspecif ier
jav ac
prov ided
/ -
Z ero
g db
ist ing
Ġle ap
pr agma
G S
as ax
B as
rl en
IS AM
Ġphys ically
comple tion
Ġproced ural
Ġrec y
ĠPack age
ĠS um
Ġview controller
Ed iting
Ġif rames
Ġmis interpre
Ġfigure s
Ġsw apped
Ġvary ing
Ġm ongodb
15 8
Ġweight s
ĠLD AP
Ġd ual
Ġr ation
Ġup voting
| \
Ġm k
log o
Ġcontin uing
ĠNS MutableArray
h our
Re quired
j j
Ġstud ying
enum er
u it
36 5
Ġin n
hh hh
L aw
b ling
alcul ate
Ġnormal ize
Stack Trace
r ish
ly ph
ĠN avigation
Ġtri ple
u ct
ol id
Ġhead aches
DO CTYPE
P olicy
ï ¼
Ġl value
ce ze
Ġbad ge
O ffice
Ġpro s
V o
ĠN ames
ĠG roovy
Ġdiv iding
Ġexper ts
Ġsuper user
Fl ags
Ġextern ally
ampa ign
ident ifier
Ġpro portion
'] .
press ive
Ġ\ "
sq rt
(); `.
E v
Ġab brevi
row der
Ġcompl aint
ĠAd apter
Ġres ide
Ġ% @
BO OL
D ennis
14 8
server fault
Ġhar sh
Ġcon n
Sh ift
ur k
pect ed
Ġfrequ ent
D i
ere k
jav adoc
: `.
Ġ6 5
Z end
Ġso ph
Q M
Ä ±
L ower
P K
mag ento
F eature
Ġf n
Ġe h
Ġcons ensus
st h
ĠD el
Ġtim eline
Ġms dn
Ġbund led
ant om
ĠDevelo pment
in ser
Ġh al
ĠT ortoise
sc al
Ġstum bled
cake php
or ary
Ġinner HTML
ĠD ifferent
ĠCPU s
D erived
action s
Al ready
Ġfind ViewById
Point y
build ing
V in
iz et
00 000
Ġsyml ink
F acebook
Ġa in
Ġd in
ĠA IR
ĠSw itch
ur b
Ġ} )
Ġtermin ation
d up
problem s
Ġme ets
Ġsingleton s
H z
Ġd ensity
Ġinv ari
ĠDet ails
ri el
Ġartif acts
V AR
Car l
P ages
Ġd ies
Ġis set
Ġk idding
Ġrecord ed
pd b
Ġinterf ere
m vn
324 54
Ġinter sect
Ġinvestig ation
Ġanc ient
st ri
Ġse ll
ĠJ av
itect ure
Ġscore s
U h
Ġsyntact ically
sn ipp
ĠFound ation
ĠMake file
N OW
ĠBe ing
rece ive
d irection
00 2
ĠG DI
32 9
DE BUG
Ġremain der
Ġincre ments
inst ant
Ġpuzz le
Ġpull s
b usiness
Ġex pon
agg reg
Rob in
= -
work ed
Fire fox
e lem
put s
S uch
Ign iter
Ġunre liable
S core
ĠD u
User name
Per formance
. [
Ġtr aces
ĠL ion
H OST
ord an
Ġsc rolled
pro d
Ġblind ly
! /
have yout
R oman
Ex change
IM ARY
Ġvirtual env
Ġhex adecimal
Ġy up
um an
end ors
DEL ETE
Reg ular
Gu y
Ġex poses
ĠTo ast
haveyout ried
In ner
Ġdec imals
plic ated
format ting
S Y
ĠL i
Ġmal formed
( ..
Ġchoo ses
t urn
Ġi am
Ġ' "
Ġ' _
und ay
Ġfinding s
du ino
Int roduction
activ ate
st l
Ġsn iff
ea per
w al
ĠCom boBox
sc ipy
ĠT IME
at ial
en ed
17 32454
Ġdeal t
numer ator
doc uments
im er
Ġinst rument
Ġ`@ `
Ġfo pen
m ock
en eo
Ġst aging
Ġrel ating
Ġdiv ided
Data Context
reg ion
Ġplot ting
And rey
ĠPro gress
DO C
ĠMe aning
Ġon Resume
N icol
Ġsu ms
pag ation
ĠParam eter
Ġsuperfl uous
ĠD EBUG
Try ing
Ġtransfer red
v ision
code igniter
R ather
Ġp icks
B el
F usion
H I
Ref resh
ra zy
Ġincl ined
m id
istic ated
ĠException s
Ġg enuine
ĠTh ings
oc os
f ol
Ġb at
Ġnormal ization
D U
Ġ 000
o i
ĠS ample
Not ice
get line
sc r
ĠEC MA
Ġsquare s
Ġcont rolling
cre d
Read ing
Ġtransform s
3 12
Ġi ron
ere ad
Ġte ams
Ġcompar ator
ynct ask
Ġinit iate
ĠUI Label
Ġfeed s
Ġtalk ed
Ġnavig ating
en a
Ġ^ _^
Ġr value
ĠM atch
over view
own er
32 1
ge bra
mo z
Ġincorp or
Ġun com
\ `
Ġst derr
m ce
ro gate
Sure ly
ĠNS Dictionary
M ik
); `?
man ifest
Ġinterpre ting
TE ST
Ġ`. /
80 6
test ed
ĠPut ting
_ %
s cre
Ġdraw s
CE PT
po ch
om y
se ll
Ġun familiar
pro cedure
Lu ke
cri be
google code
Ġpay pal
Ġ`: )`
Ġob lig
Per mission
Ġpre served
ET IME
Ġclon ed
26 5
ĠPay Pal
ĠRun nable
Ġdec iding
Ġ4 03
leg ant
Ġworth while
sub process
He h
WP F
ĠS DL
ĠM PI
con version
ver b
Ġpenal ty
d ash
d rupal
ĠH onestly
Ġparadig m
Ġ( =
Ġgener ators
what haveyoutried
ĠCl oud
8 000
l g
ar ks
String Builder
Ġpe er
D om
33 33
Ġscan f
Mod ified
f i
Ġgr ails
Web Request
Kon rad
ĠU SER
Ġconvol uted
Ġac quire
E JP
Ġs weet
ĠD iv
Ġb irth
ĠĠĠĠĠĠĠĠĠĠĠĠĠĠĠĠ ĠĠĠĠĠ
N N
th ose
ĠJ im
Ġcircum vent
Ġtroubleshoot ing
H over
N ormal
Ġbenef icial
ĠB ill
Ġ1 234
RE CT
and an
L ol
T ech
Ġw ave
ĠR T
Ġviol ates
Serial izable
getElementsBy TagName
inter val
implement ing
option al
ï¿½ ï¿½
lo gger
ĠJ ason
I llegal
Ġr ing
Ġ** [
Model s
Ġget View
pe ar
Ġ~ /.
Rewrite Rule
Y e
Ġdel ta
Ġdemonstr ated
Ġimply ing
X P
de b
Ġkey st
25 4
Ġarbit rarily
Ġconcaten ated
B oltClock
()` )
Ġoff ending
Table ViewController
Ġp al
ĠData Source
Ġdeep ly
3 16
ĠB EFORE
vis ibility
: -)
Ġst rlen
ĠS amsung
su fficient
( `
ĠI oC
ge o
29 7
ĠNu Get
w on
correct ly
ater ial
Ġr apid
ĠP resumably
B reak
t ex
ll i
ust in
Ġfir m
ĠDes ktop
ĠRef lection
ĠCake PHP
: $
Ġstart Activity
Ġscop ing
t v
Ġend less
Ġconsider ably
Ġ`$ ("
p st
Ġseem ingly
Ġscal es
Ġforb idden
T erm
Ġm b
Ġsh op
ab i
al igned
Project s
ver sing
OC K
ĠDR Y
Ġbr idge
Ġ! ==
im ents
Press ed
Ġmodul o
Ġpush es
ĠTH IS
ĠRem ote
calcul ate
Ġsc ience
Ġbind s
Ġadapt ed
ĠM c
es is
Ġ1 80
Ġmess aging
Ġport al
Ġdig est
YY YY
am per
path s
Ġ" ."
Com ponents
ĠAl ert
/ \
ĠV ideo
' ...
Ġun supported
Wh oops
D oug
Ġrepe ats
L F
Ġg g
ud son
Ġsm tp
Ġt b
Ġg c
ĠAut om
O ld
Ġsemicol ons
3 57
ad vanced
Ġdis like
Ġfail ures
RI PT
synchron ized
pl z
Ġha v
ĠR TF
reg ard
c rypto
oper ation
Ġr er
ĠF L
List Box
dri ven
c ad
it ivity
Ġpr ices
Ġexp ires
Ġschem as
w ild
M akes
orient ation
ig en
C al
D og
ur sion
part s
S ense
re nd
tr usive
start ing
dist inct
Ġachie ving
M obile
Ġ3 01
24 9
j p
A UT
ĠR et
3 87
tr aining
Ġun ordered
32 6
Ġm il
et ing
lo ss
Po ly
3 17
E rik
Ġc alc
ĠS pe
Ġwr it
Ġcr ack
24 8
ipp ert
ĠTem p
Ġs ms
Ġoff sets
Ġpack aged
st ation
Ġl ately
Ġalloc ates
ĠRelative Layout
br id
br and
Ġconfigur able
it z
ĠD ebian
separ ated
/ ...
] }
Ġu pto
ire shark
g io
ock ets
Ġlaunch es
phone gap
Th eme
com bin
ion ed
Ġass ure
i ers
ro v
Ġat tract
Ġdown voter
Ġintr ins
im ap
Ġus ability
NS URL
b org
ĠS ER
ĠB el
Ġrepresent ations
assign ment
Ġ" {
Ġhe urist
Ġexpect ations
Ġanim ating
cf g
ear ning
capt ure
Ġf aces
(); "
Ġmultith readed
ĠLL VM
Recogn izer
ach able
ph otos
post ed
Ġtrack ed
Sol ution
Ġv m
M ask
user id
/ %
Ġd bo
ĠC ertainly
Ġpit fall
e lect
pri v
Ġ7 5
M uch
Ġd im
Ġun recognized
ĠB ash
Ġerr one
T rigger
ĠM ine
js perf
Names pace
ĠC D
Ġcre ator
Int egr
Exec utor
exist ent
p is
ĠI List
E ffect
th ird
ont ab
ph i
sh ar
ĠSh ort
> =
Per l
= ="
cho ice
Instance State
IN D
t icket
u y
Ġrecommend s
ĠSm ith
Ġc e
Ġun specified
Sh ape
ĠN ative
27 7
/ {
od o
Ġun predict
angu ages
le w
Ġpart ly
hom ework
d iag
Ġmouse over
l on
ig o
Ġstyles heets
bel ie
ĠRed irect
Ñ Ĥ
Ġtr ain
ĠSm all
Ġbare ly
ĠR O
aw az
34 7
met adata
S on
ann y
F eed
Ġarg uing
" ],
39 7
ĠL ive
==== ====
n eo
Ġre consider
ĠA DT
ĠEX ACT
Ġapprox imation
k ov
We ird
Ob server
ĠCH AR
P red
S an
Ġiter ates
Ġtransl ates
Ġsan ity
ĠR ect
j i
Ġpl ots
Ġ` "`
inter net
ĠReg ular
: ]
Ġ3 20
Sh ah
as set
not ification
ĠEnt ities
I de
Ġdro ps
Te am
pract ical
C SV
un able
Ġkey press
Ġcatch es
ĠIDE s
j ls
u ple
works pace
32 5
Orig in
L IMIT
Ġc p
Ġh older
comm un
Ġunt r
cer pt
R og
Ġint act
Ġbehavi ors
ĠK B
26 7
part ic
Att ach
ĠHash Set
Ġ` >`
F urther
Ġsp elled
ser ies
fin ite
ip h
Ph oto
Ġjq Grid
ĠEx change
Ġdifficult ies
3 99
Ġthumbn ails
c amera
w amp
ĠSo ftware
Ġdiscussion s
F ault
Ġgre edy
autom atically
$ `
c use
e in
ff ler
J ul
t oday
ĠCom plete
Ġdraw back
Ġ` \\
up d
Sim ply
Ġoff ense
Load ed
Ġflat ten
B E
ĠM ult
Ġdetermin istic
Ġun available
Ġvalid ity
Ġadjust ing
Ġdump ing
n ail
Ġdescription s
ĠSu gg
Ġcompil able
n ecess
ĠTo String
Ġmaintain ability
D ont
F R
f uture
is able
iz r
Ġ3 000
Comp at
Ġlaunch er
g ons
Ġt ar
Ġnet works
cont ain
ĠWH Y
Ġh on
Ġzero es
upload ed
Ġvulner ability
st ra
ĠF ast
Ġpo pover
ĠC ORS
Ġiss ued
Sh er
r um
Ġst h
ĠF atal
programm atically
ĠSh ell
ĠData GridView
Ġhack ed
Ġanalog y
Ġens uring
Ġm esh
ust ry
sw f
own ed
ing o
ST AT
prec ision
Ġmultip lying
man agement
Ġkill s
Ġorgan ize
ĠMer curial
Ġj pg
ĠS SE
ĠC ard
30 8
Ġperiod s
n k
x p
ĠDB A
J oseph
I QUE
Ġ0 9
ĠA F
um eric
ard on
ick r
ĠIn spect
Wh atever
Ġbar rier
M K
Ġport ing
a per
le ans
80 7
Ġdec oded
gener ator
ĠCR UD
h en
t pl
feed back
A c
dis k
Pop up
ĠGu id
S wing
EN V
w ood
ĠH o
Ġsp are
Ġpl anned
Ġopen cv
Ġbother ing
Ġinv oice
Felix K
R agh
En code
B illy
V ICE
te e
Ġreal istic
ha us
sk ip
f re
Ġs ig
Ġexpand s
m ah
man n
Ġtransform ed
F ailed
u pper
Ġserver side
). "
ari an
NS MutableArray
Ġconfir ms
Ġlink age
So ftware
Ġp thread
Ġch eaper
Ġheight s
spr intf
Ġinaccur ate
Ġsoph isticated
N ING
b link
ĠH or
Net working
equ ivalent
ĠE asy
T ri
ĠC ursor
R ud
x c
Ġxsl t
Ġip ad
ĠRo bert
B in
P ete
Ġ ri
Ġad ress
Ġfrag ile
Ġaccess ibility
cp an
Ġorgan ized
O ded
ot ers
ĠP ID
Ġgot cha
Ġdemonstr ation
pattern s
Init ialize
e er
Ġb ought
se cret
0 86
ing h
Seb astian
ol is
G ri
et ype
Ġqu er
Ġ4 4
24 4
ĠQu ite
W AR
m icro
ĠB undle
ĠĠĠĠĠĠĠĠĠĠĠĠĠĠĠĠ ĠĠĠĠĠĠĠĠĠĠĠĠ
ĠCont ainer
l ename
64 4
ĠU R
Ġtag ging
23 9
ĠInt egr
p eter
.. !
Ġrefer ing
Ġ% >`
Ġperman ently
Ġmem cpy
Ġthank you
iter ate
29 5
b ow
x ib
develo p
Mag ick
py pi
ST L
R ah
avig ate
Ġrev is
had oop
') );
we aver
Ġkey store
help ful
ĠNS Data
Layout Params
state ments
* '
ud os
Ġaf aik
Ġac ces
under standing
Ġdrag ged
get Name
Ġtransform ations
Ġdescript ors
ĠM sg
Ġmon key
Ġaw ait
Ġsens or
a way
32 8
y d
3 10
Ne ither
E s
ĠThe ir
Ġfl uent
images hack
ĠP assword
33 5
VER SION
^ (
s ized
Ġas m
Ġac comm
Ġlook ahead
N avigation
IN K
ĠW ay
AB ASE
[ -
Ġpo pping
F ail
Ġ} ;`
ĠID isposable
Ġc ities
Ex port
ut ch
ave ll
Ġvalid ates
Ġoper ates
Al an
Ġexp iration
28 7
single ton
: @
k u
ĠA UT
To Array
Ġbound ing
web view
ĠBe an
' \
flo or
d im
00 5
Ġ< --
ĠSim ulator
Ġretrie val
ĠHttp Context
Ġmot ivation
Ġ"/ "
Ġsc ient
not ice
Ġend points
B atch
ĠMS I
64 6
und ers
Ġ`' \
H enk
Ġexpect ation
Mark o
ĠAP K
CON T
ĠSimilar ly
f ac
w elcome
st on
hope fully
NE W
B us
Ġ` ||
Ġr s
q a
th nx
> \
ĠA WS
ĠN V
record s
m es
ic ast
Res p
Ġscal able
Co ll
`. `
Ġdimension al
App end
ĠAl most
k le
sol r
59 7
64 0
clo sing
Ġpatch es
Ġdiscard ed
Ġmigr ated
Ġtack le
M eta
Un able
claim er
b ounds
Ġex ponent
ĠP OD
Ġrefresh es
pointer s
User Name
Ġb og
Ġfunction ing
Ġphp info
edu ce
Ġbund les
Artic le
Ġmag ento
) ",
o e
pl aced
ĠH ey
ĠH OW
an imated
Ġpl u
ST ATE
Pi eters
rocess ing
Ġserver fault
Bo ard
mag azine
Im g
Ġlib c
Ġannot ated
Ġsub directory
S ound
Ġin appropriate
567 89
Dam ien
Ġexecut ables
ĠPl atform
Ġescap es
Ġlicen sing
Ġb right
Ġim per
Ġcommand line
Call ing
p ause
Ġful fill
ĠL ucene
Ex ists
ag ram
Ġle ct
Ġinitial ise
bre aks
k ia
u ase
Id s
Ġdeliber ately
D ead
ĠI Queryable
Ġdisadvant age
Ġunivers ity
P an
o ct
ĠPh il
Ġindirect ly
Ġc ow
On ClickListener
Bar Button
Ġchecks um
A lf
J ens
ĠPro vider
rout es
w b
ot ify
Ġ{ }`
Some one
Ġtimeout s
Ġconsequ ences
FelixK ling
Ġch mod
26 0
M ovie
r ank
le ton
ĠMessage Box
Ġown s
ci ence
ĠClass es
Ġat om
33 9
Ġaddition ally
Ġprivile ge
M i
ĠC Make
Ġle af
Ġcol ours
pro ve
Ġ{ $
col lect
Ġrevision s
ĠH ot
ĠR SA
ol ph
Ġrepe ater
Valid ate
Ġgr and
co very
K or
Ġind irection
Ġclean est
ĠT EXT
Ġ0 2
click ed
87 6
Ġrecre ating
Ġdefin ite
DO W
AS H
Ġdatat ypes
Ġconstr ained
un o
Sch ed
Josh ua
Ah hh
F OR
++ -
57 6
ĠIDE A
Ġ velocity
key up
c are
c ases
CL ASS
Ġwp f
ak y
ĠX OR
Ġstate less
Ġmult idimensional
Ġanc estor
ĠI OS
Ġsc ra
PL IC
S ON
ĠB B
ĠB usiness
Ġcut ting
ĠLink ed
3 18
< -
Ġin lining
Ġout let
Ġtransl ating
Ġprompt ed
'] );
H appy
view DidLoad
17 32
Ġphys ics
Serial ization
Ġst ale
ph r
sum mary
Ġconnect ivity
Ġconcept ually
Ġb urn
par allel
AT CH
Ser ies
Ġd int
um es
ack et
ĠU P
ell y
22 2
Ext ensions
Head ers
in heritance
Ġprov es
Ġhash map
P AR
ĠX NA
foo bar
Ġax es
Ġs its
at im
50 4
Single ton
et ween
Ġmim ic
r own
Ġc rystal
N K
c ue
27 0
ĠAS C
rd ad
Joh annes
} );`
get Class
S oup
Ġof course
In formation
26 2
some one
ĠIn ternal
ĠX HR
Ġappro ve
neg ative
Line arLayout
Ġsy mfony
match ing
ivers al
Ġc c
ac o
Martijn Pieters
e ly
h ours
Ġs at
get Instance
Ġmin i
ĠOb servableCollection
ĠGoog ling
C amera
G UI
g ent
Ġ` '`
qu ality
pre d
Ġimport ance
mit ry
termin ated
Res et
om eter
Ġ[ -
fore ign
88 8
Ġalias ing
23 6
rev ision
R GB
Ġ ou
Ġc aps
Ġsol r
ĠN or
80 9
Al ternatively
return ing
Ġalternative ly
s ending
ve c
36 7
lear ning
D y
ĠG mail
29 6
Ġgl itch
O dd
Ġacade mic
ĠT ables
List Item
Ġskip s
S UB
ks h
ĠIB Outlet
Ġslo ppy
Ġview Did
5 235
Ber gi
Ġtempt ed
H onestly
Ġi Frame
In side
Ġtab ular
Ġ% %
de ad
## ##
Ġexcl usively
Ġw cf
ĠIn voke
ĠApp Domain
Ġfoc using
Shar per
ĠĠĠĠĠĠĠĠĠĠĠĠĠĠĠĠ ĠĠĠ
60 7
* `.
art if
as ource
ular ly
Ġscrollbar s
ĠT echnically
ĠCorrect ed
S dk
i ating
Man agement
ĠU AC
Ġun i
ĠAL WAYS
Ġprovision ing
+ =
se to
Ġimage View
eo f
ĠRead er
Ġmed ium
ĠCollection s
3 89
ac on
Ġgu est
] ['
` ..
Ġpo pped
UM ENT
Ġinteract ing
T asks
] \
m il
ĠG HC
Ġla id
Ġ`^ `
ĠE g
yp ing
Ġflo or
/ <
ob trusive
ĠData Set
h el
k og
in et
fl ags
yp ic
Ġban ner
ĠPOC O
C op
} \
AN Y
ĠComp any
br ains
Ġexceed s
Ġavail ability
Ġgo ld
ĠSch eme
3 13
Ġex em
ĠK evin
Ġimpro per
mem cpy
R R
ĠT OP
Main Activity
Ġzoom ing
Ġmyst ery
Ġguess es
Do ing
Ġocc ure
A k
%@ ",
Ġmess es
op ard
web logs
ot iri
J am
MySQL i
Ġprodu cer
ĠRE ALLY
Ġpredict able
Ġration ale
ĠI ND
qu oted
Ġ( <
f y
comm erce
ĠPro filer
open gl
Ġencounter ing
ant ly
Cast Exception
and rew
Ġaud ience
uro pe
h oc
ĠMat rix
Ġho les
Ġt ink
ate l
) ->
ĠA DD
As k
t cp
ĠK en
Ġlength y
mail er
Ġreinvent ing
Ġal beit
ĠAny how
ĠRed is
Ġrebuild ing
Ġdestruct ors
X code
Ġparse Int
T urns
i el
Buffer ed
ab h
ex plorer
Ġa while
ĠN obody
Ġmon ad
bash rc
ĠA WT
ap ro
] ];
Ġadmin istr
Ġcontin ued
ro kes
ly n
implement ed
Ent ities
Ġintr anet
we ird
Ġ0 8
29 0
hor se
schem as
H S
Ġversion ing
24 2
aus ible
D uck
iv iew
ĠPhone Gap
Comm onsWare
: <
ĠI ron
Ġo auth
inter active
Wr ong
Ġaim ing
J s
get Time
ourn al
Ġn ec
D ark
Ġinter change
Ġproduct ive
ĠFire Fox
Index Path
Ġn uts
)) {
Button s
re view
Ġd rupal
velo pe
Ġfault y
Ġimp erson
ll o
Ġanaly tics
font s
ell a
26 6
Gu id
Part ial
? ..
past ie
ĠJ ar
Pro pagation
B order
ous ed
Ġconnect or
Ġrev ise
C or
(" \
OR Y
ĠZ F
Ġu id
ĠA RE
Ġequ ations
Ġinspect ing
Ġmeasure ment
Am ount
C art
l r
36 9
Roh it
Ġmean while
az ure
f gets
ĠD ont
ows ki
Ġclean ly
Ġaddition s
Count ry
S ty
ĠT el
VER T
Ġsm o
otiri os
ĠA C
li pp
Ġacc ordion
Ġplain text
Ġtypec ast
> ...
J O
v ially
ac io
Ġ( /
ĠJ s
Te X
Ġasc ending
h pp
ut down
Ġsl ots
Ġq t
Ġpuzz led
Ġex cluding
Ġv endors
64 8
Ġcar s
ic orn
pe lling
Ġcall able
Ġcounter s
cr ash
del nan
Ġshad ers
ĠGener ic
st it
Ġport ions
Ġ`( (
Ġanaly zer
Ġcode igniter
ĠMan ifest
Ġbench marking
Ġexha ust
29 4
iden ote
Ġphp MyAdmin
Add itionally
ĠPer mission
B IT
M itch
Ġ`< `
function al
28 4
DI STINCT
Ġpro ved
ĠT esting
04 8
ĠSub version
author ized
C RE
Ġt ax
Ġh uh
3 11
L IKE
Ġpool ing
ĠUITableView Cell
et ical
Ġconc ent
ict or
Spec ial
C PU
Text ure
Ġfetch es
Ġcra ppy
Ġfac ility
Ġj ail
Ġwork able
All oc
Ġfrustr ated
Ġre define
G ray
ĠI Notify
Ġcapt ures
K yle
ĠS plit
Ġut ter
Ġpl ural
Ant on
... ,
Ġcommun icating
Matth ieu
syn thes
26 9
Ġassert ions
n pm
ew are
ĠEm ber
66 6
Ġredu ction
" =>"
L INQ
n ks
ĠAB C
h il
Ġ{ ...}
Ġ`- `
Ġcolle ague
aby tes
ĠC old
comp ilation
P reference
c ocoa
Ġre bo
Ġch ip
lo ve
ĠO C
Ġbl uetooth
Check Box
Ġsucc inct
W D
ĠMS Build
re name
ĠTh ing
az e
Ġcommon s
Ġcalcul ates
Ġpriv acy
F lex
^ \
er ialize
Ġb ed
amb iguous
Ġdeli very
Ġgate way
Ġd ram
U i
Ġsty led
beh avior
Ax is
ĠG rad
Ġmem o
max imum
Ð¾ Ð
con cept
Ġtrans mit
B ur
Ġ` ::
the ir
H istory
L earn
m ix
ĠD ay
ĠL ess
std io
tin ypic
P ascal
m pl
Ġas y
ĠVB Script
depend s
am arin
lo gged
ap art
ha i
spring source
t z
Ġ= "
M ODE
le ased
Ġmy SQL
ss ql
Ġun common
Ġreg ression
Ġgrace fully
> >`
Mis sing
Ġst acks
ch r
orre ction
Cha os
3 19
j d
light ly
bas ics
sol id
at i
de ceze
Ġma pper
Loc ale
an im
UI Application
Ġder iv
v endor
Ġ.. /
] =>
Tr ansp
fil ters
on Click
Ġpers ons
sch ool
; ;
? :
ĠS n
** :
optim al
D ebu
ĠF older
To ggle
session s
Ġarg v
54 6
past ing
Ġmeasure s
Stack Overflow
ĠJon athan
kog iri
B R
pre fer
ateg ies
Ġcomprom ise
Ġwh om
Ġdash board
Ġin ference
Ġbox ing
um bo
37 4
ĠNE W
pi pe
........ ........
ĠRe pository
J ess
ĠB o
ĠAnd re
Ser ge
28 8
Ġdrag gable
Ġedit text
Ġhist ogram
Ġsh ipping
Ġde fer
Ġcolle ge
Ġinvent ed
mov ie
ĠT DD
80 4
Reg ion
m ell
Ġ0 3
P ra
n r
Ġd ialect
Ġtool box
list en
avig ator
Ġb ite
Ġapp les
Ġadd Subview
cl ing
ĠR VM
version s
ĠEvent s
Ġacceler ation
Ġswe ar
@ @
Ġa ka
Ġst amp
Ġmer ges
TR A
Ġstri pping
Ġcode c
pk g
Ġderefer encing
ĠIm ages
Ġhist orical
straint s
Ġunpredict able
om b
eter mine
Ġdoll ar
it ec
Ġ} }
Ġcar riage
navigation Controller
F E
ent ire
Ġg roovy
Ġor th
sh ape
Ġmem cached
ass igned
Dep endency
B A
S HA
01 7
Ġfl av
alloc ated
id x
d x
Ġst aff
N V
ĠD river
ub h
du de
Ġmem cache
Ġun load
Ġprogramm atic
S eth
S canner
Ñ Ģ
it on
Ġfull screen
st age
and as
sl ug
ur a
Ġcomp osed
64 5
ĠApp Delegate
co z
aff old
âĢĿ .
: %
m art
Ġp owers
ag ar
P ot
Ġb ump
ĠD ATA
set Attribute
ĠWhat s
ĠSt rict
EC K
ĠQ A
; }`
Ġn ailed
Ġar ises
ad eneo
grad le
S ync
Ġun declared
an while
Ġ( _
b les
Pre view
ĠStr uts
L ater
M em
Ġclar ifies
Ġfr ankly
0000 000
unk y
L azy
s igh
Ġh ero
33 6
Ġconcept ual
ĠL AN
Ġinstance of
Ġcomput ations
serial ization
n es
ĠC OL
iven ess
Ġsub str
T Y
use ful
Âł Âł
ĠRe ce
89 6
arn ert
c ookies
Ġco cos
Ġse am
Ġpoly nomial
YTH ON
Ġx ls
Ġ** `
icks ort
Ġhy phen
Ġdo jo
ust y
Ġab s
ph inx
24 6
27 5
ĠRes ources
like ly
Ġbranch ing
Ġdesc ending
Ġreinstall ing
Ġsubrout ine
Ġ... ,
List s
most ly
Th an
po ser
Ġflaw lessly
liter al
/ (
Ġdefin ately
Kevin B
h p
cl i
Sh e
F un
G Man
N awaz
S un
e gers
ĠA MD
he he
them es
B U
al R
ĠS IM
54 9
MS DN
Ġinfin ity
Ġphr ased
Ġn u
ĠC ulture
ud dy
Ġlocal ization
ero en
Ġappend s
Ġyou re
Ġ' ',
bel ongs
Ġsubt raction
am ir
cl icking
23 05
37 9
Ġsk etch
Ġsing ular
C md
ff mpeg
cast s
J ar
Ġd umps
Ġwr itable
28 6
Ġsam pling
P aste
h et
r us
Ġverb atim
Ġhur ry
Ġsh a
ĠR ole
ĠSt orage
ĠCom puter
Collection View
sort ing
Ġdropdown list
M essages
de cor
spec ifically
Ġgg plot
ich olas
Ġcustom ization
ren ce
LO G
m ess
Ġv oice
ĠMY SQL
F riend
an za
ĠR yan
ĠInit ial
24 5
mon o
Ġc ents
ĠYOU R
ĠVari able
a iting
Ġiter able
Ġ`$ {
Order By
mouse over
Ġan w
Ġretrie ves
Any thing
Ġtri angles
thing s
Ġhe aps
50 5
De ep
ani um
Ġelimin ated
85 8
Selected Item
& #
L INE
Ġj peg
ur able
ĠW on
Su pp
Ġ~ /
Conf lict
Ġstre ngth
D M
Ġun installed
Ġcalcul ator
ĠCon struct
Ġhover ing
Ġfidd ling
G eo
Ġle verage
ĠAction Bar
Ġdis cre
80 8
34 9
Ġcell ForRowAtIndexPath
Ġmet rics
AMP P
? >
z Craig
Ġn varchar
Ġlocal Storage
lab s
check out
m ount
Ġi Text
Ġ` ()`
em ployee
Ġ' [
A JAX
Ġun limited
`, `
Ġpack ed
Ġsibling s
h w
Ġcorre lation
ĠPl ace
< >`
Ġw ins
Ġd itch
Ġpack aging
Vis ibility
Ġcompo ser
ĠL oop
c uda
Ġc ited
Ġon change
ment ioned
bel ow
Ġmid night
ret t
cs html
ĠM IN
con verting
Ġsanit ize
L A
ĠMy sql
64 9
Ġfree ly
R ocket
ĠC ap
ĠM achine
Ġset ContentView
54 7
del imit
M ed
s aving
Ġp ity
Ġan tic
ĠPro xy
Ġexpert ise
R ate
] );`
Ġcon clude
Ġfit ting
Ġtw eet
place holder
ree ze
draw ing
Ġabandon ed
fol io
ĠId entity
ĠQu estions
L ars
s ibling
Ã §
Ġre ck
ĠLe ft
Ġdispatch er
Ġm v
Ġco pe
ide a
Ġden y
std lib
Ġverify ing
ĠTerm inal
l ittle
Ġgu ides
25 8
09 6
Un defined
ĠYou Tube
Ġgr an
56 8
show ing
integr ation
W eek
em es
ore m
Read y
Ġjs f
N il
j w
ĠMy ISAM
Ġcharacter istics
Ġrecogn ition
upd ating
$ /
ist ically
34 6
pract ice
F ig
id ently
Ġintegr ating
r ÃŃ
Will iam
Ġmigr ating
Ġadequ ate
Ġsub folder
p n
al ph
end ian
off ee
Ġprotot ypes
Ġon Pause
20 2
Ġoverflow s
Ġprefix ed
37 0
Ġut ilities
Ġham mer
Ġf ood
ĠW ish
Ġup stream
cl ang
12 52
A LES
un safe
ĠL ater
Ġmult iline
Try Parse
friend s
Ġw get
Ġsc ary
Ġsq rt
B h
23 8
under stand
Ġrepet ition
en o
Ġmeasure ments
Ġtr acks
Ġn ail
Ġg rade
ĠC a
Hash Set
ĠCh inese
Gener ator
it ertools
ru p
Ġel apsed
Ġfr ustration
proper ly
s qu
ĠO dd
ĠN T
Ġun lock
Ġtext View
ear s
ploy ment
spec s
Ġauthor ized
UN ION
ĠChar les
Ġas ap
ĠM K
un andan
Ġ[ ...]
37 5
Ġ4 01
ĠN A
Ġpre par
mat plotlib
ĠSim on
ĠU INavigationController
`. )
ĠRA II
c ycle
ang led
c ron
Ġobject ForKey
Ġsmell s
Ġf ingers
ĠK ar
any way
36 6
initial ization
rl ang
call s
Ġfun ctor
Ġ@ @
Script s
34 4
ĠJan uary
27 6
Point s
Marc B
hak re
ĠB ETWEEN
Ġcopy right
re commend
Ex act
Ġincrement al
:// /
âĢ ĵ
sl ides
Ġflo ated
W OW
b ums
! ),
, .
F re
ik a
Ġdata Type
back bone
ĠFF T
Ġsuspic ion
Ġecho ed
Mad Programmer
Ġc ite
ĠO ften
56 9
Ġpl ausible
Ġbas es
RE ST
Ġtermin ator
ĠO wn
ĠG reg
Ġ`# `
ut ral
ĠP ER
ĠH aha
Ġprogramm ed
Ġmath s
Ġresolution s
K n
ĠC ause
Sm all
deploy ment
ex clude
33 3
er a
Ġi is
Con st
Kan ze
5 000
J acob
Ġc asc
Ġcan cell
ud d
Ġopen ssl
ĠNE VER
ch rist
ir cle
Ġsupp lying
Ġnever mind
time zone
As set
Ġscroll able
ĠCode Igniter
Ġsur v
d etermin
Ġbe aut
tiny url
T ell
if ty
ĠO LE
Ġcapt cha
D ays
ast ers
compl iant
Ġcluster ing
g eek
') [
att le
err no
Ġapprox imately
ĠArg ument
Ġexperi ences
Ġpret end
ar range
read only
ĠL ots
Ġevery day
code haus
comm ands
" /
Ġg un
ĠR PC
Ġrest ored
ĠEL SE
Ġt id
Ġfoot print
N ormally
x m
Ġw il
Ġre word
Ġj dbc
ĠU DF
Ġrele vance
Function s
% >
n ear
z ones
re present
29 8
p as
} )`
n m
aut ore
Ġpoly gons
Ġper tain
ID ENT
Trans fer
pand as
l if
ĠGener al
Ġshif ted
ĠTh ird
im s
Ġprevent ed
Ass ert
Ġqu iet
Ġpropag ate
M IT
Ġreset s
P ush
an u
Ġf s
rot ate
Ġt all
st ock
Ġdef eat
12 2
UT E
ĠL ib
Post ed
ĠAb solutely
F ish
ĠCh ecking
Ġsign ific
$ .
C ody
er g
Ġsc atter
Ġoutput ted
39 4
Ġli ber
ST EM
Ġautom ag
ĠSS RS
connect ed
. ",
th us
ĠU ID
Ġdes per
Ġobfusc ation
O leg
t ly
Ġal go
Ġrem inding
Ġextens ively
w c
Ġd elphi
al vik
un ting
pl acing
Ġmag ical
First Name
k al
ens es
Ġinsight s
Rad io
ĠV CL
ĠEnc oding
Ġcurs ors
E V
Ġli ving
Ġcorp orate
ir ty
ever se
view controller
Ġhighlight s
Ġ`% `
mig rate
v ated
Ġre action
LIB R
ab a
gg led
permission s
wh ole
Ġmat plotlib
Ġ7 77
Ġboo leans
Light ness
ern and
36 8
Interface Orientation
retrie ve
Ġaccomm odate
Ġal gebra
200 4
Ġreser ve
ĠM O
lic ies
D ot
RE D
Ġcommit ting
Ġkn ockout
Ġar c
Ġsp irit
Ġroot ed
Ġper mit
200 1
ĠA x
="# {
Ġun check
Ġreload s
ĠHT C
len n
ete or
ct ors
ĠW idth
Ġsa ver
Ġfinish ing
Ġreal time
ĠĠĠĠĠĠĠĠĠĠĠĠĠĠĠĠ ĠĠĠĠĠĠĠĠĠ
Meh rdad
Ġclass loader
pri l
F ar
Oh h
ĠSol aris
M or
b x
Ġt ex
as er
Ġeven ing
Ġ`< %=
ĠInst ance
vor ak
Ġele m
Ġinfin itely
del phi
Ġcame l
Ġstri ps
Ġbal anced
prov ide
ĠÂ §
j c
sh ake
ĠMon itor
escap ed
ĠU ML
ĠIn ner
77 5
Ġconsum es
Ġf a
as se
ĠG eo
Ġenc lose
rid ge
mod ern
C U
i use
bl a
mis c
Exp and
ĠOUT ER
Ġc uz
.. !!
Ġfree zes
vis or
se ver
as semb
ĠDis patcher
Ġfight ing
declar ation
Ġinterfer ing
H ah
h appy
} ",
Ġ" \\
ĠIn v
ĠAnd y
let te
Inter net
ĠH ar
ĠV ert
Ġaccess ors
Ġsil ent
Ġ` }`
th ed
ĠUI ScrollView
ĠAP P
QU ERY
Ġinform ed
Compar able
b n
cast ing
Mon key
Ġantic ip
ĠU K
Ġdelay s
flo ating
f u
Ġwe ather
Ġjson p
Compar er
Ġins ensitive
Ġcorrection s
se ed
alloc ate
B inder
Ġ`{ {
port able
ĠThank you
Ġstand point
ust ers
ĠM ovie
Ġc ipher
Ġdis ables
js Fiddle
Ġmin ified
B AD
E AR
al ong
Ġj vm
ĠN ormal
L ott
M ON
p ane
Ġs s
Ġimper ative
m ong
Ġbar code
oint ment
Ġobfusc ated
Beh avior
Ġ" :
Su gg
Ġstring WithFormat
tool kit
Ġquer ied
ĠN DK
az ed
Ġt nx
ĠRe quire
ĠSet up
y l
in deed
Ġx yz
ier d
Ġthank ful
h c
p ager
Ġgreat est
accept able
ĠCG Rect
Pri vate
Ġhad oop
ĠDocument ation
w sdl
ĠX D
M ig
k an
Ġf ruit
... )`
Ġ? !
u pt
Ġsh ipped
class Name
ab arnert
avi our
Ġstru ggle
ĠM M
Ġprom ises
Ġs ight
Ã ¤
Ġcross ed
ĠM embership
Ġsn ap
39 6
Ġdisconnect ed
ALES CE
S weet
Ġbl ink
ĠTh an
Ġtr ough
Ġuser control
SH OW
Ġa gg
Ġm otion
Ġpost gresql
Fr ont
Ġdo or
ĠInst ruments
sk i
datab ases
Ġfree ing
har th
comput e
Ġtri vially
Ġ5 5
Ġsimilar ity
Con current
60 5
ĠEvery one
ĠThread s
m itt
cond itions
B esides
Ġ" ",
cl ic
hash Code
ĠBl uetooth
Active Record
Ġprim es
l ua
Ġl ame
gr ading
get Resource
Ġbeh alf
Ġplay back
col ors
qual ified
select ors
ĠExt ension
Sy mbol
> ",
Ġimpro ves
Sc ene
FILE NAME
Ġillustr ates
ste ve
cent ral
James Kanze
Ġha bits
Ġfun ky
ere x
Ġ5 2
Ġ4 9
Sh adow
T urn
il le
57 9
Ġhack er
Ġim pressive
oper ators
Ġdestroy ing
ĠO F
Ġsound ed
O p
Ġn an
Key board
Ġinterrupt ed
regex p
expl ode
A H
Ġre do
sp elled
Gu ys
Ġtempl ated
D iag
Ġw ired
Ġm vn
ro d
ĠC DATA
bo ld
Ġdist ances
Ġencrypt ing
ĠLink edList
, `
? **
int roduction
Data Grid
Ġservlet s
ĠDoc s
ĠDesign er
compar ison
Ġsd card
l v
ĠF unc
Ġpos it
80 5
mis sed
ins ensitive
artif act
G er
54 4
DE F
Ġalph an
j un
... }`
ĠO ptim
55 7
Num bers
Ġmoder ator
for Each
Andrew Thompson
ĠI ssue
Ġinit iated
Ġref use
Ġbl a
Ġsimultane ous
t it
ĠJ Label
L inks
ĠH mmm
27 4
ĠDes cription
ĠDoc uments
ĠRich ard
re search
str uts
e u
ĠM E
Ġbr ush
50 8
Ġunique ly
Need s
w k
Ġcre ative
Ġve h
Ġvis iting
Ġmistaken ly
Ġexcess ive
W o
Ġt ier
.. "
ĠT urn
Ġover sight
26 8
37 8
Ġspeed s
LOC K
ĠP icture
rid ing
find ing
Ġtight ly
Ġbe ast
git ignore
? *
Ġw it
Ġre ward
can f
II RC
Ġwhit elist
rid ay
Ġang les
Ġsepar ators
Ġtra versing
account s
Ġ... )`
OT H
I IS
w ave
ĠL OC
f ab
N av
} `,
Ġw inner
77 9
mut ex
N R
l b
int uitive
34 0
M AC
ĠJ ackson
Ġagree ment
ĠOpen SSL
Gener ate
Ġlex ical
e legant
Ġind ustry
Ġtransaction al
Des criptor
**** ****
ĠHAV E
fancy box
=" <?
33 8
Sc oped
rig gers
cre ase
Ġhur ts
Ġstandard ized
Ġdrop box
rout ing
F lo
ee z
12 1
Ġarg u
Ġ'/ '
S otirios
e ath
sp aces
Ġconst it
Com b
Ġreach able
j im
um mer
Ġx sd
Ġspl its
ĠWr ong
% "
ing w
Ġg iant
Ġinspect ion
T ick
Ġview state
host ing
Ġslic ing
ĠH a
CON CAT
s ar
Ġinher ent
ug ene
Ġbind er
Process or
p apers
Ġiter ative
Ġpract ise
c ms
s ilverlight
en light
Ġb aff
Ġ3 7
direct ly
T B
c ook
c ert
ĠR ay
Ġdepend ant
Fr ames
Ġsurprising ly
B oost
Ġpro posing
us b
Ġag nostic
m ongo
Ġw alking
ĠW ere
ĠF orgot
Ġz end
J DK
ur bo
Ġint ending
84 5
cf m
ĠAV D
jet brains
m efaces
Ġre wrote
Ġca ption
Sum mary
adcast Receiver
M CE
ore n
ĠM eta
ra h
32 3
apan ese
im ir
27 8
ĠRef lector
M b
T esting
Z Z
g tk
s ales
Ġadd on
Def inition
Ġsynchronous ly
g p
Ġdiag nostic
Ġres ist
sh aring
1732 348
ab b
complete ly
Ġscal ability
a aron
d w
z ier
Object ive
TP UT
Ġsleep ing
Ġbackup s
Who zCraig
Ġact or
Ġextra ction
ĠBe h
Ġconsum ers
M ust
Ġf uzzy
Ġfor give
ĠA ST
vers a
Ġadmin s
Ġreflect s
Comp ile
Ġex cerpt
Ġhard coding
brows ers
pract ices
ĠF P
37 6
Ġst reet
ĠD rag
Ġdef ect
eed ed
Group s
Ġgran ular
ĠS AX
gg plot
any one
ĠReg Exp
Ġconvention al
ĠE ffect
Ġinfl ate
. ),
ĠT V
Ġreload Data
Ġh at
ĠA sp
ck er
ob uf
Ġslow s
Edit Text
Pred icate
Ġg nu
em an
Sp ot
Ġpin point
ĠXML HttpRequest
ĠOR A
Ġim pressed
op acity
Ġreal izing
und erscore
autiful Soup
Ġt ens
Ġre installed
Ġad vices
ĠView State
ĠAg ree
Vert ex
n kr
Ġfl avor
ĠPre ferences
Ġaud it
z i
ĠTh ree
pr one
ĠJust in
Ġintern ational
AG S
persist ence
end ra
Ġfunction ally
Ġ} .
Ġfragment ation
? ",
pt a
Ġpr ag
iman olis
om en
Ġdis count
Index Of
ĠVal ues
Lu ig
S il
urs es
ploy ees
t body
ĠS canner
Ġtim ings
cond itional
is ations
un ter
per ature
Ġspr intf
Ã ³
Ġon wards
ri ved
Ġcode behind
ĠSol ved
Ġmeet ing
Ġhash Code
ĠNS Date
Ġor ange
Ġar m
ĠN inject
Ġdown s
show thread
F eel
Ġin ch
Ġre assign
Ġv o
ĠG O
ĠL azy
Ġca ution
50 6
Ġcontract s
2305 13
O ptim
as ynchronous
de vel
ad vert
ip ad
ĠMain Window
Ġpermut ation
multip art
Ġreck on
? (
Ġes p
ĠWin forms
iet f
Ġm it
ĠD erived
Ġadv isable
screen shot
al ters
ro py
default s
respect ive
cl usive
Ġrec ycle
Selected Index
ĠPro cedure
Ġmail s
Ġodd s
() /
Ġscrap ing
G A
l iv
Ġth ick
á ´
Ġm eth
ĠW AS
)` )
Ġ`, `
Ġint ents
Ġfl uid
ĠEx ternal
Ġte le
ites paces
ĠRad io
get Attribute
54 5
Or bit
Ġfall ing
ĠBal usC
i ostream
Ġsub module
Ġsuper view
ĠP ract
Ġpar an
ish ed
clo jure
S IG
Ġinject ions
jo sh
ĠPo inter
EM A
Ġdraw backs
og ener
Ġcondition ally
term inal
glob als
se en
back up
ĠAl t
ĠZ ip
F ast
Ġl ab
Ġv c
Ġpo sed
up dates
Ġreview ed
plan ation
Ġcondition als
Ġhierarch ical
1234 5
hard ware
mbed ded
C ur
ĠD SL
pre ci
Exception s
r ans
Start up
S elf
Ġpick y
] ]`
Ġcomp ens
': '
Tag s
Ġb id
Ġcon vey
28 5
[] )
Ġgrid s
Mer ge
Ġh ij
ver ify
Ġanswer able
Ġ** "
Ġocc uring
F orgot
ĠC ond
25 2
prom pt
Ġexplo it
3 30
B all
O H
ĠA pi
ĠB lock
Visual Studio
% \
T OP
Ġin sufficient
Ġsur rogate
render ing
Ġshif ts
it ate
qu ite
ĠS ys
Ġret ina
A mit
Ġse q
Ġinitial isation
Ġref ine
ĠIND EX
/ `.
S ar
Ñ ģ
ĠSo ap
Ġstr totime
Ġmaintain s
f ed
Ġdes k
Ġargu ably
ch oose
Ġview WillAppear
der ived
sm tp
00 4
Ġpr ere
k t
Ġus b
ĠJ MS
ĠE rlang
Ġdis posing
do ctrine
p icking
qu irks
Ġhas htable
Ġx s
(' ,
84 9
attach ment
ra j
To Int
mark er
Ġhook ed
x k
Ġtwe ets
Ġatt itude
Ġencour aged
Ġin ferred
ĠA aron
and a
Ġcoinc idence
Ġover writes
Ġvari adic
Ġdescend ant
Ġun zip
ĠCon f
W izard
cl ause
][ "
Ġindent ing
sim ply
ĠEd iting
R en
sc ar
Ġrefact ored
Ġelimin ating
Ġste al
db a
ĠHe ight
vari ance
Ġche at
B or
Ġmanip ulated
Dec l
Ġtrade off
Ġh g
job s
ĠRout e
ig er
ab ort
00 3
Ġrecogn ise
ij k
ĠInit ialize
Ġ" ;
con vention
ĠPass ing
p f
Ġn pm
Ġun bound
ĠAndroid Manifest
Av ailable
ĠD ream
ĠUn expected
Ġdem os
r ss
Ġs ry
Ġn th
ĠC MD
Ġsl ug
Ġglad ly
ĠAB I
ĠJav adoc
ĠG erman
xsl t
contin ued
over lay
Ġuser names
88 2
prec ise
Ab h
A ge
ĠU SE
Ġbec uase
Ġque ued
Ġc uda
Pro vide
ĠIP C
Ġbog us
c alc
() -
Ġsatisf ies
ag ger
Ġclaim ing
defin ing
F atal
ĠAS AP
irection al
Gu ess
Ġprob able
ĠEn able
W i
e gg
od ies
po ke
Pl ot
S K
() [
() ...
par k
ET UR
ĠRE G
Over lay
Ġmy ster
ĠW iki
,, ,
ĠAdmin istrator
Ġdisadvant ages
Ġem ber
RE E
Ġport ed
L M
ir t
NS Dictionary
50 2
ĠB EGIN
Ġpresent s
trans ition
Gesture Recognizer
ĠF low
ĠE val
Ġinitial izers
ĠPar allel
Ġ%@ ",
N i
Ġ3 02
Ġrecip ient
v ity
ac ci
01 01
Hover craft
* :
J K
r ations
fil led
Ġdist ort
Ġmet ric
Ġerrone ous
x d
Ġt idy
oo ser
man ually
aph ael
equ iv
Ġconsequ ence
Ġret aining
Ġtext ual
39 5
Ġredund ancy
Ġx p
Document ation
acont ext
Ã ¸
ab ble
ĠG TK
Ġrecord set
Ġsp oof
Ġ0 7
ĠA OP
Ġthrough put
* `,
C oding
Ġ3 9
app ens
Sl ider
ĠSH OULD
synthes ize
l oops
Ġfinal izer
Ġbound ed
Ġbo ils
end l
ra wn
idd harth
S epar
is lav
ĠH QL
mac ro
Ġpartition ing
Ġco efficient
im a
Vo igt
R AY
Ġhand ful
unk er
l uck
Ġd ive
Ġcol ored
Pro v
ĠIP s
ile borg
ĠMod ern
I List
Ġst ab
ab riel
ĠF il
T ermin
Look up
Ġpo licies
Ġsc ans
ĠQu artz
Ġcontin uation
mel ter
Ġaster isk
Ġmisinterpre ted
Ġf at
in dependent
Ġbe ware
ke l
ĠA ir
b iz
o very
Ġ` :`
com press
Ġflaw s
Ġsubtract ing
m apped
56 5
Ġenfor ced
ĠN UM
Ġass ess
depend encies
Ġslides how
Ġc ourses
ĠG A
ĠIn formation
Ġexception al
ĠL ight
Ġ`< !
join s
ĠO FF
ĠJ etty
ĠPR IMARY
Ġsummar ize
k inter
P P
ĠG en
IE LD
Mar co
au ss
Ġdedu ce
Ġhash code
59 4
qu antity
rel ationship
< !
< %=
O SE
c aching
g v
n ginx
o be
Ġc in
To Many
89 7
Ġexperiment al
Ġencaps ulated
Ġphilosoph y
d ummy
Ġal ike
UI ViewController
60 9
DE X
remove Class
Ġexhib its
Ġblog s
Ġcritic ism
Ġi st
Ġto y
ĠCom ments
Ġwild cards
s id
ĠZ IP
ĠSyntax Error
DataSet Changed
Å ¡
ĠD ig
ĠSt ored
Develo p
ou is
ĠGr anted
itable view
encrypt ed
blink enlight
Ġon PostExecute
Ġbr other
Ġshare s
Auth ent
Ġreview ing
Ġpercent ages
ĠChar acter
Ġsho pping
Ġre format
ass er
ari ous
=' $
J esse
ĠS Y
lo pen
Ġtrans ient
Thread ing
ĠAd vanced
ĠDirect X
D IS
ar un
ast ically
77 8
Ġprompt s
Ġdis regard
oused own
D ar
ug ust
Rect angle
!!!! !!!!
Eng lish
bob by
C B
Ġth er
Ġtr ash
Ġla ugh
l ng
Ġback trace
(' :
Ġsl ave
cell s
ION S
ĠBl ue
rock ford
T ra
Ġ" ,"
Ben Voigt
C M
ĠC ODE
56 0
d ar
Ġc ategor
std c
ĠWeb Kit
Ġinteraction s
ĠP i
can iuse
77 0
ĠHad oop
ĠScroll View
u art
Ġin active
ĠArray Adapter
think ing
ĠPri vate
ĠA I
=" ${
Ġmat ure
sen cha
M aps
Ġd ense
ĠJ Table
Ġ' &
Ġpre compiled
ĠU t
Ġexpl oring
Ġoptim ise
Ġunus able
TIME STAMP
pur pose
Ġelimin ates
Ġconfig s
99 8
ĠMac OS
Met adata
re pe
Ġd s
saf ety
ĠUltim ately
L imit
Ġj boss
Ġexplain ation
Al pha
User Control
art ment
Ġrever ted
ĠRe Sharper
Wr iting
d uration
Ġb t
Ġli king
ik it
Ro ss
ĠHand le
Ġkey up
ĠCon current
ĠError s
Ġexit ed
R aces
Ġp ools
se gment
Ġ? )
CG Rect
D un
Ġsuc ces
it ical
Ġsh allow
Ġx html
Ġstay ing
Th or
Ġlist View
Pro p
ref lection
Activity Result
i u
ĠS UB
av ier
Wr ap
ĠJ ul
Ġiss uing
Ġmark down
Ġsaving s
ĠCR M
(? =
ĠSch ema
* \
zz zz
Sdk Version
ag ick
Ġinitial izes
z h
ĠS K
Ass ign
ĠNS URL
Ġcollect ing
F K
H ol
ĠĠĠĠĠĠĠĠĠĠĠĠĠĠĠĠ ĠĠĠĠĠĠ
Ġbind ed
ĠY ea
ĠAg ent
Ġdump ed
ed i
Ġrun ner
d ave
Ġcons iders
ĠNS Mutable
ĠUpd ating
UM N
Ġran king
Ġill ustration
ij a
b und
m artin
... !
'] ;`
ĠA CL
Do h
ĠDb Context
) ]`
ĠM ind
Ġmis spelled
ĠYour s
ĠSe lection
Ġ<! --
66 7
WOR K
Ġre built
Qu entin
87 4
ĠEXACT LY
h ino
ĠD arin
Ġvisual ize
pay pal
Ġarri ved
Ġsympt oms
en h
Ġg ains
ĠT utorial
pre sum
Jon es
eval uate
Ġobserv ations
U ntil
ĠP ush
Ġ... `.
Ġimpl ode
lipp ert
u ction
Ġg lyph
Ġsh oud
il ers
ĠW onder
ab al
ĠB er
Ġlat in
ĠEx plain
Par allel
f m
Ġ( \
ĠNS Object
Ab solute
Ġlight box
BarButton Item
T ed
Ġf d
ill ion
ĠB ind
Ġcomp ose
Ġalong side
Resp onder
LIBR ARY
R U
Ġcon ce
ĠN AME
ib ilities
anc is
would n
ĠWOR K
ĠN AT
read sheet
IN TER
ĠPro f
bar a
h ist
ĠP OM
ĠF S
26 16
pop ulate
Ġris ks
Ġris ky
ĠCURL OPT
b ish
l is
ĠG IF
install ation
T ex
m ate
Ð ½
Ġm ant
ch en
Ġbel ie
ĠEx port
ĠW MI
u pp
ob vious
IL S
intern als
X Path
an aly
ĠH W
subscri be
Ġare nt
ip se
min utes
ĠNot es
r w
{ {
or ian
de li
ĠA void
Ġsh ips
... '
Ġ{ :
Ġremember ing
ĠGu ava
ĠHttp Client
Ġout going
Ġref used
ott a
le e
ĠM art
ens or
Ġtransl ations
Ġsq lfiddle
> ';
Ġr eread
ĠF ig
ĠT ypes
Ġbl anks
Al t
84 4
Ġur llib
Menu Item
Ġhum ans
Mail er
.. `
Ġk o
obj c
if def
Ġopen gl
Ġtweak ed
Ġp sy
ĠH H
Ġ* ,
Ġ4 80
Ġindex er
anch op
ĠKind ly
Rog er
l p
m usic
Ġne ater
ĠD rive
Ġsp it
keep ing
run o
Ġexper iments
anc ial
rupt ed
ĠEX PLAIN
TO H
Ġcrypt ic
verb ose
Ġautomag ically
l ves
con currency
Ġscient ific
U mm
in er
Ġdis allow
sc oped
B locks
cri min
Ġvis its
key words
88 7
Lightness Races
Ġk l
Ġfirst ly
40 7
re produ
Ġb loat
Ġout look
Ġdist ro
ĠW ireshark
Ġ' ,'
in ating
ĠC AS
ĠC UR
ĠJSON Object
ĠCl ang
Ġcar ried
ou st
Ġm m
am il
code x
Ġtwe aks
Ġx args
sc ott
bre aking
rest rict
ming w
E asy
W CF
g ames
Ġwh itespaces
30 2
ĠINT ER
Ġsubsequ ently
Ġshorten ed
Ġpitfall s
Ġconsider ations
ĠPro vide
') `,
ĠMan aged
non atomic
Capt ure
in Orbit
ĠS ection
Ġfl ushing
h ah
ist ical
ol and
Ġident ifies
ĠY ii
Be at
Ġtransfer ring
x ing
av o
20 3
25 3
ĠUpdate Panel
isecond s
Runtime Exception
uss ian
U pper
Ġj oomla
Le ffler
S in
Th row
org ive
og onal
Ġspe ech
ĠU sed
99 4
eng ht
Ġreprodu ced
ĠST D
Ġe lect
ent ries
Ġst aring
ĠO TOH
Ġdec ryption
Se q
Ġdatagrid view
o q
pal m
LightnessRaces inOrbit
G CC
ĠG re
Ġ9 8
separ ate
anchop anza
Ġrec v
ĠPro log
eric lippert
cp u
Ġdiag rams
g iving
Ġt c
Ġam pers
Ġsub directories
Ġslow ing
host name
Ġ' .'
ĠT ested
ĠE NT
Ġ. =
S at
d etermine
Ġinstall ations
Rem oving
Ġ ))
ag reed
Ġw itch
be at
con ception
Ġmultip art
xls x
g ov
re ply
ĠN OW
Ġcancel led
\ '
Ġh olid
Ġread ily
ĠBe en
Ġomit ting
> :
ri y
ill er
ĠD en
Ġ Â´
Ġsy sc
ĠX IB
Ġshare point
Ġdig ital
S ets
Ġret ro
Ġiter ated
?! ?
Ġs on
ĠS ide
Un ix
Ġscroll View
ĠNS Number
Ġauthor ity
Ġviol ating
ĠControl s
" !
Ġs ac
Ġb read
if fer
Ġconf idence
no ld
Http Context
> ()
f name
v ideos
V IEW
ag ues
ft ime
sign ature
T CP
Ġaccept ance
Ġtool chain
ĠWeb S
7 54
de alloc
Ġsc affold
Ġsh uff
ak h
fire bug
ĠINotify PropertyChanged
B S
Ġbe aring
ĠE r
fin ity
Ġselection s
Rece ived
ĠLE SS
OU ND
d os
Ġpo ss
Client ID
Ġdeserial ization
M achine
[ ].
sh uffle
part ition
Click ed
Ġdata frame
Se gue
Ġrep air
Ġattach ments
ees cript
Ġtext Field
99 0
ĠY ahoo
Ġflush ed
B Y
C rowder
R educe
z k
Ġo w
Ġ? ,
T rim
c nt
un ordered
Are n
By Name
ris on
in ity
ĠC ity
ĠB order
ĠCh art
I ve
ig ible
ee ks
Tr ack
Tem plates
I AL
R on
Ġst ash
Ġtab bar
ĠWeb Forms
tem pl
ĠDec imal
ubh ava
Ġl ying
ĠF eature
up grade
du ction
ĠAn alytics
ĠHAV ING
in fl
ad just
cont acts
59 8
F unny
V i
Ġbe er
nc py
Ġfeed ing
pse udo
Ġmethod ology
reg istration
86 9
Ġco ld
Ġk icks
Ġend ings
16 3
ĠMe anwhile
Ġt v
ll a
Ġthing y
Ġben eath
trans fer
B SD
C ost
j r
Ġg wt
pt ime
Ser iously
87 5
Mark er
L ite
Ġh mmm
=" .
Text Area
Event Handler
B log
Ġh ire
Ġme g
So ft
Ġpop ulates
b ur
p html
Ġre views
ĠD P
dir ty
p ed
bug zilla
Ġ`$( ".
S prite
X T
fr am
Launch ing
Ġsub strings
LO AD
Own er
: .
U gh
oh h
ĠOS Gi
fade In
Ġfi f
Qu ite
ierarch y
S afe
57 4
hor izontal
A CH
ĠT iny
ĠU L
Log ic
program mer
Ġexpon ential
o ch
ph ys
mark up
First OrDefault
ee ee
az ar
print StackTrace
Ġhesit ate
ĠEqu als
h alf
r ar
Ġit al
set ter
ĠList s
39 0
J ake
Ġless er
Ġfr owned
dir name
( <
G PL
T AG
ĠH D
Ġnumber Of
Ġprint ln
gorith ms
ĠMath ematica
086 91
: ,
E OF
S ven
99 5
Al ignment
H aven
Y G
mit ive
Get Value
Ġ( #
first name
ess ential
Ġgeneral ized
Joh an
Ġunn eeded
Ġnav bar
debugg er
ĠGrad le
re solve
Ġc able
Ġthere by
Ġen orm
Ġint el
ĠWith in
AN CE
Jonathan Leffler
ĠCS RF
S ingh
d ream
x e
ank ar
eng lish
ĠSerial izable
es p
Ġmod ifiers
Ġapprox imate
eck o
oc ations
uch ian
Ġdis crete
Am azing
N it
Ġdo s
ĠC enter
min imal
Ġ`& &`
t uts
Ġdatab inding
B tn
Ġl ua
Ġqu est
create Element
ĠApplication s
L int
S ys
Ġh unch
In ject
success ful
yper cube
E LL
Ġan sw
Ġ0 4
Ġs our
ĠTh row
ĠD C
Ġdet ached
Ġcompl iance
Mill is
G ar
N ST
ĠB ug
ĠD ST
Ġsub menu
Ġrec ieve
ik o
Ġjs bin
ĠPl s
" />`
al ar
ĠAL TER
D erek
r atic
Ġfor t
ĠUI TextField
Com puter
node js
b z
ĠP rom
wh eel
ut ex
Ġke en
Value Pair
ĠAr tic
tr as
follow ing
C am
f ake
ĠL ayer
Ġbu f
Ġvalid ators
assw d
rec v
R ound
ch k
84 7
Alert View
Ġbur den
86 7
Run nable
w ire
Ġa ver
.. ??
ĠPro v
Ġresearch ed
Ġeduc ational
client s
Comp iler
tool tip
ig g
ĠC AST
D iff
P H
] ->
w i
in correct
? \
Ġspeed up
Ġrestrict ive
Br ush
ĠAss ert
Ind icator
Ġstr ategies
57 5
Ġarri ves
ĠNot ification
+ (
D uration
ĠD ue
In fl
aw ning
)) )`
Ġpersist ing
L icks
j pa
ĠIS P
Marc in
ĠLi braries
Ġw ether
ci o
Ġstrange ly
J uan
h is
Method Error
maint ain
s mo
Ġt ang
ĠD TD
index ed
Ġemphas ize
ch apter
New s
h uge
Charles worth
st en
Ġsp ect
ĠFort unately
B ottom
Ġnot ices
ĠO le
ir us
S ynchron
Ġg ained
ĠS TR
ĠG DB
Start ed
Ġtest er
At tr
ĠConsider ing
ĠAngular JS
sched ule
Ġactiv ation
Ġextr as
Ġdo InBackground
Moo ing
f ails
Ġre construct
Ġdo ctrine
ĠA v
Ġr azor
ĠB SD
log out
help ers
st roy
il ty
Kar l
ett i
Ġsysc all
t ro
ul ative
ĠC rystal
Ġdoesn ot
Ġfac ilities
vim rc
Ġre phr
al ive
ir u
Ġbackground s
ĠGlass fish
ag o
Ġpre tt
Ġ7 00
Ġsimpl ifies
Ref lection
ĠVari ables
Ġf ading
ĠS to
iam ond
M il
am it
ch mod
Ġsp here
pre h
Bl ender
Ġoct al
ĠLat in
ey ond
ĠI R
oo h
Ġlook behind
Ġsm th
per cent
sc m
server s
44 0
alle e
eval u
g al
01 9
11 3
Ġcr ontab
ĠWeb Browser
ĠAP C
sd card
ĠO ld
Ġ5 1
ev il
ĠCL ASS
lim its
Ġcraw l
f h
ĠProcess ing
Ġe poch
ld om
IN ST
Ġ% }
Ġdeclar ative
35 8
response Text
eh icle
Ġwire shark
J ain
] ),
Ġa id
Ġm ingw
are s
Ġmulti ples
Ġindex Path
Ġnit pick
Å ł
in her
ĠM DN
39 8
ĠLoad ing
ĠLa unch
( __
01 5
87 9
ĠAccept ed
comb ine
: {
om m
ĠS em
ĠS elf
ĠRe ason
AM ES
Del imanolis
v og
Ġpro g
NS Number
ĠAr t
Oli Charlesworth
ad am
ĠF rench
ru ary
led ged
Me asure
UN CTION
M embership
f av
Ġc as
ĠGC D
t ap
Th ree
ac l
M ind
U A
Ġcont ention
Ġ3 8
tr ac
sl ashes
Su bject
Ġsimplify ing
Ġspeak er
C odes
el a
Ġdat ed
Ġcheck er
Ġanw ser
D X
") `,
Ġstick y
ĠL ock
Ġhapp end
replace All
Ġrecogn izing
' `?
ĠT D
!! !!!
Ġentire ty
Ġoptim ised
Byte Array
est s
ĠJ ack
54 0
K E
ĠB rad
Ġsy mmetric
ob by
89 8
hd pi
OutOf Bounds
Ġsignific ance
Ġb ag
ĠC amera
Ġun helpful
query Selector
need s
Ġ;- ).
Ġ`| `
Ġsh out
Ġun bind
Ġhypoth etical
Ġposit ives
ol ayout
Ġhe alth
Ġrever sing
Ġdash es
ĠDE FAULT
P OSIX
ĠD imit
comm a
34 3
.. :)
ĠS ales
Ġmodul us
B a
ĠM ock
iv a
oc oder
Ġgr avity
Ġ... ?
ĠEvent Args
CG I
cir cle
t ures
Ġ 0000
44 4
New ton
ĠFl uent
Ġst ages
Fl ag
open ssl
Ġschem es
fr m
Accept ed
ĠUR Is
em ap
ĠH m
Ġbegin ing
Ġrepresent ative
widget s
ĠF inal
Ġcent re
Sotirios Delimanolis
ĠH int
necess ary
I van
U DE
Le on
ĠMan ual
Ġp ager
ĠD ot
ĠSub mit
Hot Licks
Ġacknow ledge
Ġrevis it
ĠT ermin
ĠSy mbol
pp ers
ill s
ex change
00 6
Un ique
ĠMon th
CCE SS
altern ative
s html
ĠM ember
Ragh unandan
ĠT LS
comp ass
Upd ates
Ġden ormal
... ".
Ġlocal s
67 9
ĠJo el
XY Z
Ġ" </
ra ise
77 4
J Frame
L ove
a ffect
web app
dat agrid
. \
ĠH ERE
And ers
Ġintention s
Br andon
shall ing
ĠProt otype
Ġenhance ment
ĠN H
Ġun register
56 6
open ing
ĠMySQL i
Ġadjust ments
ĠDebu gging
l ived
ss ss
# {
Ġli ft
are k
IN DEX
ĠFire Bug
Http Binding
U sed
m nt
ĠP ick
ir med
ĠT B
app arently
ĠPri mary
DOC UMENT
w av
Ġmed ian
LOC AL
Ġenlight en
am ily
ĠW AMP
In spect
St ar
Ġmit ig
r v
Ġo l
Ġ0 5
view topic
Ġart ific
s aw
per iod
') ->
ar ith
Ġdest ruction
jar n
Link edList
Ġtun ing
i able
it ative
Ġj etty
55 8
oret ically
aur ant
Ġendian ness
Ġy ahoo
sql server
sy m
Ġmut ually
Ġ[ (
Ġpr incipal
tech no
") )`
Link ed
ĠS ound
ĠC ross
reme ly
coll apse
Ġconform ing
M C
), (
ĠPDF s
Ġdam age
H ao
plic ates
n z
Ġin ev
as df
as mx
ĠC ome
r ack
con c
An imal
Com ments
Ġrob ot
ACT IV
ĠU s
Ġcare t
St rip
U buntu
Ġn ut
ĠC ouch
23 1
co ffee
Ali as
R oom
it ech
reg arding
Ġworth y
Ġunexpected ly
Order ed
Operation Exception
ĠPhoto shop
B usiness
L ng
s With
er ver
Ġalphan umeric
at in
ĠF ed
ĠX AMPP
ĠY AML
OK IE
Action Bar
ĠBig Decimal
ĠCold Fusion
V ED
html specialchars
key press
Ġinterpre ts
ĠST AT
Ġhy brid
Vari ables
P e
Ġp ec
Ġas ynctask
Ġele vated
[] `.
Mon itor
ĠOpen ID
RES ULT
Ġe gg
al an
Ġ- [
Ġ' (
urre d
my sqld
P ublish
` @
um er
ĠW idget
cess ary
99 6
ourse lves
F ran
V ik
f ools
ĠIn correct
Ġfact ories
access ing
ĠOwn er
/ ](
y lias
ach in
Ġthr ott
gener ating
lat itude
abe led
m akes
Ġn ick
em bar
L ive
Ġenc oder
ĠSh ift
anch or
84 6
D vorak
X eo
v oters
Ġ7 2
C ATE
p od
Ġt une
ff f
Ġcol s
index es
90 7
Ġwatch ed
Ġh ooking
al ist
17 2
Ġoverrid en
p ivot
ĠAnswer s
Ġ`~ /.
b esides
st orm
uff a
am on
P NG
Ġbu ckets
bit bucket
ma jor
ĠP aint
load s
Ġir rit
IF T
Ġexceed ed
Ġbeaut y
My st
ĠECMA Script
Ñ ı
s it
ru g
HTTP Request
Ġr aster
ored irect
ĠMethod s
itec ore
Luig gi
Ġt x
Ġy yyy
Ġp andas
Ġe ight
An im
at on
CRE MENT
f k
be as
Ġdec ouple
Ġ5 4
ĠRes harper
; ">
m asters
Ġ ourselves
ph er
Ġfound ation
aut omatic
Drop DownList
` [
Ġ5 6
Re quire
pr ising
== '
Ġsk im
ju anchopanza
quirks mode
D er
b and
01 4
print ing
Ġshell s
frame works
Ġsurround ed
w an
17 3
ĠBL OB
Ġ( ?)
tech network
ĠIO Exception
ĠStart ing
Ġmonit ors
Ġutter ly
p ax
Ġt il
Ġ0 6
Ġintellig ent
Rah ul
* ).
Se gment
tag ged
Map View
exec utable
] |
Ġi l
Ġc our
ol i
sent ation
Ġdiff rent
ke v
ĠC K
str totime
S em
Ġal as
ĠC art
IT ION
ĠAl ready
IE NT
Ġdead line
ĠEVER Y
y te
Ġde ath
Ġanaly se
Ġharm ful
" **
ox y
Ġdesign s
Did Finish
Ġwar ned
number Of
aur av
ĠBO OL
O ur
f iddler
or ld
ĠS en
Ġ== >
Mag ic
endo za
U K
need ed
dest ination
a es
m br
ĠS WT
Ġ" \"
f lip
ĠD om
Ġref s
Ġsimpl ification
parent s
scroll ing
ĠĠĠĠĠĠĠĠĠĠĠĠĠĠĠĠ ĠĠĠĠĠĠĠ
oin crement
Ġrandom ness
fail ure
W nd
Ġfollow up
ĠTel erik
! **
# "
M V
Ġc ub
Ġo t
86 0
ĠEm pty
tr unc
ob i
Ġrel ay
Ġslow down
'] `.
Work book
Ut ilities
Ġsubdomain s
ref s
ĠUN IQUE
g sub
em ulator
St orm
Ġmis conception
Reg istry
Ġst roke
Ġtext book
ST ART
ens ible
ales ce
J ak
V an
ĠC al
Ġ= ~
". "
Ġdistribution s
re served
User Id
ĠPo ly
Ġgu ards
ud es
Ad vanced
ĠPost ing
Last Error
s ms
Ġcl usters
In Section
Ġsub version
Ġsupposed ly
Ġer ased
Jan Dvorak
Aut om
O Auth
ub ble
ĠZ ero
w char
Ġbe e
ĠN Unit
ER S
OT E
ĠPh p
00000000 00000000
Ġ ]`
ir an
Ġgrad le
I gor
R P
y bara
ĠB reak
UI LD
rece iver
" *.
N ah
st derr
Ġl st
Ġnew bies
get ter
Ġtable ts
ref lect
ĠEX CEPT
Ġdiscour age
S el
ĠW R
Ġle aning
Ġbub bling
H is
Ġad mittedly
ĠThread Pool
Ġste pped
: `,
n oredirect
ĠF lo
Ġpack ing
>> >
ĠRect angle
a verage
Ġam azon
add itional
E h
Ġf ell
Ġso ld
Sur face
av an
po ln
Ġbu ying
59 0
optim ize
Ġan imal
ĠS AS
no on
77 6
]+ )
ĠReference Error
B ryan
D ao
v w
ĠJ LS
Ġprom ote
Ġvir us
techn ical
d ark
n ome
Ġw amp
ain ting
86 6
84 0
14 3
config ured
EX EC
rele ases
Ġmot iv
s andbox
oc king
pri ority
AL TER
mo ving
oth ers
Ġpop ulation
rows ers
Mon o
Ġwaste ful
B UT
q r
Ġin built
ol s
Ġboth ers
eb ook
W ITH
Th umb
ĠA CTION
Cl one
88 9
start up
Ġcar ousel
Ġcut s
y g
Ġ1 970
Ġover com
link ing
ĠLO G
poln ik
- (
H um
Ġp k
ac lass
um bl
display ing
Ġobtain ing
H om
I Queryable
b j
l ots
ĠD emo
rem end
Martin ho
Ġembarrass ing
Ġdo ck
ĠL I
Ġ5 3
Ġob serving
gu id
44 9
Ġir respective
Ġbatch es
Ġunre ason
Ġintercept or
El se
G re
ĠF uture
text Field
Own Property
Ġchalleng ing
" )?
or ph
Ġr usty
ers ions
tr an
89 0
Ġpress ure
Ġfac et
- \
O cc
Ġ" //
Ġr ain
Ġrec overy
Is Null
Ġnecess ity
ĠModel s
grid view
hor ror
ĠI CS
Ġst ead
Ġ# {
UI Color
59 5
ĠDD MS
ĠW IN
Ġcr iter
40 5
C ategories
W onder
f g
Ġunre solved
s bin
is cher
Ġk it
List en
ĠRe view
Ġmanufact urer
S ales
n am
Ġ` *.
ĠS heet
ĠW ILL
ĠJava FX
Got cha
# !
H ide
Ġin fact
Ġx x
k at
ĠP aste
ĠN ik
ok er
ĠPart ial
R an
ar ma
ot ate
ru d
er ed
Ġw ierd
or an
Ġto ss
ach el
wh el
ĠV PN
)) `,
Ġexam ining
d pi
um a
YTHON PATH
Ġorth ogonal
y aml
Ġs izing
Ġr ush
An onymous
Ġsatisf actory
ĠTool kit
p om
Ġb ias
01 2
Ġaut ogener
Upd ating
90 9
M al
Ġz ones
TF S
Ġ`{ "
Ġam azed
get c
Ġspot ting
IF O
Ġmov ies
seto pt
presum ably
Ġse ams
Ġtr ait
Ġnarrow ed
F ernand
P ART
ĠP owershell
Ġ1 60
19 3
Ġreplace ments
auto load
IO Exception
rout er
b ul
v p
Ġr ates
str cpy
UT C
D AY
os x
Cont acts
Ġroot s
Ġc make
de vices
ad in
Ġ' `
Ġ4 000
Ġtreat ment
Cr iteria
A w
Ġper ce
Ġ} `,
For Each
ĠWhere as
Ġamong st
) }
G NU
as d
ran o
D AO
b ec
Ġin case
Ġjust ified
ĠiP od
Rem oved
DOW N
ty po
Ġ100 000
ĠSch ed
ll vm
Doc s
ĠSte phen
net beans
cre ation
oh an
Ġpe ak
axon omy
on C
Ġbe ats
ĠP et
Ġx hr
ĠIDE NT
Ġoccup y
v r
un set
Ġag ents
min imum
ID isposable
57 8
Ġsac rif
Ġ/> </
Ġsom thing
Wh ether
mm a
Ġbacks pace
Ġinterrupt s
Ġmultipl ied
Ġa pro
Ch oice
54 8
ĠDev ise
O u
Ġp urs
it led
Ut ility
Ġve c
ĠM ig
ĠD ON
'] ))
ĠNS UserDefaults
[] []
solution s
wa iting
Ġt amper
Ġvari ance
Ġdet ach
PI D
ĠPar ser
Ġenumer able
j h
m ichael
ĠA FA
enc ast
append Child
ĠBuffered Reader
Ġjust ification
ĠR ule
ĠG D
Class Def
L uk
:// `
ub s
Ġparallel ism
="@ +
Tw itter
C atalog
Ġweb browser
Ġbre vity
NS Date
88 88
er ase
Ġp ie
ĠP ublish
ĠT oken
Run ner
ĠBl end
Sm art
ĠInteresting ly
ĠFollow ing
at et
ĠC Python
LE NG
Kor bel
o logies
om bies
un expected
ĠM eteor
Ġ3 60
And r
inst ances
John son
MP P
grep code
ĠWi Fi
Ġmy sqld
Ġsy m
ĠUI TextView
sv ick
ĠFunction s
147 48
Thread s
j l
Ġas h
Ġpre f
get View
57 0
Ġdescend ants
finish ed
ond on
ĠAct ual
Ġ.... ..
Results Controller
F a
qu ee
ĠUI Kit
Ġlogin s
Ġ`_ `
ĠMat thew
Ġinsp ired
v ba
ĠV ol
ĠOpen CL
jq Grid
priv ile
g ami
ĠL ippert
ĠM arch
li ents
Ġrestart s
nnnn nn
Ġ( ~
ab ul
() ),
ext ended
Ġemphas is
ĠDAT ABASE
Ġl abeled
Ġbe gan
Ġapproach ing
key down
ĠSur face
Pref ix
h op
40 6
Ġhalf way
Ġrad ix
ĠPre view
ĠState ment
Pay ment
R ick
{ '
Ġdu ck
Ġcenter ing
ĠValid ate
Ġdec ade
d le
k umar
Ġm asking
hack er
n hibernate
Ġar mv
Ġrem inds
DF S
Help ers
B K
Z oom
f requ
t al
ol ation
Picker Controller
Contents Of
w en
n ormally
box ing
ĠTo List
inc ere
sur d
xk cd
Ġth a
Ġp eek
ĠD amn
ĠAre n
gramm ers
Ġclaim ed
D ESC
Ġt ad
Ġj udging
Ġgo ver
++ ){
install er
Ġprere quis
D mitry
Ġd ial
ry ing
97 9
Su ppose
grad ient
thumb nail
CUR RENT
Ġapostroph e
B ool
o ft
an notations
ĠC DI
ĠAl arm
F D
ag le
89 4
Ġpred iction
/ @
P ileborg
ĠO B
wh itespace
23 3
Un belie
Ġsubstant ial
M OD
j friend
Ber trand
ĠNo SQL
Ġ\ `
ĠI llegal
Ġg libc
pl nkr
mm ing
Ġadjust ment
VAL ID
B ACK
Ġdif er
Main Window
ĠEvent ually
ĠLar avel
I OS
pay ment
ut ability
ol fram
Ġdist ract
86 5
Ġgrab s
L en
P ick
T otally
T aylor
W ar
u j
x FF
em ed
ĠBackground Worker
> ().
86 8
ĠRem oved
Ġord inal
ĠDrop box
ch ant
Ġpart itions
Ġsc anned
ĠSt oryboard
ĠGC M
Ġred ist
, @
re solved
ch ed
Ġrel uct
inds or
re store
Ġint rig
') )`
Null able
Ġanaly zing
ĠExpression s
K irk
l ich
Ġn uget
Ġweb View
32 2
RE G
Ġkeyst rokes
g old
ist ream
Col in
ĠY ear
Ġguide line
di ablo
Z E
u er
de precation
ĠR MI
Ġedit ted
()` ).
Ġmeaning s
umbl r
c id
Ġp et
ex cellent
ĠD uring
Go ing
G O
Ġt one
Ġp eo
Ġg ut
Ġ: ]
ĠB eta
Ġsyn onym
Ġmut ate
SH OT
+ \
j it
Ġst ation
ce mber
Ġclarification s
s ources
Ġt remend
int el
get Data
ĠAl tern
âĢĿ ,
Rewrite Cond
+ %
K a
L ab
q q
ĠC VS
ĠF loat
cl r
Ġclass name
ĠD U
gem mell
saf ari
N AL
i ams
st oring
Ġdiag onal
# /
: ]:
Ġre connect
man ip
Table Model
ĠProject s
Ġcompreh ensions
require s
Ġplu gged
LENG TH
L ind
Ġo ps
Test s
Ġexport s
Ġart ist
ĠComp ile
dig its
Ġcandid ates
Joachim Pileborg
) ^
C alcul
ic ons
get Value
ĠV CS
Ġx l
label s
u eless
ĠTree View
etermin ate
matt gemmell
M aking
d uring
w at
Ġnumber ed
Ġsort able
layout s
greed y
stop Propagation
p wd
Ġch ained
Ġdat acontext
file Name
Ġhover ed
Q UI
ĠW atch
my Array
ĠLog cat
jq grid
Ġregener ate
rele ased
ĠMark et
I ssue
me ga
?" *
design er
eas ier
Ġb ots
end if
." _
66 9
EX PLAIN
ĠItems Source
Ġspin ning
St an
Ġdec oder
of fer
Ġbox ed
NS Data
Ġbud get
Spe ed
t an
ĠR ES
Ġsec ured
domain s
das blinkenlight
' (
n ic
u ition
en ue
ch unk
ĠM T
Ġspecific ity
tri p
Ġtun nel
% %
P rom
class ic
Ġsl ick
uh ammad
Ġb odies
ĠC V
ĠF unny
Ġsecond ly
min us
ĠAction Script
A part
Ġl unch
Ġfor wards
Ġmis use
Ġtot als
off line
Sch melter
ĠDu plicate
C le
files ystem
ĠExt ensions
Ġautore leased
tra its
ĠParam eters
M AP
O FF
Ġinst ructor
ĠF riend
ew hat
g m
es c
ast ed
Ġhe h
json p
Ġuninstall ing
Ġinconsist ency
Ġheurist ic
Ġon Destroy
dd l
sm ans
Ġdropdown s
Cond ition
Ty ler
Ġflicker ing
Ġreal m
60 8
Watch er
p un
re alloc
ĠA da
ey er
Ġrecogn izes
h av
Ġle an
ĠOP T
ĠId ent
er gy
Ġsub folders
Com put
ND I
ĠProduct s
Nik las
L IST
N izet
j asper
Ġb orrow
ĠP osition
ĠT oday
ser ves
In Chaos
87 8
p w
Ĥ ¬
Ġthumb s
(@" %@",
ĠANT LR
k ka
ect ions
ĠG er
fe el
22 1
Ġinvalid ated
97 8
Ġer asure
Ġminim ized
ClassDef Found
. ]
id as
all ing
out s
ĠP ages
IC K
R Y
U hm
w ere
ĠD r
D irection
or o
se he
ĠC at
ph ens
Ġ, ,
mk dir
f al
Ġb less
ĠB E
dev ise
Exec ution
ĠM I
ĠD est
ĠX XX
pr oto
vis ited
ĠCount ry
S OL
Ġin definitely
Ġper tin
Ġunder line
ild jarn
Ġ`[ ^
ĠEX EC
Ġcircumst ance
Ġal le
ĠV PS
cu ri
NS Mutable
Ġtre nd
ĠPo ssible
Ġfavour ite
Ġscra pe
D em
L uchian
ĠDef ine
ĠPO JO
ĠLa TeX
ec ma
Ġrem arks
Ġtransform ing
Ġignor ant
Ġdefinitive ly
b are
Ġr ational
Add itional
Ġjump ed
OB AL
on i
Ġc ms
Ġun stable
W ere
f ood
Ġd dl
ch as
Ġtext Box
Ġgeneral ize
Ġpython ic
Ġfreed om
J AVA
^ [
Ġsim iliar
Ġweb forms
ĠCheck Box
h ay
ĠB S
In tern
loc ations
Ġreorder ing
G abe
S par
v studio
Ah med
ĠTr ust
Ġcolle agues
C ourse
x f
Ġ" )
li kes
Ġdis aster
Ġlin er
omin ator
Ġske leton
FORM AT
T ap
ĠN SS
St rict
89 5
gener ally
Ġche ating
Jess op
l ater
Ġse ven
Ġun ary
Ġabort ed
v ic
as i
Ġv table
java ee
ĠSO L
60 6
Ġtree view
lash es
Tim Schmelter
Ġstoryboard s
Ġprepar ing
ĠS prite
Ġset Text
Ġun ambiguous
get Item
(... ).
cad ero
Ġm onday
ĠWh ite
Ġ4 6
Ph ill
ĠSimple XML
[^ \
Ġdiscre p
Ġx ampp
ĠT YPE
oc oding
Ġpred icates
ĠActiv ities
s ky
Ġr ounds
Ġapp lets
Ġ6 55
ĠAr duino
Ġmom ents
AP SHOT
b ell
Ġwar rant
69 6
Ġutil izing
Ġdram atically
tuts plus
ri ft
ĠP ress
âĢ Į
LL ocation
j as
Ġin box
Ġfor ked
ĠS illy
Ġret ains
my file
Ġbl end
col s
First ly
next Int
Ġpremature ly
19 190
Res ize
Ġstat ment
C hat
ann e
40 3
Ġstrong er
Sty les
Ġ? ???
); '
ĠSt ructure
ĠRe ferences
open group
Ġundes irable
j alf
Ġd angling
ut ility
Ġg tk
no Conflict
Ġannot ate
A J
x r
re pr
Ġco her
Ġnode js
87 0
process ed
Ġuni verse
7 00
le man
Ġp ump
ĠDet ail
Ġpropag ation
Ġcasc ading
l aw
an alysis
al bum
ish ek
Ġparamet ri
Ġtra its
D jango
ver sed
Ex per
eb ang
data Type
CO OKIE
mg ilson
vid ia
Ġ( ?
Ġqu icksort
Ġ4 3
le ak
Ġeven ly
Ġoption ally
RE SS
Ġlight er
Steve Jessop
G raham
y al
as ant
AD DR
append To
âĢĭâĢĭ âĢĭâĢĭ
Ġcan ce
Ġvulner abilities
y u
em atically
read line
A ff
M ate
Ġres cue
script ing
iver ec
stack ed
s up
Ġres izes
li hood
ĠUI TableViewController
Get HashCode
Cre ator
Relative Layout
m ime
ason ry
Word s
Ġincorpor ated
Ġco ords
Ġpo lite
ĠV o
Ġadapter s
} "`
Ġt i
Ġe q
ist rano
Ex tract
df s
ĠKe ys
Ġdisappoint ed
f orgot
Ġin vert
ĠD S
dat aset
Ġmount ed
x hr
um per
Ġover whel
ose cond
ĠCheck ed
Ġp unch
Ġin cur
ent ed
Ġco co
cept or
Ġfault s
Ġstar ter
Ġshoot ing
Ġexem ple
. @
P avel
c w
Ġun certain
Ġhe aring
Ġ9 6
ips is
Tool kit
ĠComm ons
ifer ay
B an
Ġg ender
em agick
Frame works
H u
T ested
Ġobfusc ate
al beit
ff eescript
ph ony
ree k
G P
_ )
Ġ( ...)
XML HttpRequest
14748 364
x a
lo st
Ġback tracking
.... .....
wr it
under stood
: #
ou nc
Ġcom pelling
let ters
Le g
ĠRes ol
M age
Ġp pl
ell i
ĠCent OS
pe p
ĠM EF
Ġtr avel
Ġcast ed
ĠImage Magick
Ġbill ing
Ġr spec
render ed
Ġfac il
ĠProt ocol
Ġpertin ent
an alytics
Ġ' :
jo e
W O
With Identifier
88 4
DT D
ĠMo ving
Ign acio
Har ry
'=> '
Ide ally
ĠS at
An imated
15 2
Ġconsist ing
Comple tion
n ib
Ġ` ->
ĠA li
Ġde que
40 9
coding horror
ĠRef resh
online pubs
reprodu cible
OutOfBounds Exception
b p
Ġde grad
Ġent ropy
ĠWin RT
Ġseper ated
y o
pp ie
ra pped
Ġsn e
gl ass
EM P
Ġnavig ator
SO AP
(.* )$
Dimit re
Ġ`|| `
er k
Ġs ongs
al right
pri me
AR D
image View
Ġbal ancing
Ġunreason able
s ix
Ġsp awning
69 5
Widget s
Ġcave ats
Orig inal
N ate
w oo
Ġin accessible
Ġg ps
Ġab t
Ġsub sets
ĠAction Result
Ġstat istical
pat rick
k m
z ipped
MS alters
FI G
Cred entials
ro bert
Ġtest case
Ġach e
Ġrestrict ing
W A
Ġt ear
on ic
Ġr ant
Ġday light
Ġstack ed
ĠData Contract
Ġunre achable
Ġpurch ased
de que
Ġpro ving
Ġ' )
Ġdis covery
F TP
mon itor
Ġ80 80
comput ing
G l
L AGS
ĠF etch
Qu ote
oot er
some where
drag gable
ĠDebu gger
Q ual
Ġ$ $
Ġcomple ting
Ser gio
= <
K ernel
ĠS in
ab solutely
Ġ4 7
met eor
P a
re spond
ow ler
ĠJ oda
ĠIn tern
IN NER
sb i
concat en
Ġth reat
ĠT otally
=" _
ĠView Pager
sy stems
ĠVM s
iverec ord
[ /
st an
Ġsub type
)) ))
Un load
24 3
post ing
ĠDec l
UITableView Cell
ĠCP AN
Christoph er
Ġstud ied
Ġbelong ing
Ġbund ler
t ions
ot r
14 2
Ġadopt ed
ĠKnow ing
P df
Ġf gets
com preh
ib ber
Ġref uses
Ġpopup s
inci ple
ĠCore Data
Ġmanip ulations
Ġencounter s
Report s
ER R
start Activity
URI Component
Ġa ux
Ġs oooo
88 5
Mark B
Ġexpen se
Max im
Ġqual ifier
Ġreplic ated
IDENT ITY
E numerator
ĠAn aly
Pr incipal
S pl
ĠF ULL
ip ment
Ġparameter less
me asure
Ġ"- "
Dist ance
B ooks
Ġd y
Ġim pose
ĠR S
Ġ} )`
rib bon
Ġprem ise
Ġmyster ious
F uture
P resumably
Ġhand ed
ĠEx pand
Ġfr m
Ġ9 00
JB Nizet
arc asm
Ġinsp iration
J a
Ġthere for
Ġform ulate
tr ash
ĠY UI
E van
d av
ĠD oug
ĠI con
Ġre writes
Ġcont rived
Ġtrans pose
My App
b mp
re start
Ġf ps
qu er
br idge
>` )
ĠClass ic
ĠFirst ly
gue z
en ix
over l
list ing
ĠASP X
zz z
G rig
M ade
Ġr ay
ĠM ade
AR C
ĠFore ign
Ġp apers
Ġo be
Ġmix in
Ġneed lessly
ĠT SQL
Ġbec ouse
Ġrest oring
Per formed
44 7
long itude
Ġsniff ing
N P
g reg
Ġwork station
Ġt ies
Ġ9 7
Interesting ly
snipp ets
Ġst il
', $
Ġsimpl istic
X mx
Ġcl unky
ĠM em
ĠJ STL
ĠEx pected
Ġauthor ize
Ġ= ]
") [
Gr avell
ĠMis sing
ĠN ET
gg les
Ġ4 1
Ġuseful ness
Ġdiscuss es
effect ive
Phil ipp
aggreg ate
// //
od s
cont aining
Ġsw allow
Ġach ive
Ġrepet itive
Ġbe ac
ĠB C
rec ursion
ĠResult s
ĠR TT
Ġrer un
embar cadero
A sp
j v
n h
x b
Ġw o
ĠF IR
01 6
uck et
ĠLike wise
dy stroy
vis it
# `
* [
. âĢĿ
J ordan
ro les
ĠS unday
Ġsom eth
ĠM icro
ever al
Ġaut oc
Ġaut os
To polnik
13 3
Ġprom oted
Ġpick le
ĠAb ove
Nib Name
g am
Ġre com
Ġe c
ol ite
amed ev
Inter action
AS K
format s
Ġj enkins
Ġv ac
Ġup coming
Ġ' +
Ġgr unt
ĠIter ator
or ation
Ġpo se
ass ylias
Ġ* '
get Id
cer ning
Ġspawn ed
9 00
64 1
Pl an
ĠLoad er
Rot ate
Dead MG
ĠA side
Ġinvent ory
Ġagg ress
B eware
ĠC apt
Ġab surd
Ġtime zones
Main Thread
ĠLe opard
MM V
t aking
Ġcod ers
format ter
Ġur gent
ĠIgn ore
un iq
Ġopt ed
Ġpeo ples
A void
ã Ģ
Ġ` ['
Ġsh arp
ĠW izard
ĠB atch
ure nt
ĠH el
Ġappro val
she ets
W arren
Ġ( &
Ġhop es
/ *.
Ġl xml
ber to
Ġwish es
amer on
H ours
b k
ĠP IL
Ġm map
ie go
ĠU X
sh utdown
Ġadmin istration
dri beas
4 99
: *
1234 56
ĠDele gate
ĠDrop DownList
M el
ĠI RC
al ia
ang el
ĠG reen
ru ce
Ġ-- --
DI RECT
PA CE
Ġlex er
ĠInspect or
Marko Topolnik
an ish
th ik
ĠUI Tab
action script
59 3
ab cd
ch ard
Ġder iving
win forms
Ġrub bish
be en
Ġpa used
B LE
I FI
Ġw ary
Ġin verted
84 8
process es
ĠEnt ry
ĠSER VER
B erry
G H
H yper
Ġs li
ĠD DD
gr ay
ee ze
Ġenumer ator
Ġ` ++
Ġcl ueless
** )
Develo pment
Modal ViewController
R us
re interpret
Ġdraw Rect
AN GE
auss ian
Ġs oo
oo sing
Dec ode
rÃŃ guez
A W
P RI
Ġdis missed
Ġhand shake
Ġclo jure
Ġvague ly
Ġoccas ions
H ING
at ivity
ĠSt ruct
ĠAn imation
mark et
90 6
Ġsett le
h ang
s z
ell is
n j
ĠC offee
He he
da emon
ul iar
ĠD ll
ĠF riday
Ġden ote
high charts
Sk ip
Ġwrit ers
S U
Ġ" ";
and id
ĠJ ersey
ĠF ault
SS H
str tok
Law rey
ĠHor izontal
ClassDefFound Error
Ġd p
ĠB eyond
ĠJ ay
Con cat
Ġhack ish
Ġoverl ooking
Ġbo y
Th nx
ĠP ool
ĠM Q
ĠL earning
alk er
mal ink
P in
n orm
Ġpartial s
ĠComp act
ĠShared Preferences
s alt
Ġi Cloud
ĠText Block
A f
L ittle
Ġold est
Ġoverl aps
C ant
C AP
ou rier
Ġh alt
ch or
Ġsh ots
ĠC ancel
Ġpart ies
Ġ... ).
document ed
Finish ed
C atch
F it
K han
de al
Ġst em
ĠF AT
=" +
Data Reader
ĠView er
Ġmanage able
Ġfraction al
# )
Â °
ag rant
') "
Serge y
Z e
ter ms
Ġtr ail
OP Y
Ro les
Ġlaz ily
R M
ad y
Ġment al
F ace
ĠA mer
Ġcomple tly
}, {
Mooing Duck
g ol
Ġg ar
Ġ4 096
) _
Ġc ater
Ġd arn
un ing
App s
Ġ`" \
Ġfool ish
ĠC oding
Ġbase line
Ġrecogn izer
Ġre semb
ail ija
ĠE ver
H ex
ĠT PL
Ġrefer rer
inter faces
15 3
order ing
G rad
il on
Data Bound
iter al
ock ed
Ray nos
Fig ured
R ic
ĠG ordon
get Property
Ġtrans mission
Sher lock
k l
om ar
Ġen vi
Ġweb services
Ġms build
j esh
Ġp ed
Ġg uru
Ġv ba
Ġr sync
ĠT asks
ĠT EST
Ġ{ %
ĠCR T
track er
D anny
H AV
V ARCHAR
r av
Ġc am
ĠS ync
ab la
Ġcl ipping
ĠO U
Ġboo king
Ġrect angular
D elphi
Ġpre serving
ĠT AB
ug ment
ip ed
18 3
char At
Ġcow ork
F P
b ol
Ġst ars
Ġun acceptable
ĠL ot
Ġgrab bed
Ġadvoc ate
S afari
d amn
Ġpo l
Ġtask bar
ĠIB Action
Author ization
Ġbe llow
Ġsom eday
ĠM oo
form ing
ĠSee ing
ĠCo ll
Ġmathematic s
Ġveh icle
i B
j re
j eff
n us
o ber
ter man
Ġsur vey
Ġpay ments
ĠSub lime
ĠInstall er
F W
ĠB IG
Ġprofile d
+ /
um ble
iv an
UI Button
att empt
ĠIN FO
Down voter
Peter Lawrey
A side
W es
Y ah
j ump
u cl
w get
Ġre compiling
01 1
connect ions
Marc Gravell
Oper ators
binding s
O le
in finite
Ġab sent
Ġ`! `
nat ural
( ",
ĠJ NDI
ser ting
Ġindex Of
Ġmodel ing
ch i
00 8
ĠT er
Not es
Con stant
50 3
ĠAss ign
ĠNull ReferenceException
s phere
st ory
ot a
ĠW TF
Ġup wards
to kens
doc x
DE FAULT
Enc oder
Ġinconven ience
Ġre compiled
Ġmore over
ĠObj C
j ason
str cmp
---------------- ----------------
Transp ort
preci ated
i enced
Ġc ooper
Open GL
scroll Top
ĠExt JS
Ġfro zen
V D
Ġj u
ick en
ff y
Ġdis claimer
Ġafter noon
ĠInd y
CONT ENT
M endoza
m ak
Ġre work
ĠW ant
ĠT ri
67 8
Mod ules
Ġdecre asing
N or
ĠM age
ĠH yper
") );`
Ġsatisf ying
Ġcomprom ised
T er
W ikipedia
on change
Ġde queue
ĠAn imal
Of E
]; `.
Change Listener
Ġintrins ic
# '
I FF
X SL
all ows
ext ends
Ġdraw er
Ġder ives
g is
ar sh
ĠM a
In cidentally
arch itecture
01 8
26 3
im o
Ġr ss
Ġwr t
47 9
Aaron Bertrand
WR ITE
w olf
Ġg ent
ĠO VER
Ġpatch ing
oun ced
b ag
Ġint uition
dig ital
izz le
o pp
ct ory
ĠS a
Ġoper a
do Something
ĠEx per
ggreg ate
YY Y
. !
ri ers
Ġsc ipy
ĠSt upid
const expr
Ed ge
G od
ĠO thers
Ġhas kell
Ġdiffer ing
** `
log n
Ġimm ense
Ġcapital ized
ĠRo R
ĠDAT ETIME
Ġwhat not
to l
ĠInt Ptr
black berry
p owershell
Ġ 9999
on k
ĠI e
In f
acc ordion
Ġextr aneous
N u
N icholas
So ap
Ġmind s
____ ____
C rypto
Ġb oring
Ġm asks
ĠS leep
Ġaut oincrement
Ġlocal es
Ġblo ated
M ongo
P ending
V im
s is
on ies
Ġall ready
Ġquestion able
Daniel F
ĠWas n
Ġgrow th
Construct or
v v
paint Component
Je an
ĠArtic le
ur llib
Ġcl i
Ġstring By
Ġbo at
Num eric
Fil ename
Sto ck
s ht
Ġprof ession
B EGIN
M aven
] ))
Ġa est
For ce
ĠOS es
j vm
ĠP ersist
Ġbu ried
App Delegate
97 5
Ġstri kes
Ġpublish er
cor ner
Ġinvari ant
T ob
ro se
Al ive
dele ting
=$ (
ĠG IT
xml ns
46 5
Lower Case
int s
Ġsumm ing
ĠSimple DateFormat
Ġalphabet ical
c ow
d imension
ri a
ĠE as
fo ot
Unbelie ver
um sy
end um
Ġgood ness
=" $
bit rary
/ [
ĠE urope
Ġstuff s
Read Only
44 6
67 6
Under stood
ACTIV ITY
Ġp db
Ġpro cs
Ġincl usive
Ġperform Selector
Support ed
Managed Object
( ?)
N obody
f ine
iz za
gr avity
Ġsa le
set ters
Ġimage Named
25 1
Ġ15 00
Ġcontin ually
Ġdr astically
Ġlaz iness
j mp
q ty
Ġsh im
pend ing
47 4
Ġsurpr ises
Ġleak ed
Ġsaf est
ĠShare point
B locking
t ld
fort ran
Ġplay list
Åł ime
is a
ĠJ apanese
ĠPC RE
Ġsubstit uted
Ġeduc ation
Ġloo sing
gu arant
Luiggi Mendoza
j n
l bl
Ġ' ;'
Ġrest ructure
cel able
Ġest im
nit ak
I RA
Ġc ordova
Ġapp e
ond ers
cont ract
unch eck
I ll
us a
Ġexplan atory
34 2
ĠAdd itional
group Id
instance of
Ġsympt om
id ential
Ġne x
ĠC RC
)` ).
d art
Ġa zure
ch romium
ĠF elix
UI nt
Ġvast ly
read Line
ĠT ook
Data Row
Ġunt ouch
cell ForRowAtIndexPath
Ext ended
Ġreve aled
Ġis Equal
Ġ`< <
Ġfam ous
K ay
ĠY a
Ġcorre lated
Ġins ult
Ġrob ots
Ġenh anced
ijk stra
m Korbel
w ich
Ġm other
Ġe ps
Ġv a
ep is
ĠAs king
. +
Message Box
) >
ad v
Ġsh it
ath on
b or
ĠC ant
gr ab
ĠUn ique
Sec ure
Marc us
J es
m ik
ĠF ill
Ġbr ittle
Ġwin form
P ed
Ġd ow
et ly
hand lers
ĠIN ST
OD Y
sb t
at an
ĠS on
St ud
80 3
Ġreve als
Ġy e
Ġne gate
li est
ER GE
ĠWeb kit
astic search
A z
ier re
ĠQ U
Ġre arrange
reg ardless
Ġneg lected
Http Client
ĠIntell isense
M ine
j unit
r h
ĠL aw
Al arm
90 5
Ken ny
compare To
Ignore Case
artifact Id
Ġdo d
ĠC atch
") ]
Non Query
Ġinst ruments
Ġtest able
red is
Ġphr asing
T oday
ĠE arth
ĠCom put
Find Control
Ġampers and
] *)
Ġspec ulation
Ġnumber ing
AA A
X F
Ġs ar
or i
Ġv ital
LE D
dy lib
Record s
ĠI an
Ġfl ood
optim ized
Ġ99 9
D ump
Ġqu es
pl aces
Ġro cks
url encode
Sam uel
( ..)
em ian
js ref
Gu ard
ĠRTT I
E rm
end encies
ĠH am
ĠR oman
lic king
exec uting
c as
Ġm angled
am ong
ab l
op atra
RE AT
ĠY MMV
State Exception
dec rypt
fade Out
Ġcont ributing
Ġz lib
Ġcoll abor
c led
Ġr gb
ĠP os
op ener
typ ing
Ġb ob
Ġcl ash
Ex amples
Per cent
Tom as
ĠMedia Player
C AD
it r
ĠDB s
ĠSe an
Ġmock ed
st upid
ort on
Ġ5 9
NS Integer
ĠSu pp
Ġshad ows
re solution
Ġin advert
lo p
Ġem itted
Ġconstr ain
Ġprotect ing
ĠDO CTYPE
Compar ator
Y OUR
ay ers
Ġlike wise
Ġpost fix
Ġtr ay
Ġreg ret
Ġclo b
File System
before unload
ĠOut Of
l ating
Ġi vars
Inter op
199 9
Full OfE
ĠGUID s
Resol ve
s ong
ĠS epar
Ġ[ :
ĠE M
Re ason
ĠST ART
ĠAss ume
Ġt body
ĠPer iod
ĠPr ice
OUR CE
Ġenorm ous
R everse
V a
à ¤
el ery
cl s
60 2
pass ed
sn apshot
Ġexc ited
YS IW
Ġb anned
Ġav g
sc rap
AL ayer
Format Exception
Jeff rey
FullOfE els
Ġh w
as ide
Ġpro ps
il io
ĠH uh
Ġ[ _
ĠF eed
Ex plorer
Ġsk ype
Ġcompl ained
ĠExec ution
flat ten
g oog
ĠC red
Ġsub tree
Act ual
Ġsever e
pared Statement
V ote
b irth
oc ial
Ġconc ur
Tim estamp
equ ality
- *
D ll
ĠD am
Ġworking s
ĠOr gan
SE rror
ĠData Template
Char lie
b ak
ou red
Ġd ub
Ġsu pers
ood y
ĠMost ly
Ho ly
Ġglass fish
b low
} }`
Ġw id
Ġb ounce
Ġsp ots
view Did
ĠĠĠĠĠĠĠĠĠĠĠĠĠĠĠĠ ĠĠĠĠĠĠĠĠĠĠ
97 4
Ġloose ly
. :)
Ġb le
Ġp m
al chemy
Ġtrans mitted
ĠK ernel
B lob
temp orary
Ġaccident al
ro ys
new line
Ġunt ill
ĠNS URLConnection
ibber ish
n ey
Ġp itch
Ġst umb
Ġty pename
Ġdist ur
Ġblob s
ah l
web apps
Ġstd lib
ĠBuild ing
OB JECT
Ġcompens ate
V ictor
k on
Ġ" ?
ob o
Re ed
ĠLe ave
ĠViewModel s
activ ated
C MS
qu i
ĠB log
ĠP olicy
Ġrel ax
buffer ed
d am
ĠA pril
Ġstr cpy
Wor th
Ġweak ness
c g
Ġp ig
do jo
26 1
ĠWeb site
Clo sed
S ri
b h
r in
Ġtri mmed
To One
Tr avis
57 2
ĠOpen MP
match ed
In line
Ġconsider able
ĠJAR s
v l
Ġto ggling
ed ResultsController
Ġn er
Ġsp atial
Ġlog on
Ch ecking
Ġcount down
": {"
Ġsubclass ed
ĠNe il
autore lease
ĠFIR ST
et o
Ġpre processing
ĠIn cluding
NS Object
sub class
Ġinteract s
Ġsuffer s
Ġannoy ed
d put
Ġ" **
get Current
Ġcommit tee
enk o
ĠCre ated
en de
Ġbe g
app spot
Ġro oms
ok i
Ġ100 0000
Ġdri ll
Ġprom otion
d td
Ġm angling
Ġbe gun
Ġ1 11
ĠSt and
yn ch
Ġ8 000
'] )`
open ed
connect or
Ġcra ft
Ġinsight ful
Binding s
ĠEm ulator
Ġreluct ant
o ly
pl ane
ĠG allery
ĠSh ape
run s
uc umber
Phil ip
Dist inct
Infl ater
Ġf ut
Select RowAtIndexPath
Ġseper ately
Ð° Ð
s atisf
ĠF ail
Ġinv ocations
Ġauto load
CD ATA
-> _
ĠBe autifulSoup
Ġabstraction s
c dn
Ġab ilities
ĠEntity Manager
Hovercraft FullOfEels
R ub
Ġin exper
gr ow
ra f
Ġdec ipher
ĠView Bag
Ġbal ancer
Ġp t
do ctype
ĠID LE
Dele ted
H er
Ġs b
set Background
loc als
Ġstretch ed
kn ockout
S ent
Ġto do
Ġj re
ĠWeb Client
Thread Pool
Clo sing
ĠviewDid Appear
sever al
' ".
l anguages
Ġch erry
... `.
li x
enc il
ĠK in
Ġa fore
ĠN UL
ven ue
gener ics
Ġbroad er
Br and
. /
E P
\ ",
w ed
av atar
ĠF ace
Ġclass ification
ug ly
Build ing
ĠNew s
pur ch
Ġbi ased
AR CH
Ġtrick ier
ĠBig Integer
ĠLuck ily
T imes
.. ,
Ġen ergy
Ġcur ves
Process ing
ĠJ PG
sh er
in cluded
DU CT
Pot ato
ĠConstruct or
W oo
web View
67 5
feature d
ĠFr ank
Ġfirm ware
est ring
pe ater
ĠT L
ĠAr abic
66 5
???? ????
ra k
) |
K now
O uch
it to
view port
Ġthreads afe
ĠInit ially
S qu
Ġn ifty
Ġj ohn
sp inner
User ID
H ook
Ġcon gr
Ġ1 10
Ġprob s
}/ {
D rew
St at
ĠReg istry
sch eme
struct ures
comput ed
Ġst ray
ĠO OM
raw berry
oh ana
host ed
\\ \\
Sort ed
Ġf rench
gr unt
Ġmult it
44 5
Ġcoll apsed
NO RE
ĠTrace back
Ġpec uliar
m h
ac ade
qu iring
ĠL ength
Ġdown grade
.* "
Ġphr ases
ĠNon etheless
consum er
Hor izontal
* ...
B ear
G abriel
Ġlog arith
Ġing red
R ules
Ġ QL
ari a
80 2
Ġunivers ally
l ucene
reg istry
ike gami
54 3
dat asource
Ġmicro seconds
Pixel s
Ġreprodu cing
Ġvisual ization
Ġ($ _
Ġresort ing
Ġliber ty
Ġgranular ity
M s
be e
Ġmist yped
ĠPar sing
Ġfunctional ities
Ġrapid ly
) ];
Ġ( **
Ġlike lihood
Ġinter mitt
ĠEx p
ĠAre a
rap nel
M ix
in form
ĠA hh
ĠR IGHT
Ġlist ens
ok ie
Ġreli ability
ivers ity
m os
Ġsp oke
Ġmarket ing
` /
null able
ĠSte ven
lar avel
ĠXY Z
S CH
u itableview
Ġw c
ĠX Document
Ġenumer ating
Design er
C N
R PC
ur ations
ĠD er
int rodu
RE PL
EX E
Ġextens ible
s ess
ss s
ĠAS I
return ed
IC ODE
Ġimm utability
Str ategy
Ġp ile
Ġac ron
ĠT cl
uh an
Ali en
ĠDevelo pers
Ġsyml inks
AUT H
Ġm ile
ĠH istory
Compar ison
separ ator
m om
ĠS cr
ĠC AP
Ġinter medi
sh o
Ġinv ite
oh emian
share point
comb obox
ĠOrig in
F amily
S can
W il
Ġw char
Ġkey down
Ġmo zilla
lar smans
B runo
Ġ` )`
Ġpo ke
ĠT ags
set On
code c
Ġapolog ise
UG E
S ant
ard ed
op es
++ "
UI Kit
Ġachie ves
Ġscrew ing
Ġstum ble
L ets
c reat
ar tp
to Array
ony ms
DI FF
b read
h us
Ġinter oper
tool bar
ĠOC aml
m ario
n aming
Th ought
am al
14 1
47 6
Null ReferenceException
T alk
Z ach
ip ing
side bar
39 3
Ġimag ined
Ġmed i
% )
f ro
Ġm ic
Ġp ow
Ġim practical
IB LE
Ġnan osecond
} ;`
Ġs id
Ġh ub
Ġde p
ĠR OM
app let
ĠEx plicit
ĠPro c
04 7
ĠIP N
Ġlic enses
simpl ified
L ouis
Ġdesign ated
ĠCom b
Trans ition
Ġdead locks
scre ens
O mar
Ġf yi
est ures
id a
ex pen
() **
Per iod
Ġtri e
Ġfin ancial
Par sing
omet ric
Ġexhib it
J Panel
g arbage
on ed
Ġcl umsy
ap sing
ĠDo jo
Ġmult icast
Ġnames p
44 3
TH IS
Port s
Ġsubstant ially
: ]`
f w
ow ired
ĠF ragments
"? >
Ġuncom pressed
n w
Ġon Touch
ĠF in
sp acing
69 4
ĠTH anks
typ ically
ĠA W
(' \
Ġfar m
Sub views
} {
Ġ8 8
App ly
Second s
Ġelabor ated
H K
Or ders
97 6
amb ig
Diag nostics
ĠSen cha
L ess
o ften
om g
Ġe ct
Ġv oc
Ġqu irk
Ġde precation
Ġact ors
10 64
Data GridView
tn x
ĠKey board
Follow ing
ĠREG EX
at ern
Ġ" ="
Ġget line
With String
/) ",
AS M
Ang el
W iki
w artz
ap ed
Ġref rain
Item ClickListener
run ner
Alex ey
ĠColumn s
B IN
Key Down
Sc alar
Ġdict s
ĠWH AT
Pass ing
ch ecks
Ġsh ebang
web driver
When ever
Pri mary
ĠLo gger
YSIW YG
, (
E scape
T uple
` **
h ail
Ġb ang
Ġj unit
Ġquestion ing
Ġcomp ly
ĠNE ED
supp osed
C orrection
L ow
X HR
er ting
or in
set Image
Ġsub select
ĠJS cript
Ġresp onder
super cat
ĠReport s
Y u
are as
Ġpre load
plic ating
og en
15 1
40 8
49 4
Min or
spl ice
Ġt m
Ġs f
Ġp do
Ġn t
av g
Ġuntouch ed
V oid
Ġd iver
ĠR ows
Ġauthor itative
Ġcoll ide
Shared Preferences
ĠM ID
ĠV AR
18 1
Ġreli ed
Ġâ Ĩ
Ġsurv ive
Ġw are
de let
Ġk b
ĠG U
ĠG ray
pre m
Ġweb socket
Ġem ulation
Check out
Ġmaxim ize
ĠPop up
r abbit
Ġc ust
ĠV IEW
ge ocode
RE M
')` ?
Ġabstract ed
dist ribution
Ġsys admin
Ġco variance
ĠJ B
orre nt
Al tern
Ġvan ish
intern ational
S iddharth
Ġd ns
ĠF PS
ĠT ech
ĠT RA
port al
" \
N B
pt ana
ĠSql Command
ĠSay ing
ĠAl right
Ġsens itivity
ĠOrig inal
âĢĮ âĢĭ
D J
b idden
Ġs bt
Ġon Draw
ĠM AMP
fig ure
ĠCr iteria
Jam ie
E cho
pp able
ĠD PI
Ġresult ant
32 69
29 1
prot ect
pag ination
Arg uments
J Query
an ci
Ġrem ained
Ġ} ).
For Result
Index OutOfBoundsException
rec ent
det ection
Ne al
appear s
Ġcancell ation
s ass
Ġe ax
Ġweb sockets
Ġwait ed
leg acy
Ġpaint Component
4 35
C ent
S ender
se p
ĠO rient
Ġ' </
Ġper m
get Parameter
ĠNo v
index ing
Col lect
Ġear n
pack et
Reg istration
Ġsubject s
Ġkernel s
Ġcraw ler
D OS
L und
c Hao
Ã ¥
ĠI OC
Ch ad
ON LY
Ġyou ng
art ist
iz en
Ġ? .
Ġkey chain
Ġrece ipt
arb on
Ġconclusion s
IsNull Or
Ġ ether
Ġnot or
You ng
Ġport let
Ġhome brew
Ġdeb ian
T ile
ul o
Ġdiv is
66 8
")` ?
cr itical
ĠThought s
D av
E ugene
Ġb az
it an
... ),
Ġsc ared
Ġhtml specialchars
cce ler
consider ed
M AN
Ġsp its
ĠE V
Ġdis crimin
="# "
" =>
O ct
ar o
are th
ĠF inder
Ġrepresent able
mem set
M ob
` `.
c ars
sw ith
ĠC ookie
ĠL ove
Ġaccount ing
Fl ush
ĠThink ing
Pri ority
Ġdecrypt ed
pax diablo
Andr Ã©
3 85
X y
b rian
r k
in ator
ot or
im edia
pp e
ap a
ĠF IFO
Ġbu gging
18 2
Ġl it
ĠS now
Ġsub modules
Ġbel ive
me g
iqu ette
program s
Syntax Error
Ġgenuine ly
4 20
E sc
F ort
Ġc ri
em ale
P adding
n uget
Ġac quired
ĠR a
Ġrec ie
dat atable
current Time
Ġč Ġč
engine ering
st reet
Ġg erman
af a
Ob servable
address es
rm addy
oooo oooo
Ġinconven ient
P ol
c make
ĠIn cidentally
St amp
developer works
ne ither
Ġdecor ators
Ġ'- '
ĠCh annel
section s
ĠGener ics
Ġcake php
Ġc gi
sh ows
ĠInter op
car ousel
C e
ak i
sp rite
ĠDream weaver
% #
B ingo
qu ant
local Storage
David Rod
Ġkill er
Ġconvin cing
U V
") ).
ĠSh ame
Loc ator
Ġl isp
Ġr own
ah hh
Query String
Ġdialog ue
asc x
ĠPO I
escap ing
apro gramming
, _
C ertificate
n ach
Ġm ir
ĠT S
ĠSt ud
Ġcir cuit
B ash
P ur
val ued
Ġel igible
ca f
Ġexp iry
Ġpin ch
ce lo
res co
On MainThread
UI ImageView
men us
techn ically
K ill
ic ense
ĠB all
ive k
Ġcol ons
13 1
File Dialog
44 8
RA ND
Q T
j g
Ġw onders
Ġh el
Text Block
Sub scri
agh etti
ĠPE P
B its
r gb
st ef
et ion
ic an
ic ht
Ġbas ing
RL F
Be autiful
oper ations
F M
it i
ur day
ĠM ong
ĠD ro
Ġtem perature
ĠFile Stream
Martin Smith
Put ting
Ġmutex es
Ray mond
Hope fully
Ġf ee
Ġit ertools
ent rant
un like
les h
filter ed
Ġpip ing
ĠOper ation
l ag
Ġf ades
sw atter
ĠM PM
IN CREMENT
loc ate
Ġfree zing
"] ;`
Comb ine
Ġsp o
user content
ĠUser name
cr umb
Tree View
S om
Ġdest roys
Hand ling
ĠJOIN s
N a
f atal
h ab
i ates
Ġp ins
th rows
ution s
Ġwar m
illa ume
Selected Value
Ġtrunc ation
Ġderiv ative
Ġdesper ate
S ud
h aven
Ã £
ues day
ĠAl pha
Ġaim ed
cir cuit
Ġforb id
j andro
ï ½
Ġs idenote
() *
Ġev ident
ash x
Ġf ellow
39 2
Jon as
ĠMer ge
ĠComm unity
Sa unders
S ilverlight
r pc
am an
el oad
" (
j t
Ġs incere
Ġex clusion
Ġun ions
In correct
Con sum
Ġ6 6
"); `.
E ar
M mm
b urn
Ġtr ave
29 2
Ġbro ker
G b
o ll
Ġl oud
Ġadd Object
pe ps
min itech
ivid ual
ĠPC s
Spec ifically
5 37
H old
ĠB or
Ġ5 7
mm ap
From String
46 8
Dave Newton
s ry
ĠH udson
ph il
16 2
Ġquick est
Ġcontrad iction
Last Name
Ġreopen ed
ĠProf essional
L ear
ĠS eb
Ch en
App let
Time Zone
down voter
ris m
Pre ferred
Ġtransfer s
Ġos x
Ġdecomp ile
m our
Ġb c
Ġd yn
ll ite
Ġ" +"
Ġdis ks
ĠSt oring
19 1
__ (
Ġ200 6
Ġfrequ encies
Ġpreced ed
Ġtroubles ome
Ġlicen sed
cro oked
on a
re putation
Ġis o
Ġ- .-
ĠV oting
Re view
cy gwin
ĠCre ator
Ġslic es
B ASE
f ew
p asswd
ĠW W
ount ain
ge om
67 2
Ġsubscri ber
Ġconcent rate
j oomla
Ġm iles
se em
val grind
inst ruction
count ing
:\ "
Ġ"$ {
vog ella
C ookies
Ġa a
Ġre claim
Ġcon solid
get ApplicationContext
27 3
Ġap is
Ġhy phens
Aut ore
im mutable
Ġ> .<
Ġdel im
Le ave
(... )`.
feed s
Ġsnapshot s
ĠCompar able
ĠAUT O
f reak
ab ber
Ġret ract
Ġobject ion
Ġbook marks
' -
D ifferent
ĠC M
play ing
') );`
cast le
Ġodd ly
ij ay
J asper
em u
em er
ĠDo g
ĠCh ances
19 70
step s
Ġanalog ous
urch ase
- .
C as
is dom
Ġqu arter
ĠT aking
ĠAS MX
'] [
Ab ort
rist ian
Ġquad ratic
an ubhava
Ġx debug
Ġdiv isible
ĠK er
John y
Ġrad ians
Ġden ominator
Ġgradient s
Rot ation
kw args
Ġ* `.
Ġ8 5
Ġmo vi
Fire bug
Return s
6 55
t ax
cl an
ick ed
Com plex
Ġintrodu ctory
Es ailija
h iding
st ates
Ġfor king
un do
ĠO p
List Adapter
first Name
ĠSec ure
Ġmass ively
hack age
rot ation
, [
D rive
Ġ eth
Ġr t
Ġno one
ps y
Br anch
Ed ward
author ization
poly morph
Fore ign
"}, {"
datat ype
N SS
ag nostic
url encoded
Ġ64 0
PL AY
Ro yi
Ġrecy cling
B oris
C razy
?? ???
pri mefaces
Ġworld s
Rem y
odb c
ĠS ty
user Id
Ġhead ings
s lightly
in ated
ut z
get Bytes
Ġtext fields
su ed
67 0
ĠSign alR
Present er
ĠOutOf Memory
) ==
V K
Å Ĥ
++ '
Ġsl im
Bo y
,, ,,
ĠEn joy
ĠPri me
Andre i
H az
p edantic
at ik
val s
Ch uck
java fx
Ġprec ious
7 68
v x
Ch ooser
86 3
arr ish
Ġlif es
tt f
A I
R ock
Ġi ostream
Ġse aled
ign ificant
edit ion
__ _
Ġident ically
Ġdem ands
ĠCont ract
Ġmultip rocessing
NOT E
Ġarr anged
ĠP I
Ġsim ulating
res ume
cur r
Ġalphabet ically
pos als
Ġlif ting
ste in
Ġmoot ools
K h
i ot
Ġre vers
ĠT ony
Ġ-- ->
xml http
Ġmy site
Ġde preciated
he art
Dis patch
ĠMark down
Expression s
gd oron
ĠKn ockout
Ġcoefficient s
w ater
Ġweb pages
ĠCont ains
90 8
ĠGet HashCode
Ġang ry
Ġenumer ated
ĠTem plates
capt uring
Ġartific ial
E li
Ġout lets
yp ical
Ġmet eor
Ġperiod ic
initial izer
Ġdecom press
Ġadministr ative
n io
ag a
tr ust
RE C
With Options
Ġarch ives
au er
l ush
ĠF un
ĠF red
ites h
47 8
ung jan
Consider ing
Ġincred ible
bal anced
ĠDR OP
Ġn om
Ġqu iz
ĠM AN
Ġpart ner
Ġsm artp
ĠRe quired
Ġknowledge able
ĠRes et
Ġarchitect ural
Config ure
Ġdisappear ing
Ġcommunication s
Ġequival ence
() +
Ġfile path
As soci
ĠSS D
Ġtiny mce
Ġball s
ĠCO ALESCE
G umbo
d aniel
p ie
ĠC assandra
Ġup set
Ex cuse
My Object
ĠCheck out
ĠTable View
Ġinf os
Har vey
DavidRod rÃŃguez
. `.
D agon
H L
f read
35 3
del ta
G host
n abble
de part
ep s
Ġfactor ial
OO OO
Ġmoc ks
ĠREPL ACE
Grig ore
Ġa kin
Ġc ult
le ppie
Ġco in
ĠR TL
Ġper mits
enc ryption
Ġdec orate
Ġpos ible
17 1
ca ption
co ordinates
ĠDOM Document
`$ (
ĠRTF M
x ec
Ġw el
Ġex pr
16 1
he avy
67 4
ĠMV P
Ġblow n
C AST
C ertainly
n ar
im possible
ĠE lements
ĠX MPP
ĠPass ant
c ust
Ġ" );
Ġpl unker
Ġcert s
Ġprot obuf
Tr acker
gener ation
Mar gin
\. \
Ġexha usted
affect ed
Ġafore mentioned
G M
e on
oc ity
35 1
Ġexperiment ation
Ġerr no
Ash win
; &
Y et
p es
Ġb anging
ec om
Ġr c
Ġcoll aps
Inv ocation
B eck
Ġm ob
ET CH
PA SS
IB Action
Ġgather ed
ĠClo sure
m irror
am odel
ass ume
sl ash
Ġbypass ing
STAT US
un i
ig ar
ant i
ĠF ine
01 3
Ġmis placed
ib on
28 3
Ġdecor ated
ĠLast ly
sht ein
c ordova
Ġ Âł
Ġch ains
ans om
Ġmessage box
ĠLin ks
ĠDes pite
ĠWS GI
Ġcontradict s
Ġcro pped
time it
Ġaw fully
ĠDIV s
Ġproportion al
m ich
ĠS Q
Ġx or
fe et
Ġlib xml
.* ?
Ġpatch ed
UB L
r ical
ĠS U
ĠO CR
ĠE v
pre ferences
Re ferences
scroll View
Ġzoom ed
NE CT
= )
o logical
Ġm c
"> `.
Item Selected
Ġ`{ `
ĠPre fer
Ġphoto shop
cir c
Ġc tx
min s
Ġdu h
Connect ed
ĠTh eme
and r
Ġ' ')
new Instance
36 3
sr f
re pos
Ġif s
Ġ' __
24 1
select ing
parse JSON
Ġaggreg ates
Ġt apped
Ġa st
in validate
ab ric
ear ly
Answer s
N ested
V IS
l q
m us
ap ing
po l
par sed
(); `,
cle us
Ġrecur se
Rob G
F x
is nt
ĠS axon
OT O
ba um
Ġadvert ise
pot entially
ĠS pace
te o
Ġcol oring
Ġposition al
28 2
ĠAtt ach
wx r
Ġparan oid
N L
W at
ĠTh nx
Ġch k
if ference
Ġun fair
Ġcall ers
)) );
Ġmix ture
(? :
Const ants
( ['
code pen
NS UserDefaults
Dis able
jo el
Ġpa lette
Tom cat
Mo zilla
Fore ground
t od
Ġon ActivityResult
Ġse lling
Ġse ldom
ak k
work ers
ĠCh oose
has OwnProperty
Ġrecur ring
conf lict
Ġbottlen ecks
hint s
>... </
o sing
ĠX amarin
An notations
echan ize
Ġinspect ed
ĠTrans form
Option Pane
Ġemploy er
Ġp as
ĠD art
ol ink
Ġ! -
Po pover
49 5
Ġfif th
( +
ĠA G
Ġaction script
Ġboot st
apid ocs
L ang
P ub
b ler
com es
Ġup side
ĠP artic
CT RL
Ġ`[ `
Ġmer curial
Create Instance
Ġmechan ics
Ġcapital ization
Ġw ipe
ud it
22 22
69 8
Ġrot ates
Br own
Ġenfor cing
C ome
] )`.
t ier
pl ug
ĠN eo
pro filer
for Name
Ġbel ieved
Ġcrit ique
Ġher ring
bro adcast
impl ode
C ircle
D ue
re ll
Ġresol ver
vo king
(/ \
irty dot
I ABLE
Ġ ribbon
it ly
Ġj ax
ĠD ID
Ġafter ward
Ġexecut or
ender lich
Ġwire less
text ure
ĠPost ed
branch es
PRE SS
h ive
ct x
Con n
Post ing
ĠSu ccess
ĠAtt ributes
Bob by
S ections
id le
Ġ' ='
); }
ĠHT H
Ġwar r
Ġmar sh
ĠDe ployment
Ġdeleg ated
D roid
in el
int ell
ĠR AND
AT OR
Ġrout ed
Wait For
ĠIDENT ITY
* ;
C ALL
lo v
App Data
27 1
FI X
Gener ated
direct ive
Keith Thompson
D ES
U LE
pre pend
** "
link er
Ġsmart y
bb b
Ġexperiment ed
Ġcompreh end
Lo gging
H E
k ins
w est
Ġst one
oc enter
Ġend l
ib yte
sort able
Ġmath ematically
authent icate
ĠCa used
Ġclass ical
Ġform ally
min ute
sub set
Ġcomplic ating
Ġsal ary
Ġtun ed
Ġcriter ion
Ġd nt
Ġd eck
Ġn ine
ĠB ottom
ĠE ar
tr ick
Ġ`" "`
ĠStream Reader
ĠAttribute Error
Ġbirth day
n v
Ġnew b
55 3
start s
ot ools
are t
Ġfirst name
set ContentView
ĠCh romium
sim on
U U
c orre
m ers
n al
ch eers
ĠS al
ĠF ocus
ark er
Cl ar
For ward
Ġmaintain er
Ġmask ed
Plugin s
7 07
O G
s at
Ġg a
ĠC ourse
ĠJ EE
ĠF ar
ey mour
37 3
Ġir b
Gu pta
ĠCast le
G em
r spec
ĠM IT
view Controller
Ġactual y
Ġdist ributing
Ġfish y
am ation
ĠW YSIWYG
Ġvis ion
tw ice
Ġobj c
Ġenlight ening
Ġh h
Ġpro j
out ube
Ġspeed y
U X
f light
h um
ĠC alcul
col iru
ĠMemory Stream
bench mark
Luchian Grigore
O LE
Ġdo sen
ĠD IS
put Extra
Ġweb apps
Ġfeature d
Ġ) `.
const ants
" }`
ã ģ
Ġc asing
and al
ĠM DI
Ġen emy
Ġstruct ural
Ġoptim isations
Al chemy
] ",
ĠM ess
ĠView Data
Ġmonth ly
Ġprogress bar
Ġcontact ing
Ġsusp ended
ĠCoffee Script
P rec
a ux
Ġanswer er
lication s
kill s
Rud olph
K o
g mt
Ġe ating
as semble
Ġall ot
og an
ĠAS M
K r
T ypically
Ġfl ight
stud y
ĠM ad
Ġsol ver
ĠU i
Ġproduct ivity
cr an
bal ance
repl acing
Ġnex us
Ġd ied
Ġre deploy
ly a
Ġuse case
St ructure
Ġpass enger
Ġop code
on lined
ĠT Y
Ġdis posal
Be ing
Sub string
gd x
warning s
7 89
Ġa lex
Ġsp roc
Ġstatic s
ĠProperty Changed
Servlet Request
comple ted
associ ation
Ġautogener ated
curi ous
Ġ` ;
oc used
Ġslow ness
el le
ĠO leg
post gres
search ing
rel ational
Bar ry
Transaction al
rev or
High light
infl ate
} ).
Ġp d
im prove
(" ~/
99 2
dig est
ĠSk ype
T X
Ġd pi
ĠH P
Ġ= '
Ġshared Application
ĠTO DO
Â §
Ġt aps
text View
ĠPl an
Ġforward ed
Ġlic ence
Begin Invoke
ĠVer ify
Ġsmo other
R oland
l apply
Ġ6 3
Ġexplic itely
[] `,
Ġextract s
John Saunders
GL OBAL
Ġbaff led
12 00
new thing
RE LEASE
image view
39 1
dele g
Ġprior ities
: _
Ġi v
Ġm ssql
ĠU nd
Ġun loaded
face palm
sm ith
Ġblow s
Shar ma
.. \
__ `.
Ġdraw ables
Ġdispatch ed
ounc ing
Ġt s
Ġb b
pt s
ist oo
Ġ/ ><
ĠAuto Mapper
trash god
h q
it ize
Ġr g
ĠR IA
we igh
Ex plain
ER IC
thes is
last name
Ġbul lets
Ġmal ware
ĠMet ro
Ġe igen
Ġ( *)
il gar
ĠJ QM
Ġmet aclass
prefer ably
, ..
J un
V ersions
as a
cri p
ĠR hino
li et
Ġ} '
Vari ant
Ġcomplaint s
E mp
un iform
Ġ? >"
Ġoff ensive
Ġcr ow
File Path
dash board
A NSI
D omin
J C
M usic
j enkins
u ations
ĠC TP
up vote
++ )`
Ġz ipped
As sets
56 2
revision s
- "
_ <
Ġs oul
ed ing
iv irus
ĠE numerable
Un related
ne utral
TL ama
ĠA spect
Ġk ids
Ġ1 200
ĠJ une
ĠCont rollers
Ġimpl ication
Start ing
Sl ide
istoo short
$ ('#
in h
at om
am d
ĠS he
sh if
To File
lit b
D ates
Ġre interpret
ĠN ginx
ĠL uke
inter sect
ĠK it
old newthing
Ġworth less
DateFormat ter
sens ical
w ont
Ġw i
ĠI sol
ed ed
po or
100 000
35 2
J PA
` #
Ġbe ll
Ġex cludes
Edit able
fast est
f avor
k un
ĠN TFS
itt est
ans i
my Class
ĠUn fortun
Ġslow est
Pri me
ĠLoc ale
Other wise
Ġcart esian
) ....
M uhammad
f ge
Ġc it
inter rupt
Ġcomput ational
Ġupgr ades
B eta
Ġb attle
Ġp added
Ġret rive
cc c
Ġsuccess ive
47 0
Ġunn amed
ĠIntegr ation
= ?
r ated
Ġun iq
ff ix
vent ory
ĠSh arp
Man ual
Ġengine ers
Sch ools
Ent ries
Fernand es
Ġb mp
Ġo c
Ġun responsive
Ġrefer ential
ĠĠĠĠĠĠĠĠĠĠĠĠĠĠĠĠ ĠĠĠĠĠĠĠĠĠĠĠĠĠ
Ġcompl ication
Ġcred ential
Fragment Manager
person al
SN APSHOT
DanielF ischer
[ **
k et
p b
Ġh m
are llo
64 3
ĠHe ap
ĠGener ate
End ed
ĠCON T
inser ted
le v
ri l
cre asing
We ight
kle opatra
Ġrephr ased
onlined ocs
m df
Ġal erting
Ġ- _-
ĠTime Span
She ets
bu y
37 2
ĠGu ys
ĠField s
transp ort
cn f
ĠB etween
Ġcombin es
IE D
decl type
ĠSpec ial
C u
F IELD
c ertificate
x ff
ld ap
Ġle ver
Ġfli pping
L etter
Ġha z
... :)
end ants
Ġsim ulated
Ġind eterminate
Ġins ignificant
Ġcontact ed
ĠSu bject
background Color
Ġshut ting
ĠR aj
Ġquery set
ĠIM AP
year s
expl ained
ETUR N
? _
D iet
I ES
se g
Ġcomp os
Ġav atar
post back
SY STEM
ou ncy
Ġread line
Ġsuspect ing
ĠTermin ating
Ġout s
ĠE AV
Ġoptim istic
Ġtooltip s
Ġ Î
iv o
ĠJ IRA
Ġret re
Ġfun tion
Alex andre
Oli ver
mu istooshort
FLAG S
ĠI Collection
Ġg estures
ab ases
sh i
Ġconver ters
Ġstand ing
Ġchild s
49 6
En v
ĠBro adcastReceiver
ĠTiny MCE
H EL
m ass
Ġcont est
Ġrec alculate
Ġauthent icating
Oper ator
publish ed
Th ings
Ġst ability
ong r
li ps
col our
Ġsync ing
te ach
Ġunt ested
ĠMe ans
Rohit Jain
I SS
Ġst ories
Ġad obe
php info
49 8
Us age
epis odes
clan rs
G ui
g ender
Ġl enght
ate ur
fo e
Invalid ArgumentException
Ġg am
ĠO W
ext remely
con straint
Ġob st
ĠCont acts
Ġrecogn ised
Ġinconsist encies
M ur
Ġde grade
Ġsc ream
Ġlocal ity
Ġ`. *`
Ġaction bar
Ġconvert ible
ĠWeb Driver
Ġpain ted
graph ical
Ġdiag nostics
ĠNew ton
MA KE
Ġapostroph es
n ig
ĠM ich
Ġsp aced
ash board
89 1
Ġfade In
Top ic
Ġfli pped
Debu gging
` ".
y t
on f
qu ent
ĠC W
Ġup s
Ġsub script
no v
ĠAx is
Ġparametri zed
A lo
Ġtri mming
li ers
ip art
ĠK VO
mark ed
anc ies
ĠRE F
DI V
rep aint
4 17
ĠS om
Ġarg c
no kia
Ġprim efaces
Vert ical
ĠUltim ate
g amedev
Ġc ash
Ġr ite
rom ent
ĠC amel
ĠD a
Ġtit led
ĠPay pal
ĠSelected Item
smo oth
B D
in herit
ĠH UGE
Cont inue
mm utable
ĠMS MQ
O scar
T LS
an on
ĠL ol
br ain
for get
ĠĠĠĠĠĠĠĠĠĠĠĠĠĠĠĠ ĠĠĠĠĠĠĠĠĠĠĠ
ram id
ĠNames pace
G uffa
_ '
Ġf reak
ĠL C
Mar cel
ĠFl ask
Ġcrypto graphy
Sched uler
G eek
ul se
get External
56 3
Al nitak
Ġlove ly
Ġexpress ing
rece ived
Ġcompet ition
Ġs ilver
py c
ert ext
ĠPK CS
ĠTortoise SVN
am ber
est and
ml ess
Ġdef ense
Ġmem set
my String
(" @
Ġchanges et
ĠY ork
ĠSDK s
filter ing
RO SS
never mind
Cre ation
inf ocenter
S id
b lo
Ġre bind
Ġre arr
to LowerCase
ĠV ote
text field
App ro
34 1
Ġpip el
Ġsett led
ĠAlert Dialog
Ġdowns ides
Ġw av
Ġd w
Ġy u
Ġdo se
Ġ" ")
Ġselect able
mm mm
su ppose
Lu is
capt cha
ffy mo
M ED
O DBC
g zip
ch ic
az a
Ġvirtual ization
First Responder
Dis position
ĠResult Set
Ġaccum ulate
Ġo we
Ġdo ctor
Ġj ud
ur ance
Ġrefer er
Ġem pt
28 1
Vin cent
Ġcoco a
P ers
e arch
Ġs ink
ĠJ asper
ĠFor get
Ġspe aks
IT LE
"] )
b ank
m ur
u uid
Do ctrine
Le ven
DS M
explicit ly
ĠFeb ruary
ĠAF Networking
st ick
Ġinst inct
ĠR x
min or
back end
Read Line
Result Set
amer as
[...]
