{"<s>":0,"<pad>":1,"</s>":2,"<unk>":3,"<mask>":4,"!":5,"\"":6,"#":7,"$":8,"%":9,"&":10,"'":11,"(":12,")":13,"*":14,"+":15,",":16,"-":17,".":18,"/":19,"0":20,"1":21,"2":22,"3":23,"4":24,"5":25,"6":26,"7":27,"8":28,"9":29,":":30,";":31,"<":32,"=":33,">":34,"?":35,"@":36,"A":37,"B":38,"C":39,"D":40,"E":41,"F":42,"G":43,"H":44,"I":45,"J":46,"K":47,"L":48,"M":49,"N":50,"O":51,"P":52,"Q":53,"R":54,"S":55,"T":56,"U":57,"V":58,"W":59,"X":60,"Y":61,"Z":62,"[":63,"\\":64,"]":65,"^":66,"_":67,"`":68,"a":69,"b":70,"c":71,"d":72,"e":73,"f":74,"g":75,"h":76,"i":77,"j":78,"k":79,"l":80,"m":81,"n":82,"o":83,"p":84,"q":85,"r":86,"s":87,"t":88,"u":89,"v":90,"w":91,"x":92,"y":93,"z":94,"{":95,"|":96,"}":97,"~":98,"¡":99,"¢":100,"£":101,"¤":102,"¥":103,"¦":104,"§":105,"¨":106,"©":107,"ª":108,"«":109,"¬":110,"®":111,"¯":112,"°":113,"±":114,"²":115,"³":116,"´":117,"µ":118,"¶":119,"·":120,"¸":121,"¹":122,"º":123,"»":124,"¼":125,"½":126,"¾":127,"¿":128,"À":129,"Á":130,"Â":131,"Ã":132,"Ä":133,"Å":134,"Æ":135,"Ç":136,"È":137,"É":138,"Ê":139,"Ë":140,"Ì":141,"Í":142,"Î":143,"Ï":144,"Ð":145,"Ñ":146,"Ò":147,"Ó":148,"Ô":149,"Õ":150,"Ö":151,"×":152,"Ø":153,"Ù":154,"Ú":155,"Û":156,"Ü":157,"Ý":158,"Þ":159,"ß":160,"à":161,"á":162,"â":163,"ã":164,"ä":165,"å":166,"æ":167,"ç":168,"è":169,"é":170,"ê":171,"ë":172,"ì":173,"í":174,"î":175,"ï":176,"ð":177,"ñ":178,"ò":179,"ó":180,"ô":181,"õ":182,"ö":183,"÷":184,"ø":185,"ù":186,"ú":187,"û":188,"ü":189,"ý":190,"þ":191,"ÿ":192,"Ā":193,"ā":194,"Ă":195,"ă":196,"Ą":197,"ą":198,"Ć":199,"ć":200,"Ĉ":201,"ĉ":202,"Ċ":203,"ċ":204,"Č":205,"č":206,"Ď":207,"ď":208,"Đ":209,"đ":210,"Ē":211,"ē":212,"Ĕ":213,"ĕ":214,"Ė":215,"ė":216,"Ę":217,"ę":218,"Ě":219,"ě":220,"Ĝ":221,"ĝ":222,"Ğ":223,"ğ":224,"Ġ":225,"ġ":226,"Ģ":227,"ģ":228,"Ĥ":229,"ĥ":230,"Ħ":231,"ħ":232,"Ĩ":233,"ĩ":234,"Ī":235,"ī":236,"Ĭ":237,"ĭ":238,"Į":239,"į":240,"İ":241,"ı":242,"Ĳ":243,"ĳ":244,"Ĵ":245,"ĵ":246,"Ķ":247,"ķ":248,"ĸ":249,"Ĺ":250,"ĺ":251,"Ļ":252,"ļ":253,"Ľ":254,"ľ":255,"Ŀ":256,"ŀ":257,"Ł":258,"ł":259,"Ń":260,"Ġt":261,"Ġa":262,"Ġth":263,"in":264,"er":265,"ou":266,"on":267,"Ġs":268,"Ġi":269,"Ġthe":270,"re":271,"at":272,"Ġw":273,"Ġc":274,"or":275,"es":276,"ing":277,"an":278,"en":279,"Ġb":280,"Ġf":281,"Ġto":282,"Ġd":283,"le":284,"Ġm":285,"ĠI":286,"Ġy":287,"ed":288,"Ġyou":289,"Ġp":290,"Ġan":291,"st":292,"Ġh":293,"ll":294,"Ġin":295,"it":296,"Ġn":297,"ion":298,"Ġo":299,"Ġit":300,"Ġis":301,"om":302,"se":303,"ct":304,"ar":305,"Ġu":306,"ot":307,"Ġl":308,"et":309,"ow":310,"is":311,"Ġre":312,"ut":313,"ve":314,"Ġand":315,"Ġe":316,"ic":317,"Ġthat":318,"as":319,"Ġof":320,"al":321,"ro":322,"ent":323,"Ġwh":324,"Ġbe":325,"de":326,"Ġfor":327,"Ġg":328,"ld":329,"Th":330,"Ġon":331,"Ġ`":332,"ĠĠ":333,"ly":334,"am":335,"ay":336,"ver":337,"Ġdo":338,"ac":339,"Ġnot":340,"..":341,"ad":342,"ith":343,"ould":344,"est":345,"Ġthis":346,"'t":347,"qu":348,"ble":349,"id":350,"Ġha":351,"Ġst":352,"ere":353,"all":354,"ke":355,"Ġwith":356,"ri":357,"Ġpro":358,"Ġas":359,"Ġyour":360,"th":361,"ce":362,"ks":363,"ate":364,"Ġhave":365,"Ġbut":366,"Ġex":367,"oo":368,"ht":369,"ĠTh":370,"ec":371,"Ġco":372,"'s":373,"ag":374,"Ġcan":375,"out":376,"im":377,"pp":378,"Ġus":379,"Ġ(":380,"ch":381,"ill":382,"ation":383,"Ġwor":384,"Ġne":385,"Ġfi":386,"Ġcon":387,"ter":388,"ĠA":389,"un":390,"Ġj":391,"Ġse":392,"Ġso":393,"Ġare":394,"Ġv":395,"ust":396,"ment":397,"ĠS":398,"Ġmy":399,"ig":400,"ect":401,"pt":402,"em":403,"Ġsh":404,"Ġif":405,"Ġsu":406,"Ġli":407,"Ġqu":408,"nd":409,"ple":410,"ul":411,"Ġch":412,"ess":413,"Ġcom":414,"Ġor":415,"ant":416,"ore":417,"ally":418,"if":419,"Ġ\"":420,"ame":421,"Ġpo":422,"Ġcode":423,"pl":424,"estion":425,"ĠĠĠĠ":426,"Ġuse":427,"and":428,"il":429,"tp":430,"ur":431,"Ġwhat":432,"Ġsom":433,"com":434,"Ġme":435,"ry":436,"//":437,"anks":438,"sw":439,"Ġr":440,"Ġal":441,"ase":442,"://":443,"rom":444,"el":445,"Ġwork":446,"ain":447,"ĠC":448,"Ġwill":449,"ction":450,"ack":451,"Ġjust":452,"swer":453,"so":454,"Ġde":455,"lo":456,"age":457,"eth":458,"Ġ-":459,"Ġanswer":460,"od":461,"able":462,"Ġwould":463,"ue":464,"Ġget":465,"Ġneed":466,"ink":467,"...":468,"um":469,"You":470,"Ġwas":471,"Ġdoes":472,"ang":473,"Ġdon":474,"Ġat":475,"Ġad":476,"Ġfrom":477,"ĠW":478,"ab":479,"Ġall":480,"ind":481,"Ġlike":482,"fer":483,"ie":484,"Ġany":485,"Ġquestion":486,"ss":487,"Ġwant":488,"ers":489,"Ġma":490,"end":491,"Ġab":492,"Ġthere":493,"Ġusing":494,"ass":495,"Ġcl":496,"nt":497,"Ġk":498,"ex":499,"Ġapp":500,"ine":501,"Ġshould":502,"us":503,"ich":504,"ject":505,"av":506,").":507,"Ġloo":508,"Ġup":509,"ort":510,"Ġsome":511,"Ġadd":512,"blem":513,"Ġwe":514,"Ġ:":515,"Ġim":516,"art":517,"ĠB":518,"act":519,"Ġone":520,"ĠP":521,"Ġproblem":522,"Ġby":523,"per":524,"pe":525,"Ġout":526,"oug":527,"ĠM":528,"ĠD":529,"Ġhow":530,"Ġht":531,"'m":532,"ult":533,"ist":534,"ĠO":535,"Ġwhen":536,"now":537,"Ġdat":538,"Ġthen":539,"ated":540,"int":541,"Ġlo":542,"ach":543,"ive":544,"ire":545,"Ġonly":546,"()":547,"Ġval":548,"Ġknow":549,"ror":550,"ite":551,"Ġwhich":552,"to":553,"Ġtry":554,"Ġ1":555,"ure":556,"Ġhttp":557,"ime":558,"Ġmore":559,"ring":560,"use":561,"Ġthink":562,"are":563,"Ġway":564,"Ġcont":565,"ĠH":566,"very":567,"ĠThe":568,"ĠIt":569,"Ġsee":570,"iz":571,"elp":572,"Ġno":573,"unction":574,"ast":575,"00":576,"Ġwr":577,"ide":578,"Ġabout":579,"king":580,"Ġar":581,"ap":582,"iv":583,"error":584,"iew":585,"ther":586,"ough":587,"Ġsame":588,"ir":589,"orm":590,"Ġinst":591,"Ġhelp":592,"Ġle":593,"ause":594,"hat":595,"Ġam":596,"ound":597,"Ġdid":598,"our":599,"ile":600,"Ġsol":601,"Ġ=":602,"ĠYou":603,"Ġ*":604,"Ġfile":605,"low":606,"Ġerror":607,"ext":608,"ĠJ":609,"Ġhas":610,"http":611,"ĠN":612,"ight":613,"Ġ[":614,"oth":615,"Ġfunction":616,"ead":617,"Ġset":618,"ĠF":619,"bject":620,"Ġres":621,"Ġcould":622,"read":623,"cri":624,"Ġchang":625,"ethod":626,"ows":627,"Ġsp":628,"ice":629,"Ġ'":630,"Ġac":631,"ace":632,"ode":633,"Ġother":634,"ity":635,"ĠIf":636,"ong":637,"ample":638,"cl":639,"ting":640,"cess":641,"rig":642,"ard":643,"Ġpost":644,"ery":645,"eck":646,"Ġpre":647,"Ġ2":648,"Ġthan":649,"Ġmethod":650,"ĠT":651,"Ġcomp":652,"Ġdif":653,"gr":654,"ption":655,"Ġdata":656,"Ġev":657,"les":658,"ution":659,"ĠU":660,"Ġun":661,"ell":662,"Ġclass":663,"urn":664,"ail":665,"Ġalso":666,"ari":667,"ĠĠĠĠĠĠĠĠ":668,"Ġser":669,"oc":670,"Ġtime":671,"ĠE":672,"po":673,"ually":674,"sion":675,"Ġcall":676,"ml":677,"Thanks":678,"Ġdoesn":679,"'re":680,"ial":681,"Ġtr":682,"Ġcre":683,"ont":684,"Ġgo":685,"Ġrun":686,"nder":687,"right":688,"ick":689,"form":690,"Ġdiffer":691,"Ġbec":692,"ence":693,"over":694,"ĠR":695,"Ġmean":696,"Ġmake":697,"ething":698,"ary":699,"Ġnew":700,"Ġbecause":701,"lease":702,"Ġact":703,"ype":704,"gg":705,"put":706,"cript":707,"ol":708,"Ġpl":709,"'ve":710,"flow":711,"Ġret":712,"Ġstill":713,"orre":714,"Ġnow":715,"ood":716,"ove":717,"](":718,"ray":719,"ĠThanks":720,"ath":721,"Ġbet":722,"Ġen":723,"Ġsim":724,"one":725,"Ġsure":726,"`.":727,"Ġtri":728,"Ġright":729,"Ġsolution":730,"Ġworks":731,"Ġper":732,"Ġsomething":733,"Ġexample":734,"ĠG":735,"te":736,"ible":737,"Ġfir":738,"ication":739,"ff":740,"Ġfirst":741,"ory":742,"Ġthey":743,"li":744,"Ġdef":745,"Ġ:)":746,"ost":747,"Ġobject":748,"orrect":749,"Ġinto":750,"Ġwhy":751,"ww":752,"ber":753,"Ġthem":754,"Ġunder":755,"ond":756,"ĠL":757,"ord":758,"Ġread":759,"Ġmay":760,"uch":761,"ems":762,"overflow":763,"Ġcheck":764,"ĠBut":765,"way":766,"Ġhere":767,"ackoverflow":768,"ank":769,"Ġreturn":770,"Ġman":771,"ign":772,"ull":773,"Ġtried":774,"Ġthing":775,"Ġvalue":776,"own":777,"ru":778,"Ġwhere":779,"Ġag":780,"'ll":781,"stackoverflow":782,"fter":783,"ies":784,"Ġsay":785,"ave":786,"Ġreally":787,"ser":788,"Ġmuch":789,"ments":790,"Ġpoint":791,"Ġcase":792,"fore":793,"Ġupd":794,"be":795,"ance":796,"Ġrequ":797,"Ġlook":798,"Ġvery":799,"Ġdis":800,"Ġ?":801,"Ġke":802,"ug":803,"ener":804,"Ġ.":805,"ep":806,"wh":807,"It":808,"ip":809,"Ġcorrect":810,"Ġspec":811,"edit":812,"Ġused":813,"The":814,"Ġdifferent":815,"estions":816,"Ġstring":817,"ous":818,"Ġver":819,"ition":820,"Ġform":821,"ty":822,"led":823,"ize":824,"Ġpart":825,");":826,"Ġuser":827,"Ġsc":828,"ake":829,"get":830,"ĠIn":831,"ava":832,"Ġiss":833,"lect":834,"Ġinter":835,"ub":836,"Ġrem":837,"Ġits":838,"pre":839,"Ġover":840,"Ġfind":841,"Ġtest":842,"Ġpage":843,"other":844,"Ġgood":845,"stand":846,"Ġworking":847,"ck":848,"Ġedit":849,"Ġlist":850,"thing":851,"In":852,"Ġvari":853,"ues":854,"sh":855,"questions":856,"ra":857,"ph":858,"Ġcol":859,"Ġafter":860,"Ġsy":861,"irect":862,"Ġpar":863,"atch":864,"Ġchange":865,"Ġserver":866,"br":867,"Ġline":868,"Ġmight":869,"Ġlink":870,"ssible":871,"not":872,"Ġtoo":873,"Ġthanks":874,"ning":875,"Ġ3":876,"Ġtrying":877,"Ġevery":878,"Ġbefore":879,"Ġinstead":880,"ual":881,"Ġarray":882,"ating":883,"ĠThis":884,"Ġgu":885,"Ġtype":886,"Ġresult":887,"Ġtw":888,"Yes":889,"lf":890,"ild":891,"`,":892,"Ġexpl":893,"Ġunderstand":894,"St":895,"Ġhe":896,"ree":897,"This":898,"),":899,"Ġback":900,"ically":901,"ud":902,"Ġproper":903,"cept":904,"Ġspecif":905,"Ġnum":906,"Ġeven":907,"Ġshow":908,"lication":909,"gram":910,"pro":911,"Ġ$":912,"ument":913,"Ġwell":914,"Ġcomm":915,"Ġbetter":916,"ose":917,"pen":918,"ince":919,"we":920,"roll":921,"Ġsec":922,"ox":923,"Ġversion":924,"ew":925,"orry":926,"Ġput":927,"Ġactually":928,"ĠSo":929,"ak":930,"ĠAnd":931,"plement":932,"What":933,"Ġdidn":934,"Ġsugg":935,"ready":936,"ĠThat":937,"Ġ<":938,"sp":939,"Ġissue":940,"Ġeach":941,"Ġexact":942,"Ġdes":943,"Ġgener":944,"Ġsupp":945,"ably":946,"ĠV":947,"ient":948,"Ġconf":949,"Ġhad":950,"Ġpr":951,"Ġseems":952,"Ġele":953,"Ġtable":954,"Ġrefer":955,"ĠWh":956,"vice":957,"ft":958,"ever":959,"html":960,"ruct":961,"ton":962,"up":963,"Ġview":964,"arch":965,"ource":966,"Ġanother":967,"Ġstart":968,"ages":969,"Ġ@":970,"Ġbr":971,"side":972,"ata":973,"Ġimplement":974,"Ġthr":975,"Ġcle":976,"ote":977,"Ġfo":978,"ĠWhat":979,"Ġthough":980,"Ġname":981,"Ġagain":982,"ount":983,"port":984,"du":985,"but":986,"Ġtext":987,"Ġwithout":988,"Ġide":989,"Ġalready":990,"**":991,"ving":992,"ax":993,"net":994,"py":995,"ved":996,"Ġdoing":997,"Ġcreate":998,"ful":999,"Ġbu":1000,"Ġtwo":1001,"idd":1002,"Wh":1003,"self":1004,"ML":1005,"Ġprov":1006,"Ġwrong":1007,"sing":1008,"=\"":1009,"'d":1010,"Ġprogram":1011,"01":1012,"lso":1013,"Ġhand":1014,"org":1015,"app":1016,"Ġdown":1017,"bably":1018,"Ġbit":1019,"ĠHow":1020,"Ġsa":1021,"ason":1022,"Ġlot":1023,"Ġplease":1024,"urre":1025,"Ġbeing":1026,"itt":1027,"os":1028,"Ġpossible":1029,"Ġlog":1030,"set":1031,"dex":1032,"ator":1033,"Ġgive":1034,"enc":1035,"Ġgot":1036,"Ġass":1037,"val":1038,"Ġdec":1039,"Ġapplication":1040,"Ġent":1041,"Ġabove":1042,"ook":1043,"ception":1044,"Ġdefin":1045,"Ġhapp":1046,"Ġ0":1047,"stem":1048,"Ġsub":1049,"Ġfiles":1050,"con":1051,"alled":1052,"QL":1053,"Ġisn":1054,"Ġkey":1055,"ways":1056,"Ġend":1057,"Ġweb":1058,"abase":1059,"the":1060,"Ġmod":1061,"Ġreg":1062,"Ġadded":1063,"Ġboth":1064,"Ġdirect":1065,"Ġsince":1066,"Ġeas":1067,"Ġquery":1068,")`":1069,"\",":1070,"ates":1071,"Ġfix":1072,"Ġbeen":1073,"Ġmem":1074,"Ġreason":1075,"Ġsecond":1076,"Ġdoc":1077,"Ġload":1078,"Ġaccess":1079,"pect":1080,"ault":1081,"Ġel":1082,"ah":1083,"ise":1084,"tr":1085,"()`":1086,"ear":1087,"Ġincl":1088,"Ġgetting":1089,"Ġgoing":1090,"ee":1091,"Ġcomment":1092,"ans":1093,"Ġexactly":1094,"View":1095,"Ġproject":1096,"ĠX":1097,"Ġprobably":1098,"Ġrec":1099,"Ġpass":1100,"der":1101,"ply":1102,"If":1103,"umn":1104,"ash":1105,"Ġchar":1106,"play":1107,"ish":1108,"Ġable":1109,"Ġmis":1110,"Ġstate":1111,"Ġ4":1112,"Ġgiv":1113,"Ġvalues":1114,"ations":1115,"ork":1116,"www":1117,"how":1118,"Ġmess":1119,"urrent":1120,"nect":1121,"Ġloc":1122,"Ġatt":1123,"ql":1124,"Ġem":1125,"ention":1126,"load":1127,"Ġid":1128,"ĠSt":1129,"js":1130,"Ġrequire":1131,"Ġidea":1132,"php":1133,"ia":1134,"Ġgr":1135,"brary":1136,"\".":1137,"Ġhappen":1138,"Ġlooking":1139,"inal":1140,"wn":1141,"Ġdet":1142,"plic":1143,"Ġcomple":1144,"tern":1145,"log":1146,"Ġconst":1147,"Ġnumber":1148,"Ġthose":1149,"Ġcontain":1150,"par":1151,"pon":1152,"Qu":1153,"Ġfine":1154,"Ġwrite":1155,"Ġbas":1156,"Ġdatabase":1157,"ify":1158,"Ġguess":1159,"odel":1160,"Ġvariable":1161,"user":1162,"Ġevent":1163,"Ġaut":1164,"Ġx":1165,"Ġimage":1166,"reat":1167,"op":1168,"ĠIs":1169,"rol":1170,"Ġthread":1171,"Ġscript":1172,"ert":1173,"ob":1174,"Ġanything":1175,"ark":1176,"Ġ+":1177,"Ġav":1178,"That":1179,"Ġselect":1180,"velo":1181,"Ġalways":1182,"ĠDo":1183,"Ġ{":1184,"Ġfound":1185,"pend":1186,"this":1187,"my":1188,"Ġclear":1189,"ables":1190,"Ġloop":1191,"ange":1192,"Ġoutput":1193,"Ġoption":1194,"Cont":1195,"Ġint":1196,"ious":1197,"ails":1198,"ither":1199,"ween":1200,"ress":1201,"Ġwho":1202,"Ġ/":1203,"iddle":1204,"name":1205,"roid":1206,"Ġext":1207,"og":1208,"eld":1209,"Ġparam":1210,"ider":1211,"Ġprocess":1212,"ames":1213,"Ġown":1214,"ought":1215,"Thank":1216,"rame":1217,"Ġthese":1218,"Ġappro":1219,"ative":1220,"ĠAlso":1221,"Ġ**":1222,"ge":1223,"Ġfield":1224,"Ġdone":1225,"Ġthrough":1226,"ope":1227,"ude":1228,"ven":1229,"Ġcolumn":1230,"ied":1231,"++":1232,"ome":1233,"Ġbutton":1234,"inter":1235,"less":1236,"view":1237,"Ġtag":1238,"yn":1239,"Ġmany":1240,"ĠAn":1241,"Ġbrows":1242,"ĠMy":1243,"Ġupdate":1244,"ix":1245,"Ġsuch":1246,"oog":1247,"Ġtake":1248,"Ġlong":1249,"Ġ...":1250,"Ġsupport":1251,"Ġrequest":1252,"Ġthings":1253,"Ġmult":1254,"Ġ_":1255,"Ġsuggest":1256,"doc":1257,"Ġaccept":1258,"Ġclo":1259,"Ġfe":1260,"Ġty":1261,"roller":1262,"indows":1263,"Ġexec":1264,"Ġ5":1265,"ms":1266,"Ġcons":1267,"Ġlin":1268,"Ġopen":1269,"Ġelse":1270,"Ġupdated":1271,"Ex":1272,"ik":1273,"ib":1274,"Ġworked":1275,"Ch":1276,"ular":1277,"Ġask":1278,"Ġrel":1279,"for":1280,"Ġph":1281,"Ġlooks":1282,"10":1283,"ER":1284,"(\"":1285,"Ġinside":1286,"cre":1287,"Ġmost":1288,"fo":1289,"Ġcalled":1290,"Ġnever":1291,"Ġinput":1292,"ute":1293,"Ġtell":1294,"Ġexplain":1295,"thon":1296,"Ġinform":1297,"Ġ,":1298,"Ġstore":1299,"Ġthought":1300,"Ġexist":1301,"ustom":1302,"press":1303,"ger":1304,"Ġexpect":1305,"Ġsaid":1306,"Ġparamet":1307,"Ġvalid":1308,"etc":1309,"kes":1310,"oogle":1311,"Ġsimple":1312,"ĠThere":1313,"Ġrunning":1314,"ĠHT":1315,"12":1316,"Ġreal":1317,"Ġbetween":1318,"Ġmention":1319,"ĠJava":1320,"Ġorig":1321,"Ġdisplay":1322,"ingle":1323,"Ġdepend":1324,"vent":1325,"Ġmemory":1326,"Ġmain":1327,"ier":1328,"Ġdocument":1329,"code":1330,"work":1331,"ON":1332,"atic":1333,"imes":1334,"Ġcompil":1335,"query":1336,"('":1337,"Ġwere":1338,"ribut":1339,"oid":1340,"Ġcontent":1341,"Ġcurrent":1342,"dd":1343,"Ġlet":1344,"hing":1345,"Ġwon":1346,"ool":1347,"ather":1348,"Ġdele":1349,"Query":1350,"Ġconnect":1351,"Ġwhile":1352,"Is":1353,"Ġ--":1354,"cont":1355,"Ġmust":1356,"ense":1357,"Ġbeh":1358,"Ġspecific":1359,"llow":1360,"Ġinformation":1361,"Ġhaving":1362,"ET":1363,"No":1364,"Ġrespon":1365,"ĠThank":1366,"Ġlast":1367,"where":1368,"xt":1369,"ately":1370,"Ġoff":1371,"Ġ}":1372,"Do":1373,"Ġorder":1374,"angu":1375,"Ġcommand":1376,"aps":1377,"Can":1378,"Ġmulti":1379,"Ġelement":1380,"ieve":1381,"::":1382,"Ġexception":1383,"Ġeff":1384,"Ġmakes":1385,"Ġyes":1386,"ST":1387,"lder":1388,"Ġsingle":1389,"vious":1390,"min":1391,"Ġdefault":1392,"avas":1393,"Ġperform":1394,"sol":1395,"Ġetc":1396,"IN":1397,"ces":1398,"ci":1399,"Ġformat":1400,"ether":1401,"Ġ;":1402,"ĠCh":1403,"avascript":1404,"Ġclient":1405,"Ġsource":1406,"Ġeither":1407,"Ġoper":1408,"ĠCan":1409,"!!":1410,"eo":1411,"Ġsend":1412,"Ġsearch":1413,"Ġcannot":1414,"lock":1415,"Ġcharact":1416,"Ġreference":1417,"cc":1418,"file":1419,"11":1420,"Ġhead":1421,"eb":1422,"Ġbest":1423,"Ġkeep":1424,"....":1425,"Ġinit":1426,"Ġclick":1427,"sql":1428,"io":1429,"plo":1430,"Re":1431,"Ġbuild":1432,"Ġnothing":1433,"ĠAs":1434,"Ġtheir":1435,"ĠĠĠĠĠĠĠĠĠĠĠĠĠĠĠĠ":1436,"ical":1437,"ĠSQL":1438,"indow":1439,"`?":1440,"ared":1441,"do":1442,"HP":1443,"ĠFor":1444,"Ġacc":1445,"arent":1446,"Ġtyp":1447,"Ġgreat":1448,"Ġcontrol":1449,"Ġconver":1450,"ĠJS":1451,"lection":1452,"Ġrather":1453,"SS":1454,"Ġmatch":1455,"Ġfollow":1456,"âĢ":1457,"bu":1458,"pr":1459,"Ġindex":1460,"Ġassum":1461,"iting":1462,"Ġmeans":1463,"Ġhard":1464,"Ġmessage":1465,"Ġsetting":1466,"Ġkind":1467,"Ġoriginal":1468,"Ġsize":1469,"Ġpath":1470,"Ġ`$":1471,"its":1472,"List":1473,"How":1474,"Ġbrowser":1475,"Ġsm":1476,"Ġarg":1477,"ĠOP":1478,"Ġlangu":1479,"eah":1480,"def":1481,"ted":1482,"what":1483,"Ġseem":1484,"Ġcopy":1485,"Ġmade":1486,"ility":1487,"you":1488,"using":1489,"px":1490,"Ġproperty":1491,"ech":1492,"Pro":1493,"time":1494,"str":1495,"Ġob":1496,"no":1497,"Ġprovide":1498,"Ġmat":1499,"ĠOn":1500,"Ġsystem":1501,"ittle":1502,"String":1503,"comm":1504,"Ġenough":1505,"ized":1506,"line":1507,"Ġstand":1508,"64":1509,"pos":1510,"ule":1511,"Ġlat":1512,"Ġcomplete":1513,"Ġaround":1514,"ession":1515,"',":1516,"ilar":1517,"Ġapproach":1518,"Ġsort":1519,"Ġrepl":1520,"Ġremove":1521,"Ġplace":1522,"Ġinstance":1523,"Ġsense":1524,"Ġchanged":1525,"ache":1526,"oup":1527,"Ġdu":1528,"Ġtrue":1529,"Ġonce":1530,"eople":1531,"aybe":1532,"--":1533,"ware":1534,"tty":1535,"ature":1536,"Ġtem":1537,"RL":1538,"Ġlittle":1539,"Ġresponse":1540,"mm":1541,"of":1542,"Ġbad":1543,"Ġlibrary":1544,"Ġfig":1545,"ython":1546,"Ġmaybe":1547,"Ġfact":1548,"Ġleast":1549,"man":1550,"Ġprint":1551,"And":1552,"Ġmultiple":1553,"ĠPHP":1554,"ĠHTML":1555,"sent":1556,"Ġcustom":1557,"ĠOr":1558,"Ġmodel":1559,"Ġconfig":1560,"back":1561,"Ġobjects":1562,"ayout":1563,"-)":1564,"Ġtrans":1565,"So":1566,"Ġfull":1567,"Ġpeople":1568,"fect":1569,"Ġbel":1570,"Ġpointer":1571,"ĠHowever":1572,"Ġmin":1573,"Ġmethods":1574,"can":1575,"??":1576,"ĠAny":1577,"gin":1578,"Ġanswers":1579,"OM":1580,"Why":1581,"Ġsepar":1582,"PI":1583,"Ġcreated":1584,"Ġconsider":1585,"Ġresults":1586,"Ġsimilar":1587,"To":1588,"Ġfar":1589,"Ġfunctions":1590,"Ġprodu":1591,"box":1592,"add":1593,"Ġallow":1594,"Ġpretty":1595,"Ġneeds":1596,"avi":1597,"Ġimport":1598,"99":1599,"ouble":1600,"Ġnon":1601,"Ġnull":1602,"Ġduplic":1603,"Ġsorry":1604,"Ġadding":1605,"loc":1606,"32":1607,"Ġerrors":1608,"Ġnames":1609,"Ġsite":1610,"lic":1611,"new":1612,"ner":1613,"ID":1614,"ef":1615,"bers":1616,"Ġinclude":1617,"Ġfigure":1618,"Ġdevelo":1619,"ream":1620,"reen":1621,"icro":1622,"Ġstu":1623,"soft":1624,"with":1625,"wr":1626,"Ġword":1627,"Ġlear":1628,"Ġdecl":1629,"Ġposted":1630,"Ġenc":1631,"Ġneeded":1632,"AT":1633,"Ġelements":1634,"Ġstatement":1635,">`":1636,"string":1637,"Ġmark":1638,"data":1639,"Ġstruct":1640,"Ġca":1641,"Ġfast":1642,"Ġsimply":1643,"vel":1644,"Ġquite":1645,"ĠPlease":1646,"Ġtop":1647,"Ġpri":1648,"aces":1649,"Ġchanges":1650,"face":1651,"Ġeverything":1652,"Ġreturns":1653,"eng":1654,"ourse":1655,"rl":1656,"Ġdifference":1657,"Ġcert":1658,"ivity":1659,"Ġwhole":1660,"LE":1661,"ystem":1662,"ially":1663,"Ġconstruct":1664,"Ġappear":1665,"Ġthank":1666,"igh":1667,"Ġ10":1668,"ases":1669,"Ġside":1670,"Ġdiv":1671,"Ġasking":1672,"Ġinstall":1673,"Ġtool":1674,"Ġinclud":1675,"ler":1676,"ask":1677,"Ġjs":1678,"Ġedited":1679,"20":1680,"ĠID":1681,"But":1682,"Ar":1683,"class":1684,"Ġrow":1685,"ĠĠĠ":1686,"Hi":1687,"sed":1688,"Ġprovid":1689,"Ġwithin":1690,"Ġitself":1691,"ced":1692,"Ġremo":1693,"ĠWhen":1694,"ground":1695,"thanks":1696,"Ġcompiler":1697,"ĠJust":1698,"Ġ&":1699,"bug":1700,"Ġter":1701,"Ġattribut":1702,"Ġfixed":1703,"Ġactual":1704,"ody":1705,"Ok":1706,"Ġrest":1707,"ntax":1708,"->":1709,"Cl":1710,"ys":1711,"ling":1712,"mit":1713,"();":1714,"fiddle":1715,"ĠIE":1716,"ices":1717,"pression":1718,"LL":1719,"Ġdescri":1720,"Ġlanguage":1721,"icrosoft":1722,"Ġlocal":1723,"Ġstandard":1724,"Ġinitial":1725,"Ġuseful":1726,"Ġind":1727,"ecess":1728,"Ġ`<":1729,"ĠUI":1730,"Ġinv":1731,"Ġinterest":1732,"sole":1733,"Are":1734,"Ġro":1735,"Ġavoid":1736,"Ġcourse":1737,"ĠjQuery":1738,"Ġfl":1739,"Ġbehavi":1740,"Ġperfect":1741,"Well":1742,"ors":1743,"Ġcompile":1744,"ension":1745,"Ġsolve":1746,"Ġref":1747,"haps":1748,"Ġimplementation":1749,"Ġquestions":1750,"ined":1751,"ĠSee":1752,"Ġstr":1753,"ounds":1754,"An":1755,"Ġfew":1756,"Data":1757,"pty":1758,"Ġdesign":1759,"mb":1760,"sert":1761,"Ġwanted":1762,"Ġcr":1763,"Name":1764,"ĠEx":1765,"Ġuses":1766,"Ġproblems":1767,"pd":1768,"Ġz":1769,"ey":1770,"let":1771,"wise":1772,"idth":1773,"Please":1774,"lob":1775,"Ġprogramm":1776,"Ġbased":1777,"My":1778,"Ġclasses":1779,"imit":1780,"raw":1781,"fort":1782,"fe":1783,"Ġparameter":1784,"Ġaddress":1785,"wik":1786,"java":1787,"Ġnext":1788,"Ġmissing":1789,"000":1790,"Ġdate":1791,"Ġscreen":1792,"ĠPro":1793,"Ġtimes":1794,"Ġrecord":1795,"ailable":1796,"Ġred":1797,"201":1798,"Ġcorrectly":1799,"que":1800,"Ġservice":1801,"Ġframe":1802,"ĠNo":1803,"Ġgiven":1804,"Ġbre":1805,"Ġdont":1806,"Ġsign":1807,"ization":1808,"Ġfolder":1809,"ugin":1810,"Ġdirectly":1811,"Ġvariables":1812,"bo":1813,"ynam":1814,"ccess":1815,"Ġduplicate":1816,"As":1817,"aph":1818,"Ġbelieve":1819,"by":1820,"Ġsw":1821,"Ġsmall":1822,"Ġcalling":1823,"Ġsays":1824,"used":1825,"Ġlines":1826,"Ġday":1827,"res":1828,"Ġyet":1829,"Ġassign":1830,"ics":1831,"ĠAPI":1832,"Ġsyntax":1833,"14":1834,"Ġanyway":1835,"alse":1836,"Ġequ":1837,"Ġagree":1838,"16":1839,"Ġreply":1840,"Sorry":1841,"Ġbug":1842,"plate":1843,"Ġconnection":1844,"Ġfil":1845,"ĠRe":1846,"15":1847,"Ġusers":1848,"Ġwouldn":1849,"ĠThen":1850,"though":1851,"Ġwhether":1852,"Ġnice":1853,"Ġhappens":1854,"vant":1855,"Ġblock":1856,"list":1857,"ength":1858,"ĠUn":1859,"Ġpos":1860,"SQL":1861,"Ġmentioned":1862,"Ġpack":1863,"Ġcontext":1864,"Ġphp":1865,"which":1866,"Ġhtml":1867,"fortun":1868,"ĠURL":1869,"Ġsty":1870,"ĠK":1871,"Ġdirectory":1872,");`":1873,"yes":1874,"There":1875,"Ġpers":1876,"ward":1877,"Ġavailable":1878,"iter":1879,"ples":1880,"13":1881,"ties":1882,"Ġcertain":1883,"Ġwindow":1884,"text":1885,"Ġmatter":1886,"Ġhowever":1887,"Ġperformance":1888,"ern":1889,"ĠYes":1890,"ĠNot":1891,"Ġentire":1892,"Act":1893,"ens":1894,"Com":1895,"Ġdefined":1896,"Ġ;)":1897,"jax":1898,"ok":1899,"Ġcount":1900,"atically":1901,"Ġ!":1902,"docs":1903,"any":1904,"Ġless":1905,"itch":1906,"ified":1907,"aspx":1908,"Ġeasy":1909,"ĠYour":1910,"Ġstuff":1911,"For":1912,"On":1913,"Ġexecut":1914,"Ġstatic":1915,"ĠWindows":1916,"pri":1917,"Ġeasier":1918,"red":1919,"Ġbig":1920,"Ġsaying":1921,"Ġgets":1922,"Ġvia":1923,"Ġtak":1924,"ences":1925,"Ġstructure":1926,"Ġurl":1927,"Ġbl":1928,"Not":1929,"Ġ`.":1930,"80":1931,"Ġmeant":1932,"Ġinfo":1933,"Ġsomeone":1934,"ield":1935,"omain":1936,"Ġsample":1937,"Ġunt":1938,"Ġhandle":1939,"ĠSer":1940,"Ġautom":1941,"sc":1942,"Ġcome":1943,"ublic":1944,"ference":1945,"Ġjavascript":1946,"Ġhelpful":1947,"az":1948,"Ġsuggestion":1949,"bit":1950,"Yeah":1951,"und":1952,")?":1953,"ĠApp":1954,"ĠAre":1955,"CT":1956,"Ġinte":1957,"Ġdevelop":1958,"Ġrows":1959,"Con":1960,"ves":1961,"fortunately":1962,"commend":1963,"Sh":1964,"ird":1965,"utor":1966,"Ġmaking":1967,"Ġcontroller":1968,"17":1969,"cu":1970,"Ġ:-)":1971,"Ġseparate":1972,"Ġcreating":1973,"Id":1974,"full":1975,"Ġpast":1976,"ĠWhy":1977,"ps":1978,"Ġlar":1979,"oh":1980,"mis":1981,"ref":1982,"Ġconc":1983,"Ġok":1984,"gor":1985,"Ġsession":1986,"</":1987,"itten":1988,"Ġrecommend":1989,"Ġhigh":1990,"NET":1991,"Ġ6":1992,"come":1993,"Ġvis":1994,"Ġclose":1995,"Ġmach":1996,";`":1997,".\"":1998,"light":1999,"19":2000,"Ġpartic":2001,"aking":2002,"rror":2003,"Ġ7":2004,"Ġaction":2005,"row":2006,"Script":2007,"itle":2008,"ification":2009,"Ġnorm":2010,"Ġsit":2011,"Ġbox":2012,"urs":2013,"Ġsave":2014,"ptim":2015,"irst":2016,"Ġnecess":2017,"Ġempty":2018,"Text":2019,"Ġreading":2020,"Ġ100":2021,"old":2022,"Ġsolved":2023,"Ser":2024,"Ġ>":2025,"edia":2026,"Ġold":2027,"Ġdocumentation":2028,"Just":2029,"Ġleft":2030,"function":2031,"Ġ#":2032,"SE":2033,"attern":2034,"Ġimages":2035,"Ġquick":2036,"Ġstack":2037,"ng":2038,"Ġgives":2039,"Ġplay":2040,"Ġcond":2041,"25":2042,"ffer":2043,"ecause":2044,"ush":2045,"als":2046,"Ġuntil":2047,"Object":2048,"Ġtypes":2049,"utorial":2050,"aw":2051,"num":2052,"possible":2053,"amples":2054,"Ġhis":2055,"Ġlevel":2056,"pload":2057,"Ġhttps":2058,"ict":2059,"Ġjava":2060,"RE":2061,"Ġcomments":2062,"fil":2063,"Im":2064,"Ġexper":2065,"action":2066,"Ġlearn":2067,"Ġtal":2068,"arget":2069,"Ġclar":2070,"Val":2071,"Se":2072,"Ġcare":2073,"ĠXML":2074,"onder":2075,"Ġparticular":2076,"valid":2077,"23":2078,"itely":2079,"Ġshouldn":2080,"Ġshows":2081,"Ġcause":2082,"library":2083,"Ġbelow":2084,"Your":2085,"Ġhaven":2086,"air":2087,"Ġreplace":2088,"ique":2089,"ĠMaybe":2090,"Did":2091,"value":2092,"bin":2093,"site":2094,"Ġcondition":2095,"Ġrelated":2096,"Ġfr":2097,"jsfiddle":2098,"($":2099,"android":2100,"Ġdynam":2101,"Ġcalls":2102,"andom":2103,"18":2104,"Have":2105,"ten":2106,"assw":2107,"]`":2108,"Ġfeature":2109,"Ġitem":2110,"ross":2111,"Ġwasn":2112,"Ġocc":2113,".)":2114,"Ġstep":2115,"pose":2116,"ily":2117,"))":2118,"oin":2119,"Ġport":2120,"top":2121,"bugg":2122,"Ġwriting":2123,"reci":2124,"Ġchec":2125,"Ġdownload":2126,"Ġeffect":2127,"Un":2128,"Ġiter":2129,"Ġbackground":2130,"Ġplugin":2131,"ember":2132,"Ġrele":2133,"Ġposition":2134,"Ġspace":2135,"most":2136,"ken":2137,"assword":2138,"enu":2139,"Ġmist":2140,"fig":2141,"deed":2142,"Ġmind":2143,"Ġcharacters":2144,"alc":2145,"ĠNow":2146,"Ġcharacter":2147,"xml":2148,"Ġexpression":2149,"__":2150,"Ġnumbers":2151,"defined":2152,"By":2153,"Ġconsole":2154,"Ġchecked":2155,"Ġregex":2156,"24":2157,"Ġ:(":2158,"Ġes":2159,"dn":2160,"that":2161,"her":2162,"NS":2163,"28":2164,"rome":2165,"udio":2166,"Ġbind":2167,"Ġaddition":2168,"Ġissues":2169,"ait":2170,"he":2171,"Ġcontains":2172,"Ġfollowing":2173,"ithub":2174,"Also":2175,"Ġproperly":2176,"Ġstrings":2177,"Ġdetails":2178,"Ġ8":2179,"Ġattribute":2180,"ager":2181,"Ġgroup":2182,"TP":2183,"index":2184,"Ġslow":2185,"ets":2186,"UI":2187,"Ġcases":2188,"Ġproperties":2189,"Ġasked":2190,"Ġwonder":2191,"vir":2192,"dis":2193,"var":2194,"date":2195,"Ġwritten":2196,"Ġturn":2197,"Ġdist":2198,"Ġdebugg":2199,"Ġconstructor":2200,"test":2201,"bed":2202,"Ġheader":2203,"Ġmove":2204,"Ġpur":2205,"uments":2206,"Ġtables":2207,"Ġprevious":2208,"Ġspecify":2209,"pace":2210,"Ġlimit":2211,"gn":2212,"got":2213,"microsoft":2214,"Ġdelete":2215,"Ġchanging":2216,"Ġfields":2217,"tic":2218,"Ġmo":2219,"Ġlater":2220,"tes":2221,"ality":2222,"Ġexplan":2223,"atever":2224,"iled":2225,"Ġlikely":2226,"Ġhope":2227,"Ġoptim":2228,"Controller":2229,"icient":2230,"abel":2231,"ott":2232,"Ġappreci":2233,"Ġgeneral":2234,"Ġ..":2235,"30":2236,"like":2237,"\"?":2238,"Ġinsert":2239,"book":2240,"Class":2241,"Ġcompletely":2242,"lad":2243,"col":2244,"Ġfail":2245,"cle":2246,"Ġfin":2247,"Ġmachine":2248,"Ġ==":2249,"cuss":2250,"Res":2251,"uration":2252,"App":2253,"ĠCSS":2254,"Ġtab":2255,"ities":2256,"OS":2257,"osed":2258,"bar":2259,"ules":2260,"oding":2261,"aut":2262,"ret":2263,"head":2264,"alcul":2265,"ca":2266,"Ġunless":2267,"Ġthinking":2268,"ĠSO":2269,"Ġident":2270,"Ġbehavior":2271,"unch":2272,"ĠTry":2273,"().":2274,"reg":2275,"Ġrece":2276,"Ġconvert":2277,"Ġrequired":2278,"ron":2279,"Ġlayout":2280,"29":2281,"\")":2282,"quest":2283,"dit":2284,"lobal":2285,"me":2286,"Ġparent":2287,"Ġbreak":2288,"uring":2289,"Ġinterface":2290,"Ġprovided":2291,"Ġparameters":2292,"path":2293,"ux":2294,"post":2295,"Ġcod":2296,"web":2297,"vices":2298,"Ġdefinitely":2299,"Ġpract":2300,"Ġprefer":2301,"Ġfeel":2302,"develo":2303,"50":2304,"word":2305,"rid":2306,"Ġseen":2307,"Ġcolumns":2308,"27":2309,"key":2310,"lib":2311,"otes":2312,"Ġauth":2313,"change":2314,"type":2315,"Type":2316,"ific":2317,"fully":2318,"Ġperfectly":2319,"uck":2320,"Ġargument":2321,"Ġexpected":2322,"200":2323,"Ġresol":2324,"Ġexplic":2325,"Ġach":2326,"Ġstop":2327,"AR":2328,"Ġdevice":2329,"ĠJSON":2330,"34":2331,"select":2332,"ipp":2333,"Ah":2334,"ploy":2335,"Ġnote":2336,"Array":2337,"Ġitems":2338,"Ġ=>":2339,"ision":2340,"Ġclean":2341,"mission":2342,"Ġfree":2343,"map":2344,"ĠDB":2345,"Ġfaster":2346,"thers":2347,"Ġstored":2348,"ĠDoes":2349,"Exception":2350,"aries":2351,"ents":2352,"ased":2353,"Ġtakes":2354,"Ġpop":2355,"msdn":2356,"array":2357,"Ġsav":2358,"ĠTo":2359,"Ġexplicit":2360,"Ġexplanation":2361,"Ġobvious":2362,"Ġlogic":2363,"Ġcell":2364,"OT":2365,"url":2366,"ĠAS":2367,"from":2368,"Ġbegin":2369,"Ġsimpl":2370,"ilt":2371,"su":2372,"lex":2373,"Ġmodify":2374,"Ġrender":2375,"Ġwar":2376,"Ġswitch":2377,"Ġpoints":2378,"inst":2379,"gorith":2380,"ources":2381,"Ġshort":2382,"ĠSorry":2383,"Ġothers":2384,"urity":2385,"Ġtesting":2386,"Ġspe":2387,"write":2388,"ĠPython":2389,"vect":2390,"Ġever":2391,"Ġreport":2392,"86":2393,"solute":2394,"ssib":2395,"Ġtemplate":2396,"Ġchild":2397,"Ġfilter":2398,"uture":2399,"ump":2400,"Col":2401,"Ġremoved":2402,"ade":2403,"Ġtot":2404,"Ġpattern":2405,"google":2406,"Add":2407,"viron":2408,"search":2409,"Ġwidth":2410,"spect":2411,"ording":2412,"Form":2413,"orks":2414,"Ġyourself":2415,"Ġtags":2416,"Ġrout":2417,"just":2418,"\">":2419,"Ġsent":2420,"ower":2421,"ĠPer":2422,"ialog":2423,"present":2424,"ĠĠĠĠĠ":2425,"ĠY":2426,"Ġdefinition":2427,"clip":2428,"Ġsch":2429,"Ġextra":2430,"ike":2431,"https":2432,"ooks":2433,"Ġinstalled":2434,"Ġsomewhere":2435,"std":2436,"Ġbase":2437,"check":2438,"['":2439,"OR":2440,"body":2441,"point":2442,"Ġsounds":2443,"Ġcomes":2444,"ĠOS":2445,"ailed":2446,"Ġautomatically":2447,"github":2448,"IT":2449,"Ġincre":2450,"ĠCould":2451,"04":2452,"urther":2453,"Ġprot":2454,"Ġdro":2455,"Ġscroll":2456,"Ġmon":2457,"co":2458,"cat":2459,"wiki":2460,"Ġassume":2461,"Ġfalse":2462,"Ġyear":2463,"Ġforgot":2464,"Ġlinks":2465,"ĠSh":2466,"Ġcomput":2467,"']":2468,"plit":2469,"Ġstyle":2470,"div":2471,"Ġcou":2472,"Ġimportant":2473,"Ġalloc":2474,"Ġdefine":2475,"Ġhost":2476,"ĠAct":2477,"Ġcommon":2478,"etimes":2479,"Ġmap":2480,"Ġpublic":2481,"Ġusually":2482,"lement":2483,"tw":2484,"Ġtalking":2485,"lish":2486,"56":2487,"Ġprogramming":2488,"With":2489,"Oh":2490,"Ġshowing":2491,"ĠString":2492,"Ġcomplex":2493,"server":2494,"Ġdouble":2495,"vote":2496,"Ġdepends":2497,"ĠThey":2498,"ouse":2499,"'.":2500,"Ġhelped":2501,"Ġwhatever":2502,"ero":2503,"Ġlarge":2504,"Ġvar":2505,"ĠWe":2506,"eries":2507,"ency":2508,"26":2509,"sub":2510,"Ġcalcul":2511,"Ġfuture":2512,"oring":2513,"Ġmode":2514,"Ġapply":2515,"Ġcollection":2516,"Ġdebug":2517,"Ġsitu":2518,"Ġaren":2519,"Ġjob":2520,"clipse":2521,"med":2522,"db":2523,"Time":2524,"Ġnormal":2525,"Ġtrig":2526,"Ġextension":2527,"File":2528,"Ġour":2529,"Ġsection":2530,"Ġoutside":2531,"sure":2532,"jquery":2533,"rc":2534,"Ġsuggested":2535,"Ġmanually":2536,"Ġtech":2537,"comp":2538,"Try":2539,"abled":2540,"Ġinteresting":2541,"script":2542,"Ġreturned":2543,"etch":2544,"Ġnecessary":2545,"At":2546,"Ġalgorith":2547,"Ġgenerated":2548,"Ġrepresent":2549,"Ġmyself":2550,"Ġtarget":2551,"produ":2552,"idden":2553,"ons":2554,"Ġhash":2555,"atus":2556,"Ġappears":2557,"Ġenter":2558,"correct":2559,"nter":2560,"char":2561,"Ġoperator":2562,"Ġexamples":2563,"/)":2564,"Ġindeed":2565,"Ġoptions":2566,"Ġandroid":2567,"Ġhelps":2568,"Ġnet":2569,"cussion":2570,"ired":2571,"Ġsuccess":2572,"ĠNS":2573,"iction":2574,"Ġroot":2575,"Ġdiff":2576,"')":2577,"order":2578,"pec":2579,"acle":2580,"amed":2581,"Man":2582,"object":2583,"Ġmodule":2584,"Ġxml":2585,"aint":2586,"Ġupload":2587,"Tr":2588,"Ġsever":2589,"aged":2590,"Ġ%":2591,"Error":2592,"Ġwrote":2593,"ock":2594,"Ġframework":2595,"Could":2596,"vironment":2597,"pping":2598,"OST":2599,"ale":2600,"ternal":2601,"Ġregist":2602,"ĠCom":2603,"Ġloaded":2604,"NT":2605,"api":2606,"cel":2607,"ience":2608,"Ġaltern":2609,"Ġpresent":2610,"Ġdb":2611,"lin":2612,"blog":2613,"day":2614,"Ġgoes":2615,"Ġ)":2616,"Al":2617,"print":2618,"Ġaccount":2619,"Ġrandom":2620,"Ġtested":2621,"resh":2622,"Ġmistake":2623,"Ġbuilt":2624,"Ġlength":2625,"Ġdraw":2626,"ĠHave":2627,"Ġcrash":2628,"why":2629,"Ġpackage":2630,"Ġsl":2631,"Ġregard":2632,"Ġtim":2633,"vector":2634,"Value":2635,"Ġdel":2636,"Ġartic":2637,"Ġperson":2638,"\"`":2639,"33":2640,"Ġheight":2641,"Ġcatch":2642,"Ġtrick":2643,"Ġpossib":2644,"uri":2645,"Ġjquery":2646,"Ġotherwise":2647,"Ġthrow":2648,"Ġachieve":2649,"ĠQ":2650,"Does":2651,"Ġsn":2652,"Ġlocation":2653,"empt":2654,"Set":2655,"Ġwindows":2656,"54":2657,"Of":2658,"Ġgenerate":2659,"Ġexecute":2660,"Ġap":2661,"Ġpassword":2662,"When":2663,"Ġdem":2664,"Ġchecking":2665,"ised":2666,"ites":2667,"ayer":2668,"link":2669,"77":2670,"ĠServer":2671,"Ġsupposed":2672,"Ġcompon":2673,"Date":2674,"host":2675,"Ġtask":2676,"atform":2677,"Ġcast":2678,"ended":2679,"Ġredirect":2680,"Or":2681,"ĠJavaScript":2682,"Ġexisting":2683,"Ġ200":2684,"Ġperhaps":2685,"oub":2686,"cho":2687,"Ġbin":2688,"Ġthreads":2689,"semb":2690,"Ġdeal":2691,"Ġgave":2692,"ĠDid":2693,"Ġseveral":2694,"ND":2695,"Ġtutorial":2696,"Ġrelevant":2697,"ĠGoogle":2698,"Ġnode":2699,"Get":2700,"ian":2701,"loat":2702,"Ġalmost":2703,"Ġjoin":2704,"tain":2705,"vate":2706,"open":2707,"rag":2708,"anel":2709,"nc":2710,"aring":2711,"De":2712,"att":2713,"ances":2714,"aced":2715,"Ġ->":2716,"Ġ9":2717,"AM":2718,"ides":2719,"Ġeasily":2720,"ateg":2721,"Ġprevent":2722,"Ġabsolute":2723,"0000":2724,"document":2725,"Ġincluded":2726,"Ġpassed":2727,"gate":2728,"Ġscope":2729,"Ġactivity":2730,"Ġversions":2731,"Int":2732,"ĠAl":2733,"acing":2734,"page":2735,"config":2736,"Ġfurther":2737,"ouch":2738,"ĠWith":2739,"reate":2740,"59":2741,"ĠIm":2742,"Ġbasically":2743,"Ġcurrently":2744,"Ġign":2745,"Ġpassing":2746,"Ġluck":2747,"Ġanswered":2748,"oted":2749,"Ġgiving":2750,"Ġsql":2751,"Ġbar":2752,"IS":2753,"Ġqueries":2754,"bl":2755,"Ġaccepted":2756,"Ġtitle":2757,"Ġdomain":2758,"avig":2759,"Ġwants":2760,"ĠData":2761,"Ġunique":2762,"Ġanyone":2763,"ĠAr":2764,"DB":2765,"ending":2766,"Ġshare":2767,"click":2768,"Ġagainst":2769,"Ġbro":2770,"User":2771,"Ġwebsite":2772,"table":2773,"imal":2774,"Ġpython":2775,"ann":2776,"Ġaway":2777,"elcome":2778,"Image":2779,"];":2780,"Ġspecial":2781,"Ġ|":2782,"Ġcache":2783,"ĠSe":2784,"Ġcss":2785,"ĠĠĠĠĠĠĠĠĠĠĠĠ":2786,"Ġattempt":2787,"Ġcouldn":2788,"Ġconfused":2789,"braries":2790,"Ġselected":2791,"ffect":2792,"See":2793,"Ġworth":2794,"Ġpages":2795,"Ġdri":2796,"eter":2797,"rie":2798,"Ġremember":2799,"chron":2800,"more":2801,"88":2802,"spec":2803,"Ġgoogle":2804,"Ġ201":2805,"Ġloading":2806,"36":2807,"Ġwords":2808,"Ġstarted":2809,"Ġwarning":2810,"Ġglobal":2811,"OU":2812,"mod":2813,"ently":2814,"ĠAndroid":2815,"Ġemail":2816,"ync":2817,"Path":2818,"AX":2819,"Ġsettings":2820,"acks":2821,"Ġscen":2822,"Ġhandler":2823,"Ġproduct":2824,"Ġaware":2825,"ipedia":2826,"Item":2827,"ĠAll":2828,"Ġmax":2829,"Ġways":2830,"AL":2831,"Ġappropri":2832,"ĠList":2833,"ULL":2834,"Ġclarify":2835,"Ġajax":2836,"ĠâĢ":2837,"anch":2838,"Ġappreciate":2839,"Ġbuffer":2840,"LECT":2841,"Ġimplemented":2842,"oad":2843,"Ġarrays":2844,"Ġruns":2845,"Ġlinked":2846,"Ġexists":2847,"ĠWeb":2848,"Ġseeing":2849,"Ġoften":2850,"Ġenvironment":2851,"ability":2852,"here":2853,"board":2854,"hi":2855,"git":2856,"Actually":2857,"Ġdue":2858,"Ġear":2859,"ictionary":2860,"Ġintern":2861,"Table":2862,"tual":2863,"Ġinher":2864,"down":2865,"Ġlogg":2866,"Ġhour":2867,"Ad":2868,"ĠView":2869,"Ġbytes":2870,"Ġbrowsers":2871,"irection":2872,"55":2873,"ideo":2874,"izing":2875,"place":2876,"Ġparse":2877,"Po":2878,"see":2879,"Ġanim":2880,"].":2881,"Ġaccording":2882,"Ġtrigger":2883,"Ġwrapp":2884,"size":2885,"\").":2886,"gether":2887,"VC":2888,"developer":2889,"Ġecho":2890,"Ġcolor":2891,"input":2892,"Ġadditional":2893,"Ġstream":2894,"mo":2895,"Ġalgorithm":2896,"Ġpermission":2897,"').":2898,"Ġevents":2899,"Box":2900,"icult":2901,"Ġshown":2902,"Ġreturning":2903,"37":2904,"Ġdeter":2905,"mysql":2906,"Ġfunctionality":2907,"Ġwait":2908,"Ġlonger":2909,"Ġrecords":2910,"Ġpurpose":2911,"Ġ`[":2912,"Ġadvice":2913,"Ġbott":2914,"ived":2915,"isual":2916,"Ġthree":2917,"image":2918,"rew":2919,"ĠAt":2920,"Ġsur":2921,"Ġarticle":2922,"Ġexcept":2923,"Ġimpro":2924,"riend":2925,"Ġconfiguration":2926,"Ġsubmit":2927,"ĠObject":2928,"Ġfore":2929,"Ġarguments":2930,"Ġmysql":2931,"Ġsituation":2932,"Ġexp":2933,"ĠMS":2934,"does":2935,"essage":2936,"ential":2937,"Ġsoon":2938,"Ġchoo":2939,"apter":2940,"Ġdifficult":2941,"Ġpractice":2942,"Ġrequires":2943,"ĠCont":2944,"eed":2945,"eta":2946,"Ġalthough":2947,"ĠAdd":2948,"sl":2949,"84":2950,"Ġones":2951,"ĠMySQL":2952,"89":2953,"ES":2954,"Be":2955,"when":2956,"sv":2957,"TF":2958,"Ġstarting":2959,"start":2960,"Ġdynamic":2961,"Ġflag":2962,"ĠCon":2963,"Inter":2964,"57":2965,"Ġmessages":2966,"Ġtaking":2967,"fl":2968,"ĠOne":2969,"Ġself":2970,"Ġconstant":2971,"Ġsecurity":2972,"itive":2973,"Ġlooked":2974,"ibility":2975,"stood":2976,"ached":2977,"Par":2978,"Ġsometimes":2979,"enter":2980,"Context":2981,"Ġlibraries":2982,"Per":2983,"Ġkeys":2984,"Ġregular":2985,"ĠOther":2986,"perty":2987,"Model":2988,"medi":2989,"dat":2990,"Ġhold":2991,"mar":2992,"39":2993,"Ġunderstanding":2994,"22":2995,"inue":2996,"dev":2997,"rypt":2998,"fix":2999,"Ġte":3000,"Ġmenu":3001,"Ġappropriate":3002,"Ġben":3003,"ATE":3004,"HT":3005,"Ġhit":3006,"Ġtests":3007,"Ġlogin":3008,"pped":3009,"Ġprom":3010,"ĠFire":3011,"Code":3012,"ools":3013,"All":3014,"oice":3015,"Ġruntime":3016,"âĢĻ":3017,"Ġeval":3018,"Ġposting":3019,"OK":3020,"oot":3021,"omething":3022,"Ġtrack":3023,"python":3024,"mp":3025,"Ġcertainly":3026,"gu":3027,"Ġcompare":3028,"Ġstatements":3029,"ony":3030,"Ġtechn":3031,"cell":3032,"Ġauto":3033,"Ġbasic":3034,"hone":3035,"your":3036,"Ġop":3037,"xy":3038,"amp":3039,"CE":3040,"Web":3041,"local":3042,"odes":3043,"ĠCheck":3044,"true":3045,"*.":3046,"Check":3047,"init":3048,"gre":3049,"Ġincorrect":3050,"css":3051,"ĠChrome":3052,"Ġseconds":3053,"find":3054,"ulate":3055,"Ġretrie":3056,"xx":3057,"Ġforget":3058,"Ġsetup":3059,"clude":3060,"[]":3061,"sec":3062,"Ġjson":3063,"Ġeng":3064,"Ġputting":3065,"usion":3066,"Ġthats":3067,"Read":3068,"posit":3069,"alloc":3070,"uby":3071,"Ġdays":3072,"Ġdocs":3073,"Ġinteger":3074,"Ġadv":3075,"Ġrelation":3076,"Ġbook":3077,"Ġcontainer":3078,"Ġexplicitly":3079,"ĠBecause":3080,"Ġhappening":3081,"Ġreferences":3082,"DK":3083,"Ġcorre":3084,"Ġserial":3085,"\");":3086,"ested":3087,"ello":3088,"ĠUse":3089,"100":3090,"==":3091,"MS":3092,"Ġundefined":3093,"project":3094,"count":3095,"Ġmissed":3096,"Ġplatform":3097,"foo":3098,"avid":3099,"Ġamount":3100,"rict":3101,"Ġbinding":3102,"null":3103,"ries":3104,"Ġdig":3105,":\\":3106,"ION":3107,"Ġcop":3108,"Ġaw":3109,"Ġpress":3110,"soci":3111,"Ġmanage":3112,"access":3113,"Ġtemp":3114,"Ġinvalid":3115,"ane":3116,"only":3117,"ĠGood":3118,"Ġcook":3119,"Ġsuppose":3120,"Ġdoub":3121,"icate":3122,"87":3123,"Ġdeclar":3124,"Ġrange":3125,"return":3126,"arily":3127,"irtual":3128,"IM":3129,"esome":3130,"Ġincluding":3131,"ried":3132,"Ġcant":3133,"ohn":3134,"ride":3135,"Ġexperience":3136,"ĠHTTP":3137,"Ġmom":3138,"Ġallows":3139,"Ġstrange":3140,"Ġsequ":3141,"Ġscenari":3142,"Ġideas":3143,"Ġfinal":3144,"Ġignore":3145,"Ġmeaning":3146,"Ġefficient":3147,"try":3148,"vers":3149,"Event":3150,"Ġexecuted":3151,"Ġdetail":3152,"Ġmar":3153,"ters":3154,"ĠDOM":3155,"Ġallowed":3156,"Ġdest":3157,"Ġpointers":3158,"Ġpointing":3159,"Ġsk":3160,"tract":3161,"ival":3162,"Ġrequests":3163,"aks":3164,"ĠLin":3165,"Ġ(`":3166,"):":3167,"Ġoperation":3168,"Ġmember":3169,"ategory":3170,"Ġtools":3171,"Ġfiddle":3172,"Ġencoding":3173,"run":3174,"wikipedia":3175,"uses":3176,"Ġappli":3177,"Ġbinary":3178,"Ġquotes":3179,"Ġfigured":3180,"Ġspecified":3181,"ruction":3182,"content":3183,"mail":3184,"Ġresource":3185,"Bu":3186,"const":3187,"ĠSince":3188,"60":3189,"Ġ`-":3190,"Ġleave":3191,"Ġassemb":3192,"ains":3193,"ek":3194,"ERE":3195,"PU":3196,"rite":3197,"Ġtogether":3198,"Ġsomehow":3199,"Pl":3200,"ren":3201,"rem":3202,"Ġalternative":3203,"Ġ`/":3204,"System":3205,"ĠBy":3206,"='":3207,"thread":3208,"Ġla":3209,"\":":3210,"Ġlead":3211,"Ġcontents":3212,"Ġnetwork":3213,"Ġdetect":3214,"Ġlib":3215,"Ġpush":3216,"Where":3217,"under":3218,"ĠHere":3219,"ftware":3220,"Ġnamed":3221,"Ġconcern":3222,"arant":3223,"Ġnotic":3224,"Ġcuri":3225,"Ġmoment":3226,"tag":3227,"ĠSystem":3228,"Ġcoming":3229,"Ġterm":3230,"entially":3231,"ĠWould":3232,"rix":3233,"Ġsolutions":3234,"Ġsaw":3235,"ĠCl":3236,"Ġprivate":3237,"Ġschem":3238,"Ġzero":3239,"ĠVS":3240,"Ġalong":3241,"icture":3242,"Ġpaste":3243,"Ġbottom":3244,"Ġexternal":3245,"icking":3246,"Ġcomplic":3247,"orate":3248,"field":3249,"cket":3250,"Ġlabel":3251,"Ġalert":3252,"Ġfails":3253,"44":3254,"orage":3255,"reference":3256,"some":3257,"pecially":3258,"aster":3259,"Ġfinish":3260,"utes":3261,"Good":3262,"Ġ20":3263,"Ġdevelopment":3264,"ively":3265,"Ġinterested":3266,"ses":3267,"obile":3268,"Ġdiscussion":3269,"Ġvalidation":3270,"Ġspeed":3271,"Ġsplit":3272,"Ġ\\":3273,"oke":3274,"Ġduring":3275,"create":3276,"txt":3277,"bet":3278,"Ġgraph":3279,"Ġconcept":3280,"past":3281,"Ġrelease":3282,"ions":3283,"ris":3284,"Ġconfir":3285,"sa":3286,"Ġbyte":3287,"Ġmer":3288,"part":3289,"Key":3290,"son":3291,"Ġaffect":3292,"esting":3293,"Ġsnipp":3294,"vert":3295,"Ġsem":3296,"Ġdialog":3297,"ili":3298,"ives":3299,"ĠiOS":3300,"Ġstd":3301,"rel":3302,"Ġ`(":3303,"Ġsupported":3304,"ĠDon":3305,"uth":3306,"javascript":3307,"Ġshared":3308,"Ġfetch":3309,"Ġsuggestions":3310,"JS":3311,"Ġrule":3312,"Ġrepe":3313,"AN":3314,"well":3315,"Ġsending":3316,"Ġtree":3317,"Select":3318,"Ġboo":3319,"Ġbody":3320,"Ġhop":3321,"ĠInt":3322,"Ġguys":3323,"mbol":3324,"Maybe":3325,"show":3326,"DO":3327,"Ġweird":3328,"ĠAnyway":3329,"Index":3330,"Ġacross":3331,"Ġprec":3332,"Ġwondering":3333,"ango":3334,"Ġpick":3335,"sorry":3336,"thank":3337,"Ġapps":3338,"Ġrelative":3339,"Ġguarant":3340,"json":3341,"Ġdebugging":3342,"Ġattributes":3343,"Ġviews":3344,"main":3345,"ĠWhich":3346,"Ġcommun":3347,"Any":3348,"Ġremoving":3349,"Ġchoose":3350,"cedure":3351,"AB":3352,"ured":3353,"arg":3354,"Ġrules":3355,"Ġunfortunately":3356,"Ġvote":3357,"Ġyears":3358,"66":3359,"Ġsuper":3360,"Ġmaintain":3361,"Ġnative":3362,"Ġclearly":3363,"'`":3364,"Ġbehaviour":3365,"Ġ32":3366,"ivalent":3367,"Ġfont":3368,"imum":3369,"Ġbranch":3370,"Ġassoci":3371,"Ġcomputer":3372,"Ġspecifically":3373,"vs":3374,"ename":3375,"Ġ</":3376,"Note":3377,"Ġcompar":3378,"Ġwish":3379,"result":3380,"img":3381,"ĠOpen":3382,"Ġlearning":3383,"Ġsafe":3384,"Ġbuttons":3385,"Load":3386,"aving":3387,"Def":3388,"ulator":3389,"Element":3390,"idget":3391,"Ġinject":3392,"Ġcallback":3393,"Ġ64":3394,"lean":3395,"ocus":3396,"HERE":3397,"Ġnoticed":3398,"Ġmac":3399,"Ġfun":3400,"ĠNOT":3401,"Don":3402,"OP":3403,"item":3404,"Ġvector":3405,"Ġdescription":3406,"have":3407,"----":3408,"asp":3409,"TW":3410,"icks":3411,"Ġwelcome":3412,"Ġfam":3413,"Ġmonth":3414,"Ġhidden":3415,"ĠDe":3416,"Ġthird":3417,"jango":3418,"ixel":3419,"igned":3420,"pository":3421,"Ġtrouble":3422,"40":3423,"Ġshell":3424,"Net":3425,"Ġ;-)":3426,"call":3427,"erson":3428,"ĠPl":3429,")`.":3430,"Ġbloc":3431,"Ġgrid":3432,"Ġregister":3433,"Ġinherit":3434,"Ġdisplayed":3435,"did":3436,"ĠOR":3437,"source":3438,"Ġevalu":3439,"Ġtip":3440,"Ġtwice":3441,"ĠEven":3442,"Ġconsidered":3443,"ĠWell":3444,"Ġdeclared":3445,"Ġinvol":3446,"Ġcame":3447,"tem":3448,"Ġdeleted":3449,"Ġmodified":3450,"Ġinstant":3451,"ĠUser":3452,"Ġconv":3453,"Ġdeploy":3454,"Ġdynamically":3455,"Ġdeclare":3456,"ĠAfter":3457,"group":3458,"Ġgeneric":3459,"SL":3460,"Ġinterpre":3461,"ĠĠĠĠĠĠ":3462,"Ġlatest":3463,"core":3464,"Hmm":3465,"requ":3466,"ĠWhere":3467,"Ġliter":3468,"Ġexecution":3469,"raph":3470,"ĠWill":3471,"?)":3472,"(),":3473,"ogn":3474,"Ġdoubt":3475,"35":3476,"`)":3477,"Ġsaved":3478,"One":3479,"Ġcouple":3480,"From":3481,"Ġque":3482,"Ġvs":3483,"ramework":3484,"Ġrequirement":3485,"Ġassuming":3486,"des":3487,"mine":3488,"ov":3489,"ĠPerhaps":3490,"umb":3491,"Ġdoesnt":3492,"ged":3493,"Ġcausing":3494,"Then":3495,"Ġago":3496,"Ġbound":3497,"pper":3498,"Ġsoftware":3499,"Ġnotice":3500,"connect":3501,"Ġcomplicated":3502,"Ġeffort":3503,"first":3504,"ĠIP":3505,"ĠReg":3506,"build":3507,"Ġsuspect":3508,"Ġdirection":3509,"Ġbehind":3510,"plete":3511,"aa":3512,"Ġconfusing":3513,"lient":3514,"lier":3515,"wards":3516,"ĠOK":3517,"process":3518,"off":3519,"Request":3520,"Ġdepending":3521,"mary":3522,"Ġ//":3523,"ĠStack":3524,"\";":3525,"Ġremote":3526,"fox":3527,"Ġvideo":3528,"Stream":3529,"Ġresources":3530,"],":3531,"itted":3532,"Upd":3533,"Ġprojects":3534,"anged":3535,"AD":3536,"AP":3537,"ROM":3538,"Ġchoice":3539,"Control":3540,"ĠUsing":3541,"Ġequivalent":3542,"Ġnamespace":3543,"pport":3544,"ness":3545,"Ġphone":3546,"Ġlanguages":3547,"Ġvirtual":3548,"Ġvisible":3549,"acke":3550,"izer":3551,"please":3552,"Log":3553,"Ġmine":3554,"Ġglad":3555,"shot":3556,"mark":3557,"Ġfair":3558,"85":3559,"Ġdebugger":3560,"Ġtotally":3561,"ĠFile":3562,"ĠNULL":3563,"avigation":3564,"Ġextend":3565,"ĠArray":3566,"Ġadmin":3567,"Ġfriend":3568,"Ġreasons":3569,"Ġusage":3570,"Use":3571,"iliar":3572,"prec":3573,"Ġhours":3574,"Ġsyn":3575,"ĠInst":3576,"Ġlock":3577,"Ġoperations":3578,"af":3579,"Ġelab":3580,"Ġtrace":3581,"67":3582,"Ġfit":3583,"Button":3584,"Ġdeveloper":3585,"gress":3586,"Bar":3587,"ackex":3588,"Ġminutes":3589,"ribute":3590,"there":3591,"Ġredu":3592,"Ġimmedi":3593,"ackexchange":3594,"Ġ`@":3595,"bern":3596,"ĠMVC":3597,"Ġtransaction":3598,"Ġplan":3599,"Ġtook":3600,"sty":3601,"df":3602,"Post":3603,"depend":3604,"CH":3605,"Ġconversion":3606,"event":3607,"utable":3608,"works":3609,"Ġparts":3610,"Ġdrop":3611,"90":3612,"Ġ`\"":3613,"imple":3614,"ĠSE":3615,"around":3616,"rodu":3617,"alf":3618,"Ġtypo":3619,"Ġanywhere":3620,"ese":3621,"ifier":3622,"ĠEclipse":3623,"Activity":3624,"Ġfeed":3625,"Ġgenerally":3626,"Ġespecially":3627,"Map":3628,"sum":3629,"Ġspaces":3630,"Ġscenario":3631,"aching":3632,"ĠVB":3633,"fin":3634,"Ġcomponent":3635,"gers":3636,"ism":3637,"Ġengine":3638,"Ġchance":3639,"ĠOtherwise":3640,"ledge":3641,"ĠTr":3642,"Ġimprove":3643,"ptions":3644,"He":3645,"stackexchange":3646,"Ġconstr":3647,"ĠVisual":3648,"Ġtransl":3649,"Service":3650,"sq":3651,"bernate":3652,"Ġrefresh":3653,"Ġclause":3654,"yp":3655,"verse":3656,"URL":3657,"Ġprocessing":3658,"ĠSome":3659,"cs":3660,"Ġprocedure":3661,"exe":3662,"Ġkeyword":3663,"ster":3664,"Ġequal":3665,"Ġjar":3666,"Ġstatus":3667,"Ġdescribed":3668,"ĠIts":3669,"Ġcoding":3670,"Manager":3671,"US":3672,"}`":3673,"cast":3674,"ĠZ":3675,"Ġinstances":3676,"fficient":3677,"Ġclosed":3678,"ĠĠĠĠĠĠĠĠĠĠĠĠĠĠĠĠĠĠĠĠĠĠĠĠĠĠĠĠĠĠĠĠ":3679,"ttp":3680,"current":3681,"unk":3682,"hand":3683,"case":3684,"Ġabsolutely":3685,"Ġfire":3686,"acebook":3687,"VM":3688,"Ġhack":3689,"Ġfill":3690,"Ġreprodu":3691,"Edit":3692,"verflow":3693,"Ġpull":3694,"ViewController":3695,"Ġcontrols":3696,"manual":3697,"/#":3698,"anc":3699,"Ġinser":3700,"md":3701,"ĠIDE":3702,"cape":3703,"iness":3704,"ĠASP":3705,"Ġran":3706,"DE":3707,"Ġpicture":3708,"ship":3709,"width":3710,"system":3711,"oded":3712,"03":3713,"Ġentry":3714,"Ġmanaged":3715,"dele":3716,"ĠStudio":3717,"97":3718,"DF":3719,"Ġcombin":3720,"Ġoverride":3721,"Ġeveryone":3722,"Here":3723,"Ġmouse":3724,"eet":3725,"()`.":3726,"files":3727,"Ġapplications":3728,"umber":3729,"Inst":3730,"compl":3731,"ams":3732,"Ġwent":3733,"Ġentity":3734,"rib":3735,"Ġauthent":3736,"match":3737,"Ġut":3738,"length":3739,"mer":3740,"AS":3741,"Ġcross":3742,"Ġintegr":3743,"Create":3744,"clo":3745,"Ġfailed":3746,"arently":3747,"base":3748,"vlet":3749,"We":3750,"install":3751,"Ġdeclaration":3752,"ĠFROM":3753,"method":3754,"ident":3755,"Ġfloat":3756,"ĠRE":3757,"Ġmix":3758,"info":3759,"Ġanal":3760,"Ġyeah":3761,"Ġfeatures":3762,"Ġbits":3763,"Ġsymbol":3764,"Ġexceptions":3765,"Ġslight":3766,"Ġsimpler":3767,"Ġsnippet":3768,"Ġbeginning":3769,"Ġmag":3770,"Ġhoping":3771,"Ġbus":3772,"enced":3773,"Ġworld":3774,"Ġthus":3775,"Ġarch":3776,"jar":3777,"Ġelaborate":3778,"Ġentirely":3779,"Ġlists":3780,"ender":3781,"Ġhandling":3782,"Ġcir":3783,"07":3784,"plicit":3785,"Which":3786,"ĠHe":3787,"lying":3788,"Field":3789,"rec":3790,"Out":3791,"Ġcompat":3792,"ĠText":3793,"ison":3794,"while":3795,"Ġobviously":3796,"png":3797,"Ġplain":3798,"Ġpossibly":3799,"ĠGet":3800,"Ġterms":3801,"model":3802,"gener":3803,"47":3804,"Ġenum":3805,"Ġinner":3806,"ĠStill":3807,"Ġtotal":3808,"Ġcreates":3809,"ric":3810,"Great":3811,"Ġearlier":3812,"!!!":3813,"Sc":3814,"Ġheaders":3815,"exec":3816,"rd":3817,"\\\\":3818,"inding":3819,"eers":3820,"Ġended":3821,"undle":3822,"uge":3823,"pack":3824,"aining":3825,"spond":3826,"Ġeditor":3827,"Ġfully":3828,"Layout":3829,"Ġconfirm":3830,"tu":3831,"ĠPost":3832,"Ġbenef":3833,"Ġchat":3834,"Ġdetermine":3835,"button":3836,"Ġhim":3837,"Ġcopied":3838,"ĠShould":3839,"etime":3840,"Ġfamiliar":3841,"Ġembed":3842,"ided":3843,"Ġneg":3844,"ne":3845,"First":3846,"raight":3847,"ktop":3848,"Ġfinding":3849,"between":3850,"Ġcompiled":3851,"Ġsearching":3852,"Ġ:-":3853,"Ġinstruction":3854,"stract":3855,"ocol":3856,"Ġgit":3857,"Ġlayer":3858,"Ġorigin":3859,"adding":3860,".,":3861,"Ġselector":3862,"lang":3863,"Ġinternal":3864,"Ġstarts":3865,"oop":3866,"wor":3867,"Ġ`#":3868,"Ġblank":3869,"ĠiP":3870,"Ġ[`":3871,"?](":3872,"Ġtouch":3873,"Ġstuck":3874,"Ġassembly":3875,"Content":3876,"JAX":3877,"cap":3878,"Ġcurious":3879,"Ġnested":3880,"ha":3881,"Doc":3882,"clear":3883,"ĠEdit":3884,"mon":3885,"POST":3886,"Ġknown":3887,"amb":3888,"Ġcapt":3889,"Ġlive":3890,"ins":3891,"Ġparsing":3892,"Ġscripts":3893,"Ġ15":3894,"static":3895,"icode":3896,"Ġworry":3897,"know":3898,"Ġmatches":3899,"Ġyours":3900,"David":3901,"Ġcor":3902,"][":3903,"Ġdesired":3904,"ivid":3905,"ĠWin":3906,"after":3907,"Ġextract":3908,"domain":3909,"Ġstraight":3910,"Ġdelegate":3911,"ories":3912,"Ġstoring":3913,"ĠSet":3914,"Ġhint":3915,"illa":3916,"ĠGC":3917,"Ġdescribe":3918,"Ġtoken":3919,"Ġmill":3920,"pg":3921,"ĠLinux":3922,"Ġpersist":3923,"Ġdev":3924,"version":3925,"Ġrealize":3926,"Ġanymore":3927,"Ġsupports":3928,"Ġopin":3929,"Ġimag":3930,"complish":3931,"Ġdidnt":3932,"Ġcap":3933,"Ġknowledge":3934,"ĠLet":3935,"Ġunit":3936,"unc":3937,"ĠDate":3938,"Ġinstanti":3939,"false":3940,"SELECT":3941,"Ġroute":3942,"Java":3943,"Ġconstraint":3944,"05":3945,"ĠBe":3946,"Okay":3947,"da":3948,"upid":3949,"State":3950,"ursor":3951,"ĠQu":3952,"Ġdisc":3953,"Ġmisunder":3954,"Ġconsist":3955,"ĠOf":3956,"ĠIM":3957,"Ġimpossible":3958,"ĠError":3959,"Ġreferring":3960,"rows":3961,"Ġaccomplish":3962,"encies":3963,"ĠActually":3964,"ĠUnfortunately":3965,"69":3966,"eger":3967,"Ġmail":3968,"actly":3969,"elper":3970,"Ġauthor":3971,"Ġbuilding":3972,"Ġarea":3973,"');":3974,"display":3975,"Ġlaunch":3976,"Ġnear":3977,"Ġensure":3978,"Ġnone":3979,"09":3980,"ĠJavascript":3981,"Click":3982,"Ġhide":3983,"Ġdictionary":3984,"ĠInter":3985,"dk":3986,"ines":3987,"Ġcorrespond":3988,"Ġgame":3989,"Ġ12":3990,"format":3991,"Ġproduction":3992,"Ġforce":3993,"Ġcontaining":3994,"02":3995,"Ġrid":3996,"vas":3997,"ĠFirefox":3998,"Ġstay":3999,"Ġexpand":4000,"na":4001,"Ste":4002,"rad":4003,"Loc":4004,"HTML":4005,"Source":4006,"Ġqueue":4007,"answer":4008,"window":4009,"Ġcompl":4010,"Hey":4011,"oom":4012,"Ġpixel":4013,"Ġtoday":4014,"IE":4015,"ajax":4016,"Ġodd":4017,"Ġcommit":4018,"Ġfinally":4019,"Ġwrap":4020,"ulti":4021,"void":4022,"Ġassignment":4023,"make":4024,"Ġpay":4025,"Ġmapping":4026,"Ġsequence":4027,"eric":4028,"Ġlots":4029,"ĠFrom":4030,"iece":4031,"ĠLike":4032,"Ġoverl":4033,"ĠHope":4034,"Ġresp":4035,"Ġrestart":4036,"replace":4037,"cellent":4038,"Ġsets":4039,"2010":4040,"Ġtermin":4041,"ĠNote":4042,"Ġediting":4043,"vari":4044,"ising":4045,"oracle":4046,"ordin":4047,"example":4048,"ts":4049,"Ġoffer":4050,"Ġder":4051,"Jon":4052,"Test":4053,"Ġpermissions":4054,"Application":4055,"ani":4056,"Ġindivid":4057,"Ġreceive":4058,"application":4059,"Ġsound":4060,"Ġfront":4061,"Ġaf":4062,"Ġ16":4063,"ators":4064,"Ġunderstood":4065,"jav":4066,"AC":4067,"RI":4068,"Ġresearch":4069,"Ġ$(":4070,"Ġforward":4071,"ias":4072,"Le":4073,"Ġcost":4074,"auth":4075,"Dis":4076,"Ġformatting":4077,"ui":4078,"yy":4079,"chronous":4080,"ded":4081,"oting":4082,"Ġbroken":4083,"Ġworkaround":4084,"Ġsubclass":4085,"?\"":4086,"Ġimmediately":4087,"ĠWHERE":4088,"ape":4089,"Ġmoving":4090,"Ġcomb":4091,"ract":4092,"ume":4093,"Ġbecom":4094,"request":4095,"Ġintrodu":4096,"creen":4097,"Ġknows":4098,"should":4099,"ceed":4100,"imension":4101,"Ġdemo":4102,"Ġmacro":4103,"Ġcommands":4104,"Ġinline":4105,"Run":4106,"UT":4107,"ĠAJAX":4108,"ounter":4109,"iles":4110,"Ġretrieve":4111,"max":4112,"edu":4113,"len":4114,"Ġknew":4115,"othing":4116,"38":4117,"Ġwa":4118,"plates":4119,"Ġins":4120,"Ġhom":4121,"Ġupdating":4122,"Ġlogs":4123,"Ġrequirements":4124,"Ġrecogn":4125,"precated":4126,"Ġpure":4127,"Ġbecome":4128,"roy":4129,"complete":4130,"asks":4131,"Ġhuge":4132,"Ġess":4133,"Ġtopic":4134,"ansp":4135,"alle":4136,"Ġdownvote":4137,"06":4138,"ĠCode":4139,"Ġschema":4140,"Format":4141,"default":4142,"FF":4143,"sch":4144,"based":4145,"ĠUpd":4146,"Ġmembers":4147,"lash":4148,"Grid":4149,"mitted":4150,"Ġunn":4151,"Ġlove":4152,"Ġmanual":4153,"leep":4154,"Ġcheckbox":4155,"ration":4156,"Ġanimation":4157,"hh":4158,"49":4159,"Ġlower":4160,"mem":4161,"ael":4162,"ĠWP":4163,"Ġclicked":4164,"Ġcodes":4165,"Ġcore":4166,"ublish":4167,"Ġpiece":4168,"iss":4169,".*":4170,"asically":4171,"Ġupdates":4172,"oms":4173,"ĠUTF":4174,"Row":4175,"Ġfrag":4176,"Ġopp":4177,"FA":4178,"Ġlow":4179,"ĠCPU":4180,"ĠMicrosoft":4181,"aven":4182,"ĠAND":4183,"cing":4184,"Ġrelationship":4185,"vc":4186,"ny":4187,"style":4188,"ater":4189,"Ġtransform":4190,"stems":4191,"EN":4192,"Ġintended":4193,"EX":4194,"ĠSDK":4195,"Ġtold":4196,"Ġ$_":4197,"Ġround":4198,"Ġtherefore":4199,"2012":4200,"Ġjsfiddle":4201,"voted":4202,"...)":4203,"tutorial":4204,"Ġindic":4205,"ernel":4206,"ging":4207,"zz":4208,"Ġrepository":4209,"Ġtaken":4210,"Ġopinion":4211,"Ġpot":4212,"aging":4213,"ĠIS":4214,"Ġenabled":4215,"Ġblog":4216,"ns":4217,"Ġupgr":4218,"Ġcover":4219,"ma":4220,"echan":4221,"ĠRead":4222,"Ġnecessarily":4223,"number":4224,"ats":4225,"Ġmet":4226,"Listener":4227,"tim":4228,"Ġmatrix":4229,"Hand":4230,"Ġ30":4231,"><":4232,"ze":4233,"Ġnodes":4234,"Ġimplementing":4235,"OL":4236,"ĠMac":4237,"client":4238,"PL":4239,"asure":4240,"Ġoccur":4241,"rop":4242,"Pr":4243,"PE":4244,"ĠRes":4245,"\"]":4246,"Ġicon":4247,"Ġbunch":4248,"det":4249,"Ġstupid":4250,"Result":4251,"Ġrespond":4252,"illy":4253,"Collection":4254,"ĠSp":4255,"help":4256,"Ġdevices":4257,"patch":4258,"uous":4259,"Ġclosing":4260,"mor":4261,"Ġstyles":4262,"Thread":4263,"ev":4264,"Ġstrong":4265,"Ġsuit":4266,"John":4267,"Ġupvote":4268,"clud":4269,"Jo":4270,"include":4271,"Ġchecks":4272,"Ġvoid":4273,"Ġreset":4274,"Client":4275,"Ġ}`":4276,"Ġhappy":4277,"windows":4278,"mand":4279,"Ġstated":4280,"sort":4281,"*,":4282,"Ġwont":4283,"Ġhalf":4284,"Ġfocus":4285,"ĠTH":4286,"Ġprimary":4287,"Ġprovides":4288,"ework":4289,"Ġstorage":4290,"public":4291,"Ġslightly":4292,"Ġ50":4293,"Ġcookie":4294,"Ġnor":4295,"ho":4296,"Ġstud":4297,"import":4298,"Ġexplained":4299,"ĠPOST":4300,"Now":4301,"08":4302,"Ġclicking":4303,"aming":4304,"Ġmanip":4305,"Ġprotect":4306,"ntity":4307,"Ġnormally":4308,"ĠAm":4309,"Action":4310,"Ġhome":4311,"Using":4312,"sy":4313,"ading":4314,"45":4315,"21":4316,"ĠOnly":4317,"raid":4318,"Ġsaving":4319,"Ġreflect":4320,"Ġur":4321,"Ġapplied":4322,"Ġoverload":4323,"Ġsteps":4324,"polog":4325,"Ġhor":4326,"iver":4327,"CL":4328,"Ġeclipse":4329,"Ġparser":4330,"Ġapi":4331,"Ġmatching":4332,"ying":4333,"yeah":4334,"Ġrot":4335,"onym":4336,"/.":4337,"Gr":4338,"Connect":4339,"CF":4340,"Ġdelay":4341,"pers":4342,"Build":4343,"Ġra":4344,"Wow":4345,"onest":4346,"Ġoccurs":4347,"Ġresolve":4348,"ifest":4349,"ponent":4350,"azy":4351,"thes":4352,"UE":4353,"Ġsrc":4354,"parse":4355,"Ġguessing":4356,"go":4357,"Ġtempor":4358,"lip":4359,"Ġdeprecated":4360,"ĠClass":4361,"Ġcoll":4362,"Would":4363,"Ġlimited":4364,"td":4365,"cpp":4366,"ots":4367,"Default":4368,"Ġcauses":4369,"OW":4370,"Ġpanel":4371,"izes":4372,"Ab":4373,"Att":4374,"oto":4375,"Ġpointed":4376,"layout":4377,"Ġexpecting":4378,"Ġplaces":4379,"Ġincludes":4380,"Ġ!=":4381,"cal":4382,"gramm":4383,"GL":4384,"uming":4385,"pass":4386,"Info":4387,"fr":4388,"itect":4389,"`](":4390,"Ġund":4391,"Ġproduce":4392,"gl":4393,"ING":4394,"Ġ/>":4395,"Ġwrapper":4396,"Ġblocks":4397,"Ġregarding":4398,"Ġill":4399,"Ġaccur":4400,"remove":4401,"Ġcomparison":4402,"ift":4403,"Ġ`\\":4404,"ĠIIS":4405,"icker":4406,"ea":4407,"win":4408,"Ġproxy":4409,"Ġservices":4410,"Ġ^":4411,"Ġhence":4412,"();`":4413,"Ġusername":4414,"Ġcontinue":4415,"Ġlogging":4416,"ught":4417,"Ġbecomes":4418,"Mar":4419,"Ġadvant":4420,"position":4421,"Reg":4422,"\",\"":4423,"Ġafraid":4424,"jo":4425,"Rec":4426,"ilities":4427,"Ġsocket":4428,"Ġreplaced":4429,"Ġmath":4430,"src":4431,"Ġvert":4432,"amer":4433,"Ġupon":4434,"update":4435,"Tim":4436,"stream":4437,"Ġmechan":4438,"Ġsorted":4439,"Ġvarious":4440,"meta":4441,"Mark":4442,"Ġexecuting":4443,"ĠFirst":4444,"ums":4445,"level":4446,"ls":4447,"poses":4448,"Ġnotification":4449,"Ġreadable":4450,"Ġlost":4451,"irectory":4452,"ĠForm":4453,"Ġprofile":4454,"Su":4455,"Ġforms":4456,"Show":4457,"VER":4458,"Ġsmaller":4459,"title":4460,"Ġleg":4461,"Ġcenter":4462,"Ġoverflow":4463,"ED":4464,"Ġcomponents":4465,"Ġconvention":4466,"Ġ`'":4467,"state":4468,"Ġgoal":4469,"OIN":4470,"Ġappend":4471,"RC":4472,"Ġrep":4473,"Ġrespect":4474,"height":4475,"Ġmoved":4476,"faces":4477,"Ġlarger":4478,"Ġcar":4479,"Ġverify":4480,"usr":4481,"Ġresolved":4482,"Ġactive":4483,"Ġprior":4484,"Ġslower":4485,"active":4486,":)":4487,"Ġorg":4488,"Ġfollowed":4489,"Ġ11":4490,"jor":4491,"ĠBY":4492,"Ġreli":4493,"ĠIN":4494,"sets":4495,"Reference":4496,"Ġdependency":4497,"Ġreload":4498,"Ġmarkup":4499,"sers":4500,"Ġcy":4501,"then":4502,"ainer":4503,"46":4504,"struct":4505,"Count":4506,"Ġsystems":4507,"Ġprompt":4508,"each":4509,"ĠGUI":4510,"signed":4511,"Ġopening":4512,"Ġposts":4513,"``":4514,"Ġappreciated":4515,"Ġpower":4516,"Ġguide":4517,"product":4518,"service":4519,"Ġsurpr":4520,"ĠRem":4521,"ĠApple":4522,"II":4523,"Ġtyped":4524,"Ġbo":4525,"Ġmobile":4526,"Ġprecise":4527,"Ġexport":4528,"Ġannot":4529,"Ġoverhead":4530,"kit":4531,"Ġpain":4532,"iding":4533,"ificant":4534,"pi":4535,"Ġanswering":4536,"Ġimpl":4537,"cent":4538,"sm":4539,"posed":4540,"zilla":4541,"istory":4542,"Ġrad":4543,"Some":4544,"Ġbelong":4545,"parent":4546,"vial":4547,"Ġimplicit":4548,"Property":4549,"leg":4550,"Ġolder":4551,"Start":4552,"Ġdetailed":4553,"Will":4554,"')`":4555,"Ġexpressions":4556,"Window":4557,"ination":4558,"Ġ??":4559,"Right":4560,"allel":4561,"Pre":4562,"Ġcool":4563,"asing":4564,"iag":4565,"Because":4566,"trans":4567,"Ġscreenshot":4568,"Ġunnecess":4569,"ptr":4570,"oper":4571,"Ġrev":4572,"actory":4573,"Ġhappened":4574,"Unfortunately":4575,"Ġprotocol":4576,"Ġloops":4577,"Ġdisable":4578,"IK":4579,"Ġimagine":4580,"Ġseg":4581,"related":4582,"Page":4583,"Ġprogress":4584,"oud":4585,"Ġknowing":4586,"Ġadds":4587,"dir":4588,"ĠDLL":4589,"akes":4590,"XX":4591,"lict":4592,"Ġdesigned":4593,"could":4594,"expect":4595,"Ġloads":4596,"chat":4597,"Sub":4598,"rary":4599,"Nice":4600,"Ġhighlight":4601,"Ġdevelopers":4602,"Ġcounter":4603,"Ġassumed":4604,"ĠMake":4605,"la":4606,"Ġdrag":4607,"ulation":4608,"Ġentries":4609,"Ġdecide":4610,"></":4611,"Ġ:/":4612,"Ġdependencies":4613,"ained":4614,"('#":4615,"numer":4616,"ĠMan":4617,"ĠInstead":4618,"cond":4619,"ĠRuby":4620,"Ġchrome":4621,"Ġsubject":4622,"onymous":4623,"En":4624,"otype":4625,"dif":4626,"echo":4627,"even":4628,"Ġgl":4629,"rupt":4630,"ĠAd":4631,"Ġreproduce":4632,"Ġservers":4633,"Ġvisual":4634,"Ġincrement":4635,"Line":4636,"Ġaccessing":4637,"Ġpair":4638,"Ġconfusion":4639,"iod":4640,"Ġbring":4641,"uk":4642,"Ġready":4643,"param":4644,":`":4645,"inner":4646,"Yep":4647,"apache":4648,"custom":4649,"@\"":4650,"Ġdisplaying":4651,"ios":4652,"ĠĠĠĠĠĠĠĠĠ":4653,"Ġhref":4654,"Hello":4655,"ĠSELECT":4656,"Ġweek":4657,"Ġtimer":4658,"48":4659,"itter":4660,"ĠSec":4661,"Ġhomework":4662,"Ġir":4663,"Ġcalculate":4664,"acy":4665,"DATE":4666,"aul":4667,"Message":4668,"Ġmerge":4669,"Ġdisk":4670,"){":4671,"master":4672,"Ġpaths":4673,"arb":4674,"node":4675,"ĠOnce":4676,"store":4677,"aff":4678,"Ġtextbox":4679,"apt":4680,"Des":4681,"Ġbusiness":4682,"has":4683,"Ġmiddle":4684,"lines":4685,"Ġokay":4686,"apple":4687,"Ġindividual":4688,"because":4689,"artic":4690,"rollers":4691,"ĠAlthough":4692,"util":4693,"Ġwaiting":4694,"Ġauthentication":4695,"DN":4696,"ĠOracle":4697,"ĠSS":4698,"Ġprocesses":4699,"OC":4700,"next":4701,"Number":4702,"Ġdifferently":4703,"Ġnegative":4704,"Point":4705,"Sure":4706,"Back":4707,"Method":4708,"onstr":4709,"TR":4710,"Down":4711,"pache":4712,"31":4713,"Ġthrown":4714,"Ġinitialize":4715,"admin":4716,"Ġraw":4717,"Rem":4718,"iving":4719,"*`":4720,"also":4721,"**.":4722,"Ġsum":4723,"ium":4724,"New":4725,"sive":4726,"Ġcharm":4727,"last":4728,"Ġ....":4729,"Ġvi":4730,"without":4731,"Ġcaused":4732,"uff":4733,"Ġprefix":4734,"encing":4735,"Ġlight":4736,"ĠBTW":4737,"ĠApplication":4738,"aren":4739,"Ġdemonstr":4740,"Ġcontin":4741,"Ġstick":4742,"???":4743,"logy":4744,"ings":4745,"Ġmodels":4746,"topic":4747,"typ":4748,"Ġclearer":4749,"Ġdriver":4750,"Ġquickly":4751,"ĠAP":4752,"Ġflo":4753,"column":4754,"eel":4755,"support":4756,"65":4757,"arp":4758,"Ġcontact":4759,"Ġ~":4760,"Ġed":4761,"ĠLog":4762,"Ġbrack":4763,"Ġnil":4764,"Ġlogged":4765,"ĠBu":4766,"Ġcut":4767,"Ġrewrite":4768,"child":4769,"Ġdates":4770,"Ġfault":4771,"Ġscal":4772,"location":4773,"Ġrecurs":4774,"gi":4775,"Ġpoor":4776,"Ġhigher":4777,"Ġindexes":4778,"Ġtyping":4779,"INQ":4780,"Ġrealized":4781,"Ġquote":4782,"Work":4783,"Ġescape":4784,"Ġfoo":4785,"pdown":4786,"inct":4787,"Ġthrows":4788,"dll":4789,"graph":4790,"/).":4791,"esides":4792,"ĠEvery":4793,"ures":4794,"Ġcoordin":4795,"sequ":4796,"Ġassigned":4797,"ĠCol":4798,"Ġms":4799,"Ġpa":4800,"met":4801,"vm":4802,"zip":4803,"Ġfairly":4804,"Ġenable":4805,"aim":4806,"Ġmargin":4807,"Ġawesome":4808,"Ġconcat":4809,"ural":4810,"Looks":4811,"UM":4812,"\")`":4813,"FI":4814,"Char":4815,"Ġabstract":4816,"Changed":4817,"Ġsignature":4818,"Ġsignificant":4819,"Ġsuccessfully":4820,"Ġmaster":4821,"perties":4822,"Ġconditions":4823,"`).":4824,"Base":4825,"filter":4826,"Ġattach":4827,"Ġer":4828,"Ġbreakpoint":4829,"ister":4830,"duct":4831,"Ġboolean":4832,"ipe":4833,"Ġclients":4834,"[\"":4835,"Ġbenefit":4836,"block":4837,"tings":4838,"ĠĠĠĠĠĠĠ":4839,"oost":4840,"ichael":4841,"jpg":4842,"continue":4843,"Ġadjust":4844,"Ġneither":4845,"home":4846,"lab":4847,"Ġeleg":4848,"resp":4849,"real":4850,"reme":4851,"pdf":4852,"angle":4853,"sel":4854,"ges":4855,"discussion":4856,"rele":4857,"AG":4858,"Ġselection":4859,"True":4860,"controller":4861,"Ġdir":4862,"Ġarbit":4863,"Frame":4864,"79":4865,"DI":4866,"untu":4867,"Ġlisten":4868,"Ġopened":4869,"Ġtimeout":4870,"Ġarchitect":4871,"Ġwhite":4872,"/`":4873,"root":4874,"rooms":4875,"estamp":4876,"Ġlife":4877,"Ġ1000":4878,"Ġdll":4879,"Ġstates":4880,"=>":4881,"Ro":4882,"itor":4883,"Ġlate":4884,"ky":4885,"()`,":4886,"Ġonline":4887,"images":4888,"ands":4889,"ĠVal":4890,"bind":4891,"Ġ__":4892,"Ġplaced":4893,"ynchronous":4894,"Ġnavigation":4895,"ĠOk":4896,"Ġcopying":4897,"SV":4898,"Ġsemant":4899,"ATH":4900,"2011":4901,"Ġtelling":4902,"Ġvalidate":4903,"Ġmodules":4904,"ĠEng":4905,"Ġwidget":4906,"Ġgone":4907,"Ġimplementations":4908,"Ġexit":4909,"Ġdecided":4910,"Ġiterate":4911,"equ":4912,"Ġprinting":4913,"Size":4914,"quare":4915,"orer":4916,"Ġ`:":4917,"jQuery":4918,"iant":4919,"XML":4920,"Ġparty":4921,"68":4922,"ialize":4923,"ĠON":4924,"anced":4925,"Ġrendering":4926,"CP":4927,"Ġinitialized":4928,"rails":4929,"Ġhardware":4930,"Ġassociated":4931,"Ġsto":4932,"mat":4933,"oter":4934,"Ġsens":4935,"aves":4936,"delete":4937,"Ġheard":4938,"ĠRails":4939,"Ġtells":4940,"download":4941,"Since":4942,"Ġcategory":4943,"Ġescap":4944,"Ġdatab":4945,"Ġhelping":4946,"alk":4947,"Ġtransp":4948,"Ġtemplates":4949,"ĠLook":4950,"Node":4951,"Task":4952,"ruby":4953,"archive":4954,"cr":4955,"element":4956,"Ġinternet":4957,"Ġcells":4958,"Ġlack":4959,"Ġapparently":4960,"ĠAccess":4961,"ĠImage":4962,"Cell":4963,"ustr":4964,"serv":4965,"Ġstri":4966,"Ġidentical":4967,"ĠWPF":4968,"Ġregardless":4969,"known":4970,"Windows":4971,"ĠYeah":4972,"Ġwast":4973,"udo":4974,"Ġkernel":4975,"plicate":4976,"Ġunnecessary":4977,"Tem":4978,"Ġserious":4979,"Ġpurposes":4980,"JSON":4981,"Input":4982,"Ġoptimization":4983,"maybe":4984,"arm":4985,"Ġclarification":4986,"ĠExcel":4987,"ĠST":4988,"ncy":4989,"ĠRight":4990,"Ġgre":4991,"Auth":4992,"GET":4993,"Ġie":4994,"ini":4995,"Ġelegant":4996,"Its":4997,"Ġincrease":4998,"Ġ`{":4999,"ards":5000,"Ġdisabled":5001,"Ġreduce":5002,"Ġwin":5003,"Ġpossibility":5004,"strap":5005,"Ġscale":5006,"Ġmanager":5007,"Ġhonest":5008,"big":5009,"Ġheap":5010,"Ġborder":5011,"Ġreach":5012,"session":5013,"Ġunable":5014,"expected":5015,"frame":5016,"After":5017,"Server":5018,"Ġscan":5019,"Ġteam":5020,"tion":5021,"left":5022,"Ġpublish":5023,"isible":5024,"tab":5025,"Mod":5026,"Ġinputs":5027,"Ġpartial":5028,"ij":5029,"endar":5030,"âĢĿ":5031,"dict":5032,"Ġstrict":5033,"apping":5034,"icial":5035,"long":5036,"before":5037,"Ġspot":5038,"ponse":5039,"2013":5040,"Fiddle":5041,"Ġcompany":5042,"safe":5043,"Ġkeyboard":5044,"Ġunclear":5045,"Ġrepo":5046,"javase":5047,"forms":5048,"Ġiteration":5049,"ĠRun":5050,"annel":5051,"artin":5052,"copy":5053,"ĠSeems":5054,"atabase":5055,"Ġconnections":5056,"TH":5057,"ops":5058,"views":5059,"range":5060,"Ġmajor":5061,"Panel":5062,"dump":5063,"Ġindent":5064,"Ġsuggesting":5065,"Ġfold":5066,"Ġmig":5067,"Ġflex":5068,"Ġtre":5069,"ĠiPhone":5070,"Ġbatch":5071,"Make":5072,"Alex":5073,"Ġfour":5074,"ulated":5075,"agraph":5076,"PS":5077,"Ġconverted":5078,"Ġwhenever":5079,"Dele":5080,"ĠJOIN":5081,"don":5082,"Ġreasonable":5083,"Trans":5084,"iment":5085,"Co":5086,"Gu":5087,"Ġconflict":5088,"control":5089,"Ġuseless":5090,"del":5091,"Ġintent":5092,"amera":5093,"Ġtemporary":5094,"Http":5095,"Should":5096,"Ġsites":5097,"auto":5098,")\"":5099,"else":5100,"aj":5101,"ĠType":5102,"Ġcursor":5103,"Ġconnected":5104,"SER":5105,"Connection":5106,"Ġ&&":5107,"attr":5108,"ĠAg":5109,"ĠApache":5110,"Ġsorting":5111,".....":5112,"Mat":5113,"Ġdownloaded":5114,"Ġdump":5115,"obj":5116,"Ġcorrected":5117,"look":5118,"ById":5119,"anges":5120,"Ġinstructions":5121,"IC":5122,"Ġtrivial":5123,"ĠGET":5124,"ĠLINQ":5125,"Color":5126,"Ġkill":5127,"Ġactiv":5128,"Overflow":5129,"Ġiframe":5130,"Ġlatter":5131,"erc":5132,"color":5133,"Ġbother":5134,"Ġq":5135,"Ġlisted":5136,"Ġsir":5137,"aniel":5138,"Ġtasks":5139,"Document":5140,"Ġidentify":5141,"Ġturned":5142,"Ġbtw":5143,"/>":5144,"ebin":5145,"Ġdisapp":5146,"names":5147,"ends":5148,"Ġfall":5149,"localhost":5150,"sqli":5151,"double":5152,"Ġreads":5153,"ĠWhile":5154,"upload":5155,"uts":5156,"bre":5157,"raction":5158,"Ġcaching":5159,"brows":5160,"ooking":5161,"Ġinvolved":5162,"users":5163,"Ġmostly":5164,"Ġinfin":5165,"Ġforeach":5166,":(":5167,"','":5168,"Ġinstallation":5169,"ifi":5170,"Ġreceived":5171,"pal":5172,"Ġprograms":5173,"bing":5174,"Ġcomplexity":5175,"Ġinjection":5176,"Ġreferenced":5177,"anging":5178,"something":5179,"Ġhear":5180,"ĠMore":5181,"anguage":5182,"Ġpool":5183,"Ġhandles":5184,"Ġrecommended":5185,"Ġinserted":5186,"Ġadvantage":5187,"specific":5188,"Ġtick":5189,"Ġextreme":5190,"Ob":5191,"Ġpadding":5192,"Ġhandled":5193,"agree":5194,"Ġfinished":5195,"rist":5196,"Ġ:).":5197,"Ġcorresponding":5198,"GB":5199,"75":5200,"Ġbigger":5201,"Ġdealing":5202,"Ġmechanism":5203,"Ġessentially":5204,"ula":5205,"Ġproviding":5206,"aq":5207,"Ġcertific":5208,"?!":5209,"42":5210,"Ġbugs":5211,"Ġseemed":5212,"wesome":5213,"cp":5214,"cf":5215,"Ġgenerating":5216,"Ġdetermin":5217,"Ġliteral":5218,">>":5219,"ribution":5220,"Ġdecimal":5221,"prot":5222,"Bl":5223,"ĠPDF":5224,"zy":5225,"Ġdimension":5226,"Ġmarked":5227,"ĠSu":5228,"Ġcombination":5229,"Works":5230,"ram":5231,"ĠOh":5232,"ggle":5233,"Ġbreaks":5234,"Ġintegers":5235,"RO":5236,"Ġpoly":5237,"Ġchildren":5238,"Ġexplains":5239,"Ġembedded":5240,"iest":5241,"output":5242,"Ġrails":5243,"Ġgrab":5244,"Ġrect":5245,"ĠThread":5246,"ĠXcode":5247,"orge":5248,"AME":5249,"Ġcompared":5250,"Ġfragment":5251,"Ġencounter":5252,"Open":5253,"Ġperiod":5254,"vider":5255,"Ġguarantee":5256,"Ġconverting":5257,"oder":5258,"plugin":5259,"Ġlookup":5260,"Ġpopup":5261,"Ġtreat":5262,"tml":5263,"Ġmagic":5264,"ĠEX":5265,"Ġthrowing":5266,"Ġprogrammer":5267,"Ġrecur":5268,"Ġapolog":5269,"arbage":5270,")`,":5271,"phone":5272,"esh":5273,"Ġparen":5274,"uc":5275,"ynamic":5276,"Ġindepend":5277,"ambda":5278,"(\"#":5279,"Ġturns":5280,"ĠMost":5281,"Ġ`$(":5282,"ones":5283,"Ġug":5284,"ĠCL":5285,"PHP":5286,"Ġfeedback":5287,"Ġblack":5288,"Ġarbitrary":5289,"Ġmiss":5290,"Ġsynchron":5291,"Ġcomma":5292,"Ġinspect":5293,"Ġaccordingly":5294,"kill":5295,"Ġsomewhat":5296,"Ġprovider":5297,"Ġcreation":5298,"values":5299,"Ġlinux":5300,"split":5301,"rb":5302,"option":5303,"lements":5304,"Â´":5305,"itude":5306,"IF":5307,"Ġlets":5308,"Ġfilename":5309,"ancy":5310,"lear":5311,"ĠPC":5312,"Ġkeeping":5313,"Ġoriginally":5314,"Ġlazy":5315,"Interesting":5316,"ĠGu":5317,"ka":5318,"Ġplayer":5319,"Ġconcaten":5320,"Ġreplacing":5321,"AV":5322,"Ġdesktop":5323,"hash":5324,"*)":5325,"htm":5326,"ĠSpring":5327,"mac":5328,"Ġconfigure":5329,"tech":5330,"Ġemulator":5331,"scri":5332,"ĠBasically":5333,"Ġinheritance":5334,"ĠNet":5335,"ĠActivity":5336,"accept":5337,"cha":5338,"Link":5339,"Ġentities":5340,"cons":5341,"documentation":5342,".`":5343,"Ġtalk":5344,"ĠCheers":5345,"Ġ=)":5346,"numerable":5347,"!)":5348,"Adapter":5349,"Ġshowed":5350,"cd":5351,"Ġparagraph":5352,"Ġč":5353,"Ġlocally":5354,"span":5355,"Ġalone":5356,"Ġrecent":5357,"Ġterminal":5358,"Ġsentence":5359,"ĠAb":5360,"message":5361,"ital":5362,"Ġdifferences":5363,"Ġdead":5364,"ague":5365,"Ġsmart":5366,"Ġcollect":5367,"Ġtabs":5368,"actually":5369,"Ġflow":5370,"Ġwarnings":5371,"Ġstackoverflow":5372,"ixed":5373,"Main":5374,"iny":5375,"Ġsuc":5376,"will":5377,"ĠService":5378,"lers":5379,"ĠOb":5380,"verage":5381,"Ġalot":5382,"ometimes":5383,"Ġattached":5384,"Ġparallel":5385,"ersion":5386,"ĠModel":5387,"atis":5388,"Ġcur":5389,"multi":5390,"ategor":5391,"Ġexecutable":5392,"Ġgem":5393,"Ġshot":5394,"lling":5395,"Ġends":5396,"Ġinvoke":5397,"Ġrendered":5398,"heet":5399,"ĠWCF":5400,"Ġdigits":5401,"Ġalter":5402,"Ġsufficient":5403,"Ġcirc":5404,"Ġdisplays":5405,"Ġ500":5406,"Ġcapture":5407,"Ġsolves":5408,"elphi":5409,"Config":5410,"onna":5411,"Ġsilly":5412,"writing":5413,"password":5414,"Ġrepresentation":5415,"Ġindicate":5416,"Ġcompiling":5417,"Ġasp":5418,"iven":5419,"close":5420,"ĠFF":5421,"Ġwatch":5422,"2008":5423,"Exec":5424,"pare":5425,"Ġlearned":5426,"Handler":5427,"Ġonto":5428,"rible":5429,"Ġresolution":5430,"Ġlistener":5431,"';":5432,"ĠTable":5433,"save":5434,"Ġexplaining":5435,"Tom":5436,"paste":5437,"Ġmanifest":5438,"float":5439,"Ġruby":5440,"Ġaddresses":5441,"osite":5442,"non":5443,"Reader":5444,"Ġconfigured":5445,"ĠDis":5446,"Ġtransfer":5447,"Wr":5448,"Ġ2010":5449,"Ġreverse":5450,"crete":5451,"plot":5452,"ierarch":5453,"Ġang":5454,"vn":5455,"Ġtechnique":5456,"aml":5457,"otal":5458,"Ġcleaner":5459,"sd":5460,"Ġdropdown":5461,"working":5462,"Current":5463,"Em":5464,"orter":5465,"ĠPerl":5466,"ĠDI":5467,"ibrary":5468,"Ġrely":5469,"Ġinitialization":5470,"Ġunlike":5471,"95":5472,"Gener":5473,"Ġmeasure":5474,"Ġinvest":5475,"Param":5476,"Ġcompress":5477,"Ġsuggests":5478,"Ġcrashes":5479,"Ġunderlying":5480,"Ġoverrid":5481,"Ġparenthes":5482,"ored":5483,"Ġdiag":5484,"Ġstory":5485,"putation":5486,"email":5487,"HO":5488,"Ġtrust":5489,"Ġscr":5490,"Ġouter":5491,"74":5492,"Ġplus":5493,"Ġmaximum":5494,"ragment":5495,"Ġcustomer":5496,"ructor":5497,"},":5498,"Ġul":5499,"tags":5500,"Ġapplies":5501,"(){":5502,"sim":5503,"framework":5504,"Ġallocated":5505,"ln":5506,"));":5507,"Ġfrequ":5508,"Ġalph":5509,"Ġdivs":5510,"Ġdisagree":5511,"Ġreview":5512,"Ġ(\"":5513,"Ġderived":5514,"Chris":5515,"Ġmanagement":5516,"ĠPo":5517,"bb":5518,"facebook":5519,"Ġhover":5520,"Ġflash":5521,"database":5522,"good":5523,"YI":5524,"ĠEither":5525,"Ġroll":5526,"ĠJVM":5527,"96":5528,"rian":5529,"relevant":5530,"ĠGlad":5531,"IG":5532,"Ġdrawing":5533,"Ġelsewhere":5534,"((":5535,"ĠEF":5536,"Ġfav":5537,"Ġ`__":5538,"submit":5539,"Ġcomparing":5540,"Ġ2008":5541,"gramming":5542,"Ġfloating":5543,"browser":5544,"ĠPre":5545,"menu":5546,"comment":5547,"onse":5548,"Ġgcc":5549,"Sp":5550,"conf":5551,"Ġwhereas":5552,"Ġcookies":5553,"uh":5554,"Ġmodification":5555,"ĠAction":5556,"Ġactions":5557,"Command":5558,"background":5559,"arr":5560,"Ġletter":5561,"Ġencrypt":5562,"uster":5563,"Ġfailing":5564,"Update":5565,"++.":5566,"Ġadapter":5567,"Updated":5568,"insert":5569,"Look":5570,"Ġleak":5571,"context":5572,"ĠTest":5573,"Ġinterfaces":5574,"Ġmut":5575,"ibernate":5576,"property":5577,"Call":5578,"Ben":5579,"Ġasync":5580,"ĠSub":5581,"yond":5582,"ĠMain":5583,"ited":5584,"Ġsecure":5585,"Ġanonymous":5586,"Ġdeleting":5587,"screen":5588,"Ġrecursive":5589,"wing":5590,"uto":5591,"ĠâĢľ":5592,"ars":5593,"Ġtutorials":5594,"])":5595,"Ġskip":5596,"ABLE":5597,"Ġcommented":5598,"ĠSim":5599,"Ag":5600,"Ġoccurre":5601,"imate":5602,"Ġkeeps":5603,"76":5604,"trace":5605,"Label":5606,"izont":5607,"buntu":5608,"htaccess":5609,"pared":5610,"Ġconcerned":5611,"ormal":5612,"Ġsurprised":5613,"Ġcommunity":5614,"ilver":5615,"area":5616,"ĠBoth":5617,"Ġeventually":5618,"Nope":5619,"join":5620,"_.":5621,"Ġhasn":5622,"bie":5623,"gs":5624,"many":5625,"âĢ¦":5626,"Ġugly":5627,"selves":5628,"Ġexpen":5629,"undefined":5630,"login":5631,"Ġcompilation":5632,"Ġcompatible":5633,"eep":5634,"Ġboot":5635,"asic":5636,"Ġmisunderstood":5637,"atal":5638,"Am":5639,"Ġhistory":5640,"Ġentered":5641,"bert":5642,"spot":5643,"Ġpackages":5644,"Ġlol":5645,"Very":5646,"istic":5647,"Ġpreviously":5648,"ĠOut":5649,"Ġpasted":5650,"Ġsleep":5651,"atisf":5652,"Ġupgrade":5653,"ĠThese":5654,"Ġaccurate":5655,"Ġasynchronous":5656,"Ph":5657,"Ġcra":5658,"Ġgonna":5659,"ants":5660,"Ġfolders":5661,"itespace":5662,"ĠThough":5663,"Instance":5664,"PA":5665,"alendar":5666,",\"":5667,"Ġexpress":5668,"Ġplaying":5669,"Glad":5670,"Ġplugins":5671,"draw":5672,"response":5673,"ĠLooks":5674,"Ġcareful":5675,"58":5676,"Ġdatabases":5677,"([":5678,"Ġtries":5679,"username":5680,"'?":5681,"Ġcanvas":5682,"Ġextremely":5683,"They":5684,"\\\"":5685,"hmm":5686,"Ġthemselves":5687,"Ġremains":5688,"imin":5689,"98":5690,"stack":5691,"free":5692,"exist":5693,"Ġduplicates":5694,"Ġimp":5695,"Ġdatat":5696,"IX":5697,"Ġsignal":5698,"dy":5699,"Ġgarbage":5700,"SD":5701,"Ġfacebook":5702,"Ġbroad":5703,"Ġguaranteed":5704,"Ġability":5705,"ĠVery":5706,"ĠSomething":5707,"Custom":5708,"ĠAnother":5709,"ĠVM":5710,"ĠPar":5711,"ĠFacebook":5712,"Ġlocalhost":5713,"ĠName":5714,"Ġplot":5715,"Me":5716,"Ġrefact":5717,"Ġhelper":5718,"Ġfacing":5719,"Ġconsidering":5720,"ewrite":5721,"trl":5722,"ĠMany":5723,"Found":5724,"Ġsal":5725,"Ġsingleton":5726,"inks":5727,"Ġdocuments":5728,"Ġminimum":5729,"53":5730,"Ġbeyond":5731,"ggreg":5732,"wo":5733,"Ġrestrict":5734,"Ġobj":5735,"Ġ});":5736,"ĠStackOverflow":5737,"arding":5738,"Ġimple":5739,"Ġanno":5740,"Ġarchitecture":5741,"Ġden":5742,"console":5743,"iteria":5744,"Ġmonths":5745,"isk":5746,"eval":5747,"iler":5748,">`.":5749,"Ġassumption":5750,"ĠException":5751,"ius":5752,"Ġdestroy":5753,"random":5754,"Ġparams":5755,"athan":5756,"Even":5757,"Null":5758,"ĠEvent":5759,"plus":5760,"Ġlogical":5761,"Ġprinted":5762,"Awesome":5763,"Ġintention":5764,"Ġoffset":5765,"ENT":5766,"ya":5767,"Ġsquare":5768,"ĠUnless":5769,"Sim":5770,"iqu":5771,"Ġdeser":5772,"Ġsharing":5773,"Ġalias":5774,"mozilla":5775,"52":5776,"ĠTom":5777,"Ġalign":5778,"Ġgenerates":5779,"2009":5780,"Ġbrackets":5781,"standing":5782,"Ġsubst":5783,"Ġapache":5784,"tn":5785,"70":5786,">.":5787,"Column":5788,"Ġbundle":5789,"dated":5790,"ilter":5791,"Group":5792,"Ġanaly":5793,"78":5794,"greed":5795,"Ġbash":5796,"ta":5797,"Ġrecursion":5798,"Ġresulting":5799,"ĠId":5800,"Ġservlet":5801,"Ġcard":5802,"Ġ`_":5803,"Ġselecting":5804,"Ġreflection":5805,"Ġexperi":5806,"Ġthous":5807,"Ġ404":5808,"ployee":5809,"Ġrepeat":5810,"ene":5811,"Ġprints":5812,"123":5813,"AA":5814,"voke":5815,"Ġdiscover":5816,"anger":5817,"pth":5818,"ĠWorks":5819,"ĠQt":5820,"*\"":5821,"Ġlocated":5822,"While":5823,"++,":5824,"append":5825,"tri":5826,"Builder":5827,"Ġworse":5828,"Ġshad":5829,"Perhaps":5830,"Function":5831,"guide":5832,"Ġrare":5833,"Session":5834,"Child":5835,"template":5836,"Ġinitially":5837,"cluding":5838,"ĠEnglish":5839,"Ġobtain":5840,"Ġhadn":5841,"Ġ`&":5842,"ryption":5843,"cache":5844,"(...":5845,"blogs":5846,"43":5847,"Ġ2012":5848,"Ġclaim":5849,"ĠSure":5850,"older":5851,"kell":5852,"lat":5853,"inc":5854,"ran":5855,"super":5856,"Ġspecification":5857,"Ġeasiest":5858,"Dialog":5859,"dri":5860,"Acc":5861,"initial":5862,"Ġcoordinates":5863,"Ġphys":5864,"Ġtypically":5865,"':":5866,"Ġupper":5867,"ĠCOM":5868,"Ġformula":5869,"())":5870,"force":5871,"fetch":5872,"Ġminute":5873,"Ġtend":5874,"EM":5875,"viously":5876,"variable":5877,"Ġforeign":5878,"Ġaccessible":5879,"Ġlogcat":5880,"Ġest":5881,"IP":5882,"Ġbean":5883,"riction":5884,"eters":5885,"oco":5886,"tip":5887,"Ġpersonally":5888,"Items":5889,"ĠSV":5890,"Ġmodern":5891,"CII":5892,"Ġboost":5893,"module":5894,"ĠNew":5895,"define":5896,"Ġwide":5897,"101":5898,"Ġmachines":5899,"header":5900,"Ġ\"/":5901,"Ġhosting":5902,"Ext":5903,"Ġremain":5904,"Ġreputation":5905,"ises":5906,"Ġstops":5907,"Ġdefining":5908,"ley":5909,"spring":5910,"Ġgroups":5911,"Ġcompilers":5912,"plex":5913,"Ġlic":5914,"Ġmillion":5915,"ategories":5916,"Ġahead":5917,"catch":5918,"zone":5919,"Attribute":5920,"developers":5921,"same":5922,"rase":5923,"DER":5924,"Ġirrelevant":5925,"ĠLe":5926,"Factory":5927,"Ġresize":5928,"NULL":5929,"Ġhopefully":5930,"send":5931,"oops":5932,"target":5933,"Ġdependent":5934,"ongo":5935,"Ġsituations":5936,"Ġip":5937,"Ġcertificate":5938,"Ġharder":5939,"ube":5940,"archar":5941,"ĠSecond":5942,"DT":5943,"Ġmodifying":5944,"\":\"":5945,"Ġinserting":5946,"Ġcontained":5947,"Location":5948,"issues":5949,"Ġchart":5950,"IL":5951,"checked":5952,"--------":5953,"oked":5954,"Ġinvestig":5955,"regex":5956,"ester":5957,"second":5958,"ai":5959,"mode":5960,"Component":5961,"Ġinstalling":5962,"encode":5963,"Sch":5964,"Url":5965,"entials":5966,"pastebin":5967,"ĠWithout":5968,"ĠWord":5969,"Process":5970,"Ġanyways":5971,"ĠOverflow":5972,"Ġinfinite":5973,"Ġsatisf":5974,"Valid":5975,"ferences":5976,"Ġhex":5977,"Ġnaming":5978,"simple":5979,"ung":5980,"Ġtwe":5981,"Change":5982,"Ġexpensive":5983,"Ġconsum":5984,"tree":5985,"Ġcontrollers":5986,"ĠBuild":5987,"Ġzip":5988,")...":5989,"ĠSelect":5990,"Ġimplements":5991,"ĠFramework":5992,"ĠHttp":5993,"Ġreleased":5994,"Ġ``":5995,"ysis":5996,"Ġinterval":5997,"Ġ<<":5998,"Ġadvance":5999,"Ġhierarch":6000,"Ġforum":6001,"since":6002,"Ġrequested":6003,"ĠTake":6004,"aset":6005,"Ġnumeric":6006,"Ġpip":6007,"Ġpixels":6008,"Ġconstraints":6009,"urrency":6010,"Ġtheme":6011,"grid":6012,"ĠDep":6013,"omic":6014,"cor":6015,"maps":6016,"Ġton":6017,"Ġyield":6018,"eless":6019,"Ġcompatibility":6020,"Ġassigning":6021,"Ġkinda":6022,"Ġcred":6023,"Ġextends":6024,"Ġgreater":6025,"ĠCreate":6026,"tyle":6027,"vi":6028,"Ġspan":6029,"Ġaccepting":6030,"ued":6031,"Michael":6032,"allow":6033,"forward":6034,"Integer":6035,"Ġexperiment":6036,"Ġrespons":6037,"Ġfiref":6038,"Ġproducts":6039,"temp":6040,"ĠDelphi":6041,"ĠProject":6042,"Ġredund":6043,"Ġtechno":6044,"Hash":6045,"status":6046,"Ġhighly":6047,"ĠGo":6048,"Ġ($":6049,"adata":6050,"Mike":6051,"aha":6052,"ĠDef":6053,"Ġdiscuss":6054,"ĠSP":6055,"Ġfirefox":6056,"ooth":6057,"Ġseparately":6058,"Another":6059,"))`":6060,"icol":6061,"Ġtimestamp":6062,"reed":6063,"decl":6064,"label":6065,"Ġmatters":6066,"Ġprob":6067,"Rob":6068,"rill":6069,"IB":6070,"IME":6071,"Ġclue":6072,"Sec":6073,"Ġcrit":6074,"Ġdrive":6075,"Android":6076,"Ġimm":6077,"Foo":6078,"DD":6079,"Users":6080,"Ġdecision":6081,"operator":6082,"Ġdeep":6083,"Ġletters":6084,"eff":6085,"round":6086,"Ġtomor":6087,"/?":6088,"Up":6089,"ulating":6090,"etter":6091,"Ġdistance":6092,"Ġnavig":6093,"Ġorient":6094,"ĠPage":6095,"PDATE":6096,"Ġdirectories":6097,"command":6098,"Ġguy":6099,"Ġjump":6100,"Ġidentifier":6101,"Ġpresum":6102,"ocation":6103,"Ġrecently":6104,"Ġsync":6105,"ĠPr":6106,"Dec":6107,"Ġexcellent":6108,"ĠMay":6109,"ivers":6110,"Ġminimal":6111,"pm":6112,"ays":6113,"Ġfailure":6114,"iki":6115,"au":6116,"Ġviol":6117,"ToString":6118,"Ġencoded":6119,"memory":6120,"Det":6121,"ĠDes":6122,"blob":6123,"Ġsources":6124,"ALL":6125,"Stack":6126,"Ġvol":6127,"Ġsuitable":6128,"byte":6129,"Ġpatch":6130,"James":6131,"PATH":6132,"Ġtomorrow":6133,"serve":6134,"Ġrefers":6135,"best":6136,"ees":6137,"Ġelimin":6138,"Ġids":6139,"Ġopposed":6140,"Ġconsistent":6141,"Ġnewer":6142,"Ġenumer":6143,"Ġdot":6144,"Ġrepeated":6145,"backs":6146,"sk":6147,"Ġwhitespace":6148,"ĠPDO":6149,"ebug":6150,"votes":6151,"Rel":6152,"itmap":6153,"itional":6154,"Sql":6155,"FT":6156,"Ġlinking":6157,"hello":6158,"Ġdocumented":6159,"]:":6160,"EL":6161,"ĠTrue":6162,"Ġsumm":6163,"ĠPerson":6164,"Seems":6165,"Ġuploaded":6166,"ĠKey":6167,"ĠMon":6168,"problem":6169,"cut":6170,"Ġacceptable":6171,"except":6172,"Write":6173,"ĠEach":6174,"ROU":6175,"Ġseper":6176,"Ġwww":6177,"Ġinternally":6178,"Ġ80":6179,"ĠXSL":6180,"ĠAgain":6181,"...\"":6182,"Sounds":6183,"Ġconcrete":6184,"card":6185,"Ġexcel":6186,"Ġdistinct":6187,"Ġvague":6188,"acity":6189,"Ġpse":6190,"Rect":6191,"Ġchars":6192,"94":6193,"Ġfunctional":6194,"Ġiterator":6195,"Ġanch":6196,"Ġsurely":6197,"ĠMark":6198,"implement":6199,"think":6200,"selected":6201,"Ġconven":6202,"FAIK":6203,"eclip":6204,"hip":6205,"Ġhook":6206,"ĠREST":6207,"icated":6208,"atives":6209,"NG":6210,"Still":6211,"Ġspent":6212,"report":6213,"Ġ!!":6214,"ety":6215,"ral":6216,"ilverlight":6217,"undred":6218,"ĠProbably":6219,"Ġslash":6220,"Ġhandlers":6221,"ensive":6222,"Ġspecifying":6223,"IO":6224,"arning":6225,"Ġreceiving":6226,"Ġallocate":6227,"Ġpersonal":6228,"Project":6229,"Ġcloser":6230,"MB":6231,"Ġunexpected":6232,"Ġattention":6233,"Ġ$.":6234,"afari":6235,"entity":6236,"Ġaggreg":6237,"AY":6238,"Ġlose":6239,"Ġsamples":6240,"Ġstrongly":6241,"FILE":6242,"efficient":6243,"Ġsheet":6244,"debug":6245,"ĠUpdated":6246,"Forms":6247,"Ġmedia":6248,"Ġinterpret":6249,"Timeout":6250,"Ġproduces":6251,"Ġsigned":6252,"Ġpopulate":6253,"Dep":6254,"Program":6255,"ĠIB":6256,"Ġ13":6257,"ocket":6258,"Ġ`%":6259,"Mode":6260,"ament":6261,"Ġkept":6262,"Ġfactor":6263,"section":6264,"Ġlinear":6265,"Ġoperators":6266,"Ġbehave":6267,"Ġ[[":6268,"CO":6269,"Ġresponses":6270,"Ġradio":6271,"Ġboxes":6272,"MM":6273,"emory":6274,"Ġ24":6275,"Ġsubmitted":6276,"Ġformatted":6277,"empty":6278,"Mon":6279,"although":6280,"ĠActive":6281,"Ġlim":6282,"ĠTime":6283,"Ġoptional":6284,"ua":6285,"acc":6286,"plorer":6287,"Python":6288,"imation":6289,"Ġclicks":6290,"Response":6291,"two":6292,"push":6293,"osition":6294,"92":6295,"Ġrestriction":6296,"Search":6297,"eme":6298,"Ġcasting":6299,"Ġscrolling":6300,"Daniel":6301,"ĠHas":6302,"need":6303,"TableView":6304,"scroll":6305,"Ġnicely":6306,"Ġaudio":6307,"ĠLine":6308,"ĠDoc":6309,"BTW":6310,"Ġfactory":6311,"Record":6312,"beh":6313,"Ġcamera":6314,"ba":6315,"Template":6316,"Ġusual":6317,"ously":6318,"Ġ\".":6319,"ĠAjax":6320,"Dictionary":6321,"enty":6322,"Ġblocking":6323,"ĠGr":6324,"Ġ14":6325,"ational":6326,"live":6327,"Ġprofil":6328,"Ġthoughts":6329,"ckets":6330,"Ġdelimit":6331,"Ġroutes":6332,"FS":6333,"Ġaspect":6334,"NAME":6335,"ĠINT":6336,"faq":6337,"Ġprogrammers":6338,"written":6339,"Resource":6340,"eg":6341,"Take":6342,"HTTP":6343,"Buffer":6344,"category":6345,"loop":6346,"Ġimg":6347,"Ġaccessed":6348,"Ġsizes":6349,"abling":6350,"Ġidi":6351,"Ġstructures":6352,"adly":6353,"());":6354,"pop":6355,"ffice":6356,"Ġtagged":6357,"istr":6358,"]+":6359,"Over":6360,"compile":6361,"Added":6362,"Ġambig":6363,"CS":6364,"about":6365,"Br":6366,"inci":6367,"($_":6368,"Ġ25":6369,"ĠUnicode":6370,"ASE":6371,"every":6372,"Ġsends":6373,"ĠGener":6374,"owse":6375,"Ġofficial":6376,"wp":6377,"plication":6378,"Ġant":6379,"End":6380,"ĠIDs":6381,"question":6382,"csv":6383,"Ġcompiles":6384,"Ġdisappear":6385,"cription":6386,"omas":6387,"address":6388,"Ġpotentially":6389,"Ġoptimize":6390,"Tag":6391,"ĠSy":6392,"Ġaverage":6393,"Selected":6394,"ributes":6395,"ĠUS":6396,"orn":6397,"Ġzoom":6398,"eport":6399,"Ġprecision":6400,"Menu":6401,"Ġignored":6402,"abc":6403,"Ġextensions":6404,"Ġvoted":6405,"Ġpriv":6406,"]`.":6407,"Ġ||":6408,"Ġattempting":6409,"Ġpotential":6410,"Martin":6411,"ĠCustom":6412,"ĠCons":6413,"Ġ\"$":6414,"Ġeg":6415,"Ġcached":6416,"Unit":6417,"oku":6418,"ĠIMO":6419,"peg":6420,"ĠMSDN":6421,"math":6422,"Ġsched":6423,"ole":6424,"avy":6425,"tools":6426,"Ġbench":6427,"=`":6428,"Ut":6429,"fs":6430,"Ġdeveloping":6431,"Ġhundred":6432,"Only":6433,"ĠURLs":6434,"Ġholds":6435,"Order":6436,"Ġreader":6437,"Ġdistribution":6438,"items":6439,"Comp":6440,"Matt":6441,"folder":6442,"ĠSol":6443,"API":6444,"arrow":6445,"Fr":6446,"ĠUN":6447,"ĠGit":6448,"83":6449,"Access":6450,"Ġcalculation":6451,"aken":6452,"Ġunlikely":6453,"Ġedits":6454,":@\"":6455,"ĠWork":6456,"AML":6457,"ĠShow":6458,"Draw":6459,"gging":6460,"Entity":6461,"Ġsomebody":6462,"UN":6463,"ĠĠĠĠĠĠĠĠĠĠ":6464,"formance":6465,"fact":6466,"svn":6467,"Ġtechnically":6468,"Ġteach":6469,"ypes":6470,"Ġrename":6471,"`'":6472,"Ġpdf":6473,"Paul":6474,"Ġreser":6475,"ĠEntity":6476,"ROUP":6477,"Ġhum":6478,"Ġwhats":6479,"Ġstru":6480,"lose":6481,"bel":6482,"ĠNever":6483,"alert":6484,"Ġpreferred":6485,"ĠâĢĶ":6486,"eclipse":6487,"apply":6488,"Ġpositive":6489,"nn":6490,"Ġthx":6491,"Ġautomatic":6492,"Ġord":6493,"ĠAcc":6494,"rt":6495,"\"></":6496,"space":6497,"Ġnight":6498,"Ġsaf":6499,"django":6500,"ĠSte":6501,"('.":6502,"Ġlif":6503,"Ġstopped":6504,"args":6505,"unless":6506,"ferent":6507,"gest":6508,":/":6509,"ifies":6510,"erscore":6511,"Ġoutputs":6512,"Bo":6513,"Ġax":6514,"UID":6515,"Head":6516,"Ġtu":6517,"9999":6518,"printf":6519,"exception":6520,"Ġconditional":6521,"UL":6522,"Ġinsight":6523,"Ġtriggered":6524,"Ġbreaking":6525,"Ġcombine":6526,"Ġart":6527,"Ġtheory":6528,"Ġprototype":6529,"Ġbelongs":6530,"Ġverb":6531,"Ġalgorithms":6532,"really":6533,"bash":6534,"Ġwanting":6535,"still":6536,"Ġindependent":6537,"env":6538,"Ġsemantics":6539,"Ġsolving":6540,"Perfect":6541,"Ġbitmap":6542,"paces":6543,"Ġassert":6544,"WT":6545,"ĠAnswer":6546,"Ġoperating":6547,"Ġswitching":6548,"Ġ*)":6549,"Ġmodal":6550,"Ġmeta":6551,"Ġdefinitions":6552,"Ġwrites":6553,"Ġinteract":6554,"inally":6555,"Ġda":6556,"lar":6557,"Ġgoog":6558,"({":6559,"Ġredundant":6560,"ĠDjango":6561,"ĠGrid":6562,"Many":6563,"Ġportion":6564,"boost":6565,"Ġsimulator":6566,"Ġbacks":6567,"mag":6568,"Ġleaving":6569,"Product":6570,"MP":6571,"Ġmere":6572,"ii":6573,"Ġfirebug":6574,"Ġframeworks":6575,"font":6576,"Ġtricky":6577,"ElementById":6578,"buffer":6579,"astic":6580,"ĠFlash":6581,"anna":6582,"rate":6583,"Ġsymbols":6584,"ĠBl":6585,"pattern":6586,"Ġperl":6587,"Ġvisit":6588,"Ġopens":6589,"osity":6590,"Ġannoying":6591,"Ġideal":6592,"ailing":6593,"pag":6594,"izontal":6595,"Ġaccident":6596,"Ġ`$_":6597,"Ġprice":6598,"standard":6599,"Ġstudio":6600,"Ġmisle":6601,"toString":6602,"Ġbeginner":6603,"Ġthumb":6604,"Ref":6605,"ĠNothing":6606,"Ġeverywhere":6607,"dist":6608,"ĠCSV":6609,"compat":6610,"reh":6611,"sest":6612,"Ġmentioning":6613,"Ġcent":6614,"Ġlambda":6615,"Ġdirective":6616,"Ġallowing":6617,"vis":6618,"ĠAPIs":6619,"dec":6620,"Delegate":6621,"Ġdownvoted":6622,"EY":6623,"ĠCall":6624,"ĠGCC":6625,"ĠQuestion":6626,"rs":6627,"ĠSafari":6628,"izable":6629,"\"...":6630,"uid":6631,"Ġ\"<":6632,"iring":6633,"sign":6634,"ĠSame":6635,"Ġsessions":6636,"Ġisol":6637,"beans":6638,"isation":6639,"ĠMat":6640,"Ġretain":6641,"licy":6642,"Ġmaps":6643,"fire":6644,"Ġhur":6645,"ĠIO":6646,"stop":6647,"sharp":6648,"Ġinstantiate":6649,"types":6650,"anx":6651,"Ġscratch":6652,"opt":6653,"Max":6654,"Binding":6655,"ĠPh":6656,"aly":6657,"ĠSql":6658,"Ġnat":6659,"UTF":6660,"Ġflaw":6661,"Ġbul":6662,"Ġwrapping":6663,"Ġmaven":6664,"AtIndex":6665,"ĠALL":6666,"Ġreferencing":6667,"JavaScript":6668,"ĠGreat":6669,"ĠTCP":6670,"Ġexpert":6671,"Something":6672,"ĠArrayList":6673,"Ġpractical":6674,"nx":6675,"Ġsearched":6676,"wordpress":6677,"blogspot":6678,"izations":6679,"private":6680,"Ġadvise":6681,"Ġparticularly":6682,"acter":6683,"CCE":6684,"Ġcolors":6685,"ĠContent":6686,"Provider":6687,"nil":6688,"ĠSSL":6689,"Ġhandy":6690,"Ġdict":6691,"Peter":6692,"FC":6693,"Ġmultip":6694,"MA":6695,"Ġfixes":6696,"Ġrate":6697,"boot":6698,"Ġpatterns":6699,"Ġcarefully":6700,"Ġcopies":6701,"........":6702,"ye":6703,"Ġseries":6704,"Ġlooping":6705,"Ġcriteria":6706,"**,":6707,"tmp":6708,"Ġprof":6709,"prise":6710,"inary":6711,"ĠTherefore":6712,"=$":6713,"Ġdjango":6714,"ĠComp":6715,"Ġtriggers":6716,"Ġgreen":6717,"Ġeffectively":6718,"Ġ***":6719,"SSION":6720,"Ġhy":6721,"ĠStart":6722,"Ġ00":6723,"Ġexpects":6724,"functions":6725,"Ġtransition":6726,"Ġtransparent":6727,"Indeed":6728,"Ġclosure":6729,"oney":6730,"Ġinvoked":6731,"Doesn":6732,"anted":6733,"sites":6734,"gen":6735,"Ġstage":6736,"instance":6737,"ĠDateTime":6738,"Ġfixing":6739,"ĠUpdate":6740,"iate":6741,"gcc":6742,"Ġgenerator":6743,"hide":6744,"Ed":6745,",,":6746,"Ġanalysis":6747,"ĠMap":6748,"Ġopposite":6749,"Ġtill":6750,"href":6751,"Ġtra":6752,"har":6753,"eline":6754,"Ġface":6755,":\"":6756,"container":6757,"Ġfilled":6758,"Ġallocation":6759,"Exactly":6760,"Ġcompreh":6761,"ĠAh":6762,"Ġnotation":6763,"Ġsimplify":6764,"82":6765,"Ġsubstit":6766,"multiple":6767,"Ġedge":6768,"Ġqual":6769,"ĠâĢĵ":6770,"engine":6771,"Ġclone":6772,"articles":6773,"NO":6774,"Ġeffects":6775,"undament":6776,"\");`":6777,"Ġexecutes":6778,"cce":6779,"ĠXSLT":6780,"expression":6781,"atively":6782,"Ġminor":6783,"hidden":6784,"uzz":6785,"Filter":6786,"Ġlabels":6787,"Ġchannel":6788,"Ġsimplest":6789,"Ġhierarchy":6790,"language":6791,"ema":6792,"forge":6793,"Ġleading":6794,"63":6795,"93":6796,"ummy":6797,"ĠCore":6798,"Ġshall":6799,"sizeof":6800,"Ne":6801,"Ġcmd":6802,"Ġrob":6803,"Ġfeeling":6804,"Ġprocessor":6805,"Ġcircum":6806,"ĠMe":6807,"Ġprotected":6808,"move":6809,"Lin":6810,"Ġmate":6811,"Ġparsed":6812,"Ġdataset":6813,"ners":6814,"Ġstores":6815,"Ġprimit":6816,"veloper":6817,"ĠBack":6818,"mf":6819,"51":6820,"Ġannotation":6821,"Range":6822,"Cool":6823,"linux":6824,"...`":6825,"Ġserve":6826,"];`":6827,"azing":6828,"perl":6829,"amn":6830,"Ġwhose":6831,"ĠTim":6832,"ĠEn":6833,"Ġisnt":6834,"Ġspring":6835,"require":6836,"Ġcrazy":6837,"Html":6838,"ĠIsn":6839,"Ġbackup":6840,"Ġshorter":6841,"render":6842,"73":6843,"Ġfired":6844,"ĠAss":6845,"cial":6846,"may":6847,"ĠSc":6848,"ĠHash":6849,"Ġorgan":6850,"Style":6851,"Ġindicates":6852,"Ġreplacement":6853,"osen":6854,"DBC":6855,"Kit":6856,"ĠNice":6857,"Ġtranslate":6858,"()`?":6859,"Ġchain":6860,"mt":6861,"\"*":6862,"mvc":6863,"Ġdeclaring":6864,"Ġcompleted":6865,"Ġplatforms":6866,"Ġquality":6867,"scope":6868,"ookie":6869,"Ġunsigned":6870,"Ġreports":6871,"Ġcluster":6872,"Andrew":6873,"Marc":6874,"oolean":6875,"Ġordering":6876,"ici":6877,"Ġnoted":6878,"Ġevaluate":6879,"ĠProblem":6880,"Ġwrapped":6881,"ĠASCII":6882,"Ġoverkill":6883,"Ass":6884,"Address":6885,"enk":6886,"Ġcancel":6887,"Ġprogrammatically":6888,"shared":6889,"ĠCo":6890,"Serial":6891,"Ġapplic":6892,"fill":6893,"pointer":6894,"Ġreliable":6895,"Person":6896,"Ġdescript":6897,"72":6898,"Ġpi":6899,"ueue":6900,"Init":6901,"ategy":6902,"ĠMar":6903,"Ġwild":6904,"escape":6905,"Ġwaste":6906,"Ġachie":6907,"ĠConsider":6908,"Ġgithub":6909,"iff":6910,"}\"":6911,"Ġadapt":6912,"they":6913,">,":6914,"EB":6915,"dynamic":6916,"Ġspend":6917,"CON":6918,"ĠRAM":6919,"Ġregistered":6920,"Ġlevels":6921,"would":6922,"ocoa":6923,"legal":6924,"Ġfoll":6925,"Ġcommunication":6926,"Ġprinci":6927,"lies":6928,"rough":6929,"Ġstat":6930,"Ġcredentials":6931,"Ġrole":6932,"Ġearly":6933,"orig":6934,"clusion":6935,"Ġawk":6936,"unit":6937,"rout":6938,"Tried":6939,"classes":6940,"Scroll":6941,"Output":6942,"tool":6943,"ĠSometimes":6944,"ĠExt":6945,"Ġclasspath":6946,"single":6947,"Ġrecognize":6948,"Objects":6949,"Status":6950,"ĠSource":6951,"getElementById":6952,"ĠED":6953,"ĠSQLite":6954,"uly":6955,"objects":6956,"odb":6957,"Ġencode":6958,"Fl":6959,"Ġdanger":6960,")`?":6961,"...?":6962,"110":6963,"Yup":6964,"Ġsubscri":6965,"Ġseparated":6966,"pa":6967,"Tab":6968,"Ã©":6969,"Ġ<=":6970,"rowser":6971,"Ġpred":6972,"global":6973,"OB":6974,"Ġscore":6975,"pective":6976,"cer":6977,"čĠč":6978,"apps":6979,"Oper":6980,"Player":6981,"sembly":6982,"oubles":6983,"ĠLink":6984,"ĠIMHO":6985,"Ġprecisely":6986,"Ġ*\"":6987,"Ġreuse":6988,"Ġpercent":6989,"ccept":6990,"cles":6991,"Ġjoins":6992,"ĠReally":6993,"usive":6994,"Ġmisleading":6995,"EE":6996,"Ġhate":6997,"Ġplenty":6998,"pages":6999,"ounty":7000,"ĠJon":7001,"TO":7002,"Excellent":7003,"Ġprocessed":7004,"Ġonclick":7005,"foreach":7006,"Ġsucceed":7007,"LD":7008,"#.":7009,"?`":7010,"media":7011,"Ġnearly":7012,"Ġinvo":7013,"autif":7014,"collection":7015,"***":7016,"Got":7017,"ĠOpenGL":7018,"epad":7019,"Ġimpact":7020,"Ġflags":7021,"ĠSession":7022,"TE":7023,"security":7024,"asy":7025,"sn":7026,"Ġconstructors":7027,"500":7028,"ĠXP":7029,"ipped":7030,"jsp":7031,"program":7032,"Ġweight":7033,"Ġencryption":7034,"Ġoverriding":7035,"RA":7036,"Never":7037,"allery":7038,"Ġunrelated":7039,"always":7040,"bad":7041,"rilliant":7042,"Ġmanner":7043,"Let":7044,"ĠSimple":7045,"Isn":7046,"Length":7047,"QUE":7048,"high":7049,"holder":7050,"Ġ>=":7051,"Ġattack":7052,"loading":7053,"endor":7054,"entication":7055,"Ġdispatch":7056,"Ġasks":7057,"convert":7058,"Ġreadability":7059,"Ġsegment":7060,"nce":7061,"Ġdepth":7062,"Ġgrep":7063,"HA":7064,"ĠThose":7065,"Ġdesigner":7066,"Ġcuriosity":7067,"Ġren":7068,"DateTime":7069,"Ġglob":7070,"62":7071,"Core":7072,"another":7073,"ushing":7074,"ĠĠĠĠĠĠĠĠĠĠĠĠĠ":7075,"Ġ$('#":7076,"Ġfiltering":7077,"azon":7078,"drop":7079,"isecond":7080,";\"":7081,"Ġher":7082,"Ġbackend":7083,"Ġnumer":7084,"utf":7085,"ĠCurrent":7086,"Sm":7087,"package":7088,"OUNT":7089,"YY":7090,"!!!!":7091,"connection":7092,"Ġworst":7093,"Ġ{}":7094,"unity":7095,"ector":7096,"xsl":7097,"hey":7098,"Ġfavor":7099,"weight":7100,"Ġjo":7101,"Ġ2013":7102,"Same":7103,"ĠBase":7104,"zer":7105,"fault":7106,"ala":7107,"ils":7108,"ggling":7109,"UR":7110,"Ġapart":7111,"Ġ'/":7112,"added":7113,"reading":7114,"Ġcaller":7115,"aron":7116,"za":7117,"Ġequals":7118,"Ġ()":7119,"OME":7120,"Ġblue":7121,"ana":7122,"Ġswap":7123,"Ġhang":7124,"Ġtips":7125,"Ġoptimized":7126,"Ġexam":7127,"Ġworried":7128,"ĠControl":7129,"picker":7130,"Ġrisk":7131,"ĠEm":7132,"forum":7133,"Ġcycle":7134,"ematic":7135,"Ġunknown":7136,"ĠWas":7137,"properties":7138,"Ġpreced":7139,"Ġ`+":7140,"note":7141,"Ġcollision":7142,"Ġstands":7143,"Ġ+=":7144,"ERT":7145,"Probably":7146,"ithmet":7147,"Ġ:-(":7148,"Ġ60":7149,"friend":7150,"Options":7151,"ĠFirebug":7152,"Ġdra":7153,"()?":7154,"Ġsuccessful":7155,"Ġmerely":7156,"Ġmistaken":7157,"Ġconstants":7158,"Ġlistview":7159,">\"":7160,"feature":7161,"esterday":7162,"Red":7163,"Ġurls":7164,"[:":7165,"Ġfollows":7166,"Ġsimplified":7167,"Pointer":7168,"Ġextended":7169,"Like":7170,")).":7171,"inder":7172,"Ġmock":7173,"Ġste":7174,"Ġfooter":7175,"ĠMod":7176,"Ġpressed":7177,"ycle":7178,"execute":7179,"Ġsetter":7180,"limit":7181,"sually":7182,"Ġsubsequ":7183,"Tree":7184,"profile":7185,"Ġapplying":7186,"Ġprepared":7187,"optim":7188,"rest":7189,"ĠObjective":7190,"Ġrelatively":7191,"eces":7192,"CC":7193,"ROR":7194,"Welcome":7195,"LS":7196,"Ġpy":7197,"Ġvary":7198,"atile":7199,"ĠNode":7200,"Ġanchor":7201,"Ġcollections":7202,"ĠClient":7203,"Ġillustr":7204,"Ġ40":7205,"Ġpat":7206,"Ġliterally":7207,"Ġincorrectly":7208,"234":7209,"ikipedia":7210,"Ġaccepts":7211,"Ġnarrow":7212,"coming":7213,"Ġ19":7214,"Ġheavy":7215,"Execute":7216,"AMP":7217,"Ġos":7218,"ked":7219,"andard":7220,"Ġcsv":7221,"INF":7222,"Ġwanna":7223,"Ġbuilds":7224,"options":7225,"Ġ);":7226,"Ġevaluated":7227,"Steve":7228,"ulture":7229,"More":7230,"Ġ99":7231,"ĠPut":7232,"Ġnewbie":7233,"Ġpseudo":7234,"Ġdeleg":7235,"Ġproposed":7236,"Ġmapped":7237,"ids":7238,"Ġobserv":7239,"Ġalternatives":7240,"Ġframes":7241,"Enc":7242,"Ġraise":7243,"ĠLoad":7244,"ĠUbuntu":7245,"ours":7246,"Ġmanipulate":7247,"such":7248,"Ġdefines":7249,"Runtime":7250,"sys":7251,"ĠConnect":7252,"fc":7253,"Ġswitched":7254,"lied":7255,"ben":7256,"Ġleads":7257,"Ġthousands":7258,"including":7259,"Ġ('":7260,"Car":7261,"Ġtowards":7262,"ki":7263,"Ġtexture":7264,"ĠRequest":7265,"lets":7266,"May":7267,"sscce":7268,"Ent":7269,"ĠJQuery":7270,"Ġfundament":7271,"pad":7272,"Ġimplies":7273,"Ġdatetime":7274,"Ġinterpreted":7275,"unt":7276,"TER":7277,"ĠMaven":7278,"println":7279,"Ġformats":7280,"Ġimply":7281,"Ġgrad":7282,"Xml":7283,"Num":7284,"directory":7285,"ifiers":7286,"ĠCG":7287,"ino":7288,"exactly":7289,"mysqli":7290,"Ġoverall":7291,"Ġputs":7292,"erry":7293,"Ġreject":7294,"Ġcurl":7295,"Ġbounty":7296,"Ġstandards":7297,"vectors":7298,"Display":7299,"Ġoccurred":7300,"Ġnature":7301,"Store":7302,"Ġui":7303,"Ġdigit":7304,"ĠNO":7305,"Ġgrow":7306,"SESSION":7307,"Ġmalloc":7308,"Ġgain":7309,"Ġstartup":7310,"Ġremoves":7311,"gger":7312,"Ġwebpage":7313,"yout":7314,"Ġsake":7315,"ĠDidn":7316,"Background":7317,"mind":7318,"Ġbounds":7319,"Ġperspective":7320,"Ġcorrection":7321,"Ġimmutable":7322,"VS":7323,"ĠIF":7324,"LY":7325,"unique":7326,"Ġdownloading":7327,"CSS":7328,"nan":7329,"ĠItem":7330,"Microsoft":7331,"ĠJo":7332,"oob":7333,"eek":7334,"Ġcoded":7335,"Ġamong":7336,"Ġbool":7337,"rapper":7338,"defin":7339,"dot":7340,"Ġperformed":7341,"both":7342,"Ġdumb":7343,"`:":7344,"Ġbooks":7345,"Ġdeployment":7346,"kb":7347,"Ġworries":7348,"Ġphysical":7349,"ĠCorrect":7350,"Ġpopulated":7351,"Copy":7352,"Ġlay":7353,"direct":7354,"`...":7355,"none":7356,"Ġconnecting":7357,"bound":7358,"Ġshift":7359,"ipping":7360,"Version":7361,"pment":7362,"contents":7363,"Ġcontract":7364,"cv":7365,"Ġpasses":7366,"');`":7367,"Ġoverwrite":7368,"ributed":7369,"ssibly":7370,"dom":7371,"Parse":7372,"uing":7373,"Sam":7374,"Ġnews":7375,"1000":7376,"Ġfunny":7377,"Ġrepresents":7378,"Ġdecre":7379,"ĠWor":7380,"ANK":7381,"groups":7382,"into":7383,"instead":7384,"Although":7385,"Ġpls":7386,"eturn":7387,"Width":7388,"ĠLinq":7389,"validate":7390,"Ġunderscore":7391,"success":7392,"dig":7393,"ĠSwing":7394,"ithmetic":7395,"begin":7396,"Ġche":7397,"normal":7398,"Ġdimensions":7399,"alone":7400,")/":7401,"Ġpreference":7402,"Ġintegration":7403,"Admin":7404,"design":7405,"Ġbesides":7406,"UD":7407,"doesn":7408,"Ġsubset":7409,"ection":7410,"ĠFiles":7411,"plain":7412,"break":7413,"Ġmixed":7414,"Ġmor":7415,"rey":7416,"Ġtechnology":7417,"Ġchose":7418,"mut":7419,"ĠThats":7420,"Ġwilling":7421,">`,":7422,"Last":7423,"Ġafterwards":7424,"ĠOper":7425,"Ġintend":7426,"cmd":7427,"ingu":7428,"Ġnobody":7429,"iphone":7430,"Ġmistakes":7431,"Save":7432,"inject":7433,"Graph":7434,"Ġconcurrent":7435,"Ġpaper":7436,"exp":7437,"Ġdestination":7438,"ĠQuery":7439,"ĠAuth":7440,"ACT":7441,"../":7442,"Ġescaping":7443,"ĠFoo":7444,"voting":7445,"Ġencaps":7446,"ĠThus":7447,"Ġbackslash":7448,"Ġapplicable":7449,"YPE":7450,"OD":7451,"Ġassist":7452,"ĠExplorer":7453,"func":7454,"ĠORM":7455,"ĠRed":7456,"Database":7457,"Ġenglish":7458,">(":7459,"Correct":7460,"keet":7461,"Ġgeneration":7462,"equals":7463,"ĠNull":7464,"Ġcalculations":7465,"Edited":7466,"Ġmisunderstanding":7467,"activity":7468,"probably":7469,"Agreed":7470,"Ġfinds":7471,"posts":7472,"112":7473,"Case":7474,"ĠJSF":7475,"PT":7476,"ĠDO":7477,"Host":7478,"morph":7479,"Thats":7480,"Ġpairs":7481,"Async":7482,"Ġshape":7483,"fields":7484,"Db":7485,"Ġreporting":7486,"crement":7487,"ĠPlus":7488,"Ġlocking":7489,"Ġmass":7490,"register":7491,"ĠCR":7492,"WS":7493,"token":7494,"Str":7495,"apped":7496,"Ġscheme":7497,"Dave":7498,"Ġfilters":7499,"projects":7500,"Ġaside":7501,"coded":7502,"iddler":7503,"Ġflexible":7504,"resources":7505,"Ġgraphics":7506,"<?":7507,"Ġ`$.":7508,"TC":7509,"Ġfits":7510,"Ġarticles":7511,"pite":7512,"filename":7513,"ĠListView":7514,"ĠJSP":7515,"ĠStr":7516,"ĠDoesn":7517,"None":7518,"Ġmeet":7519,"Ġinfl":7520,"ĠRewrite":7521,"err":7522,"xxx":7523,"ĠURI":7524,"mobile":7525,"ĠValue":7526,"Ġ).":7527,"PC":7528,"Ġserialize":7529,"Ġimpression":7530,"grep":7531,"udent":7532,"ĠVBA":7533,"ĠProcess":7534,"Ġseperate":7535,"Ġtransactions":7536,"never":7537,"Ġbal":7538,"Ġutf":7539,"Ġintroduced":7540,"ferred":7541,"\\.":7542,"itionally":7543,"Sy":7544,"\"`.":7545,"Ġclever":7546,"common":7547,"caught":7548,"oose":7549,"agement":7550,"Ġchosen":7551,"Ġserialization":7552,"Ġdescribing":7553,"Ġrevision":7554,"llegal":7555,"Ġeverytime":7556,"Ġimported":7557,"Ġsqlite":7558,"Rece":7559,"Ġperforming":7560,"watch":7561,"Ġidentity":7562,"Ġ<-":7563,"ĠDatabase":7564,"Ġnewline":7565,"Ġpipe":7566,"Arg":7567,"wait":7568,"ĠTABLE":7569,"Ġwheel":7570,"Ġsys":7571,"van":7572,"rypto":7573,"great":7574,"Wait":7575,"Ġtechnical":7576,"Ġtroubles":7577,"Ġrebuild":7578,"once":7579,"Ġlocations":7580,"Equ":7581,"Ġmoves":7582,"egr":7583,"Dan":7584,"Ġvertical":7585,"Ġmicro":7586,"Writer":7587,"Ġtranslation":7588,"Ġsections":7589,"ĠScal":7590,"Ġspeak":7591,"Ġyesterday":7592,"Ġ((":7593,"attribute":7594,"oret":7595,"ĠEDIT":7596,"Directory":7597,"Eng":7598,"ĠJohn":7599,"Âł":7600,"Ġvotes":7601,"Ġunicode":7602,"Ġminim":7603,"Ġwiki":7604,"short":7605,"Ġformer":7606,"Ġmonitor":7607,"forums":7608,"eared":7609,"ATA":7610,"Ġmatched":7611,"Part":7612,"Google":7613,"Ġtiny":7614,"uable":7615,"Ġ17":7616,"Ġleaves":7617,"Ġregistry":7618,"ĠTomcat":7619,"Ġdom":7620,"Ġpolicy":7621,"ĠEverything":7622,"iciency":7623,"Active":7624,"Ġiterating":7625,"Ġbasis":7626,"scape":7627,"81":7628,"ĠFixed":7629,"Ġdestructor":7630,"Ġcorrupt":7631,"ned":7632,"dbc":7633,"hibernate":7634,"evin":7635,"(?":7636,"points":7637,"Ġfirew":7638,"shell":7639,"keys":7640,"Ġphoto":7641,"Ġsupply":7642,"Ġimplicitly":7643,"ina":7644,"ĠJDK":7645,"Ġtom":7646,"uler":7647,".'":7648,"Ġmessed":7649,"`$":7650,"ĠEdited":7651,"ĠHence":7652,"Ġportable":7653,"late":7654,"ĠNone":7655,"platform":7656,"mult":7657,"Ġ[\"":7658,"usc":7659,"Ġsvn":7660,"Ġinstaller":7661,"ĠTrans":7662,"Ġworker":7663,"Ġcounting":7664,"bat":7665,"yan":7666,"Ġlinker":7667,"Ġoh":7668,"Ġinterpreter":7669,"ĠMethod":7670,"Ġshut":7671,"ĠĠĠĠĠĠĠĠĠĠĠ":7672,"Ġrectangle":7673,"Ġscop":7674,"Ġinteraction":7675,"Ġdecent":7676,"Ġ<?":7677,"ags":7678,"icon":7679,"mouse":7680,"Ġparentheses":7681,"#,":7682,"queue":7683,"player":7684,"Ġapproaches":7685,"rm":7686,"Ġtraff":7687,"obox":7688,"Interval":7689,"Ġdiscovered":7690,"Loader":7691,"ĠMath":7692,"decode":7693,"..?":7694,"Ġneeding":7695,"ĠSearch":7696,"ĠDavid":7697,"msg":7698,"idence":7699,"%=":7700,"Ġstacktrace":7701,"Ġexpose":7702,"dest":7703,"Ġspeaking":7704,"ĠYOU":7705,"Ġ???":7706,"Ġseriously":7707,"rigger":7708,"inline":7709,"strings":7710,"bone":7711,"ology":7712,"FYI":7713,"IST":7714,"step":7715,"ĠjsFiddle":7716,"Ġkinds":7717,"Ġdeclarations":7718,"Ġtraffic":7719,"Ġplanning":7720,"Ġvectors":7721,"ensions":7722,"ĠiPad":7723,"kens":7724,"Ġcircle":7725,"changed":7726,"inguish":7727,"malloc":7728,"Ġsubt":7729,"Ġcredit":7730,"rand":7731,"Ġcounts":7732,"Ġadmit":7733,"Ġscenarios":7734,"land":7735,"bes":7736,"(:":7737,"Win":7738,"Library":7739,"rip":7740,"ws":7741,"Ġexerc":7742,"rief":7743,"OF":7744,"Press":7745,"_,":7746,".:":7747,"Ġfirewall":7748,"Ġscripting":7749,"ĠAFAIK":7750,"either":7751,"Ġassumes":7752,"Ġcalculated":7753,"Ġsubquery":7754,"Ġlegal":7755,"Ġdealloc":7756,"41":7757,"assign":7758,"Du":7759,"Math":7760,"Ġthor":7761,"ĠSch":7762,"Ġencountered":7763,"car":7764,"Ġowner":7765,"Ġfoc":7766,"eks":7767,"ĠMessage":7768,"ĠHaving":7769,"NOT":7770,"Ġcountry":7771,"Spec":7772,"ips":7773,"Ġdangerous":7774,"rr":7775,"ĠĠĠĠĠĠĠĠĠĠĠĠĠĠĠĠĠĠĠĠ":7776,"CHAR":7777,",'":7778,"params":7779,"Fragment":7780,"Ġdatas":7781,"Nick":7782,"Ġ18":7783,"']`":7784,"\"/>":7785,"ko":7786,"Ġfac":7787,"Ġland":7788,"Ġprivile":7789,"Ġ?>":7790,"Dev":7791,"Ġbootstrap":7792,"Ġcat":7793,"Ġ>>":7794,"Wor":7795,"Mr":7796,"izard":7797,"ĠInternet":7798,"Ġcaught":7799,"appy":7800,"Ġlocale":7801,"`),":7802,"lined":7803,"formed":7804,"sourceforge":7805,"Ġweak":7806,"Ġpasswords":7807,"Ġcompute":7808,"*?":7809,"ento":7810,"Mutable":7811,"Cre":7812,"ales":7813,"Ġultim":7814,"ĠSpec":7815,"JB":7816,"Ġprintf":7817,"adoc":7818,"Ġ-->":7819,"Ġadvanced":7820,"DL":7821,"Ġindexing":7822,"ĠExample":7823,"Ġmetadata":7824,"Ġpriority":7825,"Ġpieces":7826,"ĠHibernate":7827,"Ġtrunc":7828,"Ġlegacy":7829,"Ġregards":7830,"Ġcorner":7831,"Ġplz":7832,"Ġ...`":7833,"Ġsaves":7834,"istrator":7835,"Ġbeat":7836,"Ġhosted":7837,"Ġ\"\"":7838,"Ġfriends":7839,"article":7840,"Ġdesc":7841,"00000000":7842,"iously":7843,"video":7844,"Ġgen":7845,"ĠHopefully":7846,"ĠGL":7847,"Ġselects":7848,"ablish":7849,"Ġgotten":7850,"Ġfly":7851,"Ġindexed":7852,"tk":7853,"acs":7854,"Ġposter":7855,"Most":7856,"Eric":7857,"iet":7858,"consist":7859,"ĠFA":7860,"ĠSm":7861,"Ġsemicol":7862,"Ġlimitation":7863,"Ġimprovement":7864,"91":7865,"Ġexe":7866,"Interface":7867,"Ġutil":7868,"Ġconcepts":7869,"detail":7870,"ĠAuto":7871,"ĠINS":7872,"Ġslide":7873,"Height":7874,"Ġapologies":7875,"nost":7876,"Intent":7877,"Ġmutable":7878,"Ġorientation":7879,"ĠThink":7880,"Ġstraightforward":7881,"ĠRec":7882,"mfony":7883,"Ġordered":7884,"ander":7885,"Ġconvenient":7886,"Ġhaha":7887,"Ġ90":7888,"iam":7889,"Rule":7890,"Go":7891,"dialog":7892,"Ġgetter":7893,"]]":7894,"ĠTab":7895,"ien":7896,"Ġlicense":7897,"Pri":7898,"Ġbranches":7899,"ĠIde":7900,"ĠInteger":7901,"Ġ$(\"#":7902,"Ġcritical":7903,"Ġstar":7904,"libs":7905,"__`":7906,"Ġregion":7907,"bool":7908,"inside":7909,"Ġselectors":7910,"Cache":7911,"software":7912,"bs":7913,"built":7914,"ĠARC":7915,"Ġarrow":7916,"Ġpromising":7917,"Possible":7918,"Ġutility":7919,"Ġcheckout":7920,"Ġcircumst":7921,"Local":7922,"Ġcategories":7923,"Ġprove":7924,"Ġpin":7925,"ĠXAML":7926,"ĠLoc":7927,"\"}":7928,"Ġreserved":7929,"socket":7930,"straction":7931,"Ġmysqli":7932,"Ġalpha":7933,"ideos":7934,"pub":7935,"Ġbuy":7936,"Title":7937,"Ġbackwards":7938,"Ġdie":7939,"ĠNSLog":7940,"Helper":7941,"scan":7942,"Ġconclusion":7943,"panel":7944,"istics":7945,"Ġbasics":7946,"Next":7947,"tom":7948,"Ġwer":7949,"EC":7950,"getting":7951,"Ġcron":7952,"mx":7953,"Ġhiding":7954,"pu":7955,"sem":7956,"hack":7957,"Ġflush":7958,"ĠMuch":7959,"ponents":7960,"invent":7961,"Ġtimezone":7962,"Ġletting":7963,"Ġstrategy":7964,"owers":7965,"1234":7966,"Ġfeels":7967,"Ġthorough":7968,"Elements":7969,"ĠButton":7970,"\"),":7971,"Ġargue":7972,"WHERE":7973,"ĠTask":7974,"Ġchunk":7975,"Ġclosest":7976,"ĠAsync":7977,"rupal":7978,"center":7979,"aning":7980,"Ġtrailing":7981,"Ġmessy":7982,"say":7983,"Queue":7984,"together":7985,";`.":7986,"MD":7987,"widget":7988,"atory":7989,"Ġclarity":7990,"eh":7991,"71":7992,"Ġspl":7993,"Render":7994,"total":7995,"Ġinefficient":7996,"Ġmillisecond":7997,"IKE":7998,"itions":7999,"Ġdefaults":8000,"updated":8001,"unsigned":8002,"Ġstudent":8003,"ĠViewModel":8004,"fixed":8005,"assuming":8006,"Ġmacros":8007,"selector":8008,"dl":8009,"Ke":8010,"ĠXPath":8011,"release":8012,"events":8013,"Ġscrew":8014,"Ġsorts":8015,"Ġhitting":8016,"ĠAR":8017,"ĠThx":8018,"ĠBtw":8019,"ĠSVN":8020,"ĠVC":8021,"lation":8022,"Ġrotation":8023,"._":8024,"dp":8025,"Ahh":8026,"Ġremaining":8027,"Hibernate":8028,"Ġtomcat":8029,"abilities":8030,"atter":8031,"Simple":8032,"Thomas":8033,"Ġindentation":8034,"Ġlimits":8035,"Ġstable":8036,"results":8037,"Obj":8038,"Ġtruly":8039,"Ġcombined":8040,"ottom":8041,"Ġpresented":8042,"Ġcheckboxes":8043,"services":8044,"ĠWH":8045,"Ġdude":8046,"Ġtreated":8047,"Ġplug":8048,"Ġaxis":8049,"managed":8050,"Oops":8051,"Ġupvoted":8052,"Ġcleared":8053,"Ġhits":8054,"Ġ`*":8055,"Ġmal":8056,"sheet":8057,"Ġfresh":8058,"record":8059,"Ġroom":8060,"hard":8061,"Instead":8062,"ĠKeep":8063,"()\"":8064,"Ġprevents":8065,"erial":8066,"Ġinterrupt":8067,"Ġsupplied":8068,"Ġpowerful":8069,"Ġ'\\":8070,"Ġanybody":8071,"Ġcalendar":8072,"Ġinvolve":8073,"INT":8074,"Ġnavigate":8075,"Ġwall":8076,"tt":8077,"formation":8078,"Ġmov":8079,"Ġwebserver":8080,"Ġgram":8081,"Every":8082,"Ġsizeof":8083,"ĠConsole":8084,"Artic":8085,"Te":8086,"rik":8087,"Ġcovered":8088,"Ġvarchar":8089,"ĠBesides":8090,"errors":8091,"TL":8092,"ĠScala":8093,"Ġdeployed":8094,"better":8095,"different":8096,"itable":8097,"`;":8098,"Ġpag":8099,"Ġeliminate":8100,"Ġexclude":8101,"OO":8102,"schools":8103,"feed":8104,"Ġstays":8105,"ior":8106,"`-":8107,"retch":8108,"Ġstoryboard":8109,"127":8110,"vol":8111,"through":8112,"locks":8113,"Block":8114,"Ġterrible":8115,"Ġencrypted":8116,"phen":8117,"zero":8118,"ĠFurther":8119,"apper":8120,"river":8121,"Hm":8122,"served":8123,"Ġarithmetic":8124,"hover":8125,"MySQL":8126,"Ġ\"-":8127,"behind":8128,"aches":8129,"300":8130,"Ġweeks":8131,"ao":8132,"Ġescaped":8133,"SH":8134,"Sol":8135,"Ġsusp":8136,"coding":8137,"unks":8138,"Ġtypical":8139,"acts":8140,"Ġpopular":8141,"posing":8142,"Ġtracking":8143,"ctor":8144,"aN":8145,"awn":8146,"Ġquant":8147,"gh":8148,"Ġdummy":8149,"ĠOOP":8150,"Ġdistinguish":8151,"ertain":8152,"ĠonCreate":8153,":[":8154,"Ġcontainers":8155,"Ġproof":8156,"Rich":8157,"ructure":8158,"switch":8159,"Ġ`!":8160,"avel":8161,"{\"":8162,"Ġintroduce":8163,"Hmmm":8164,"Ġbindings":8165,"Ġencour":8166,"Ġinserts":8167,"ternatively":8168,"details":8169,"Ġmainly":8170,"Ġreported":8171,"Ġrotate":8172,">'":8173,"fusc":8174,"prevent":8175,"chrome":8176,"mediate":8177,")'":8178,"tutorials":8179,"ĠFB":8180,"iques":8181,"UG":8182,"clean":8183,"Ġprinciple":8184,"Ġfade":8185,"Ġ\"\\":8186,"Ġstrip":8187,"ĠMo":8188,"IW":8189,"inger":8190,"lass":8191,"Ġinherited":8192,"lfiddle":8193,"Container":8194,"Ġattempts":8195,"Find":8196,"visual":8197,"via":8198,"Ġmentions":8199,"ĠORDER":8200,"author":8201,"Ġcommunicate":8202,"DP":8203,"Min":8204,"Ġflat":8205,"Ġnic":8206,"##":8207,"ĠNSString":8208,"Ġrarely":8209,"ĠProduct":8210,"CG":8211,"ĠHaskell":8212,"Ġmessing":8213,"sample":8214,"ulner":8215,"MAX":8216,"STR":8217,"align":8218,"ĠAdding":8219,"commit":8220,"REATE":8221,"Ġstruggling":8222,"Ġtoggle":8223,"Ġbraces":8224,"ĠAdded":8225,"tor":8226,"Top":8227,"ifying":8228,"specially":8229,"Bean":8230,"arn":8231,"Ġholding":8232,"uitive":8233,"Ġge":8234,"Bundle":8235,"Adam":8236,"Ġrealise":8237,"Ġjav":8238,"Ġrepresented":8239,"angular":8240,"ultane":8241,"EXT":8242,"Token":8243,"Ġstrictly":8244,"Ġskill":8245,"Ġtiming":8246,"Ġcho":8247,"ĠINSERT":8248,"Ġmoney":8249,"Ġimproved":8250,"Ġcombinations":8251,"ĠLE":8252,"Ġsensitive":8253,"Ġexc":8254,"ĠPy":8255,"Ġdirty":8256,"han":8257,"Ġweren":8258,"Ign":8259,"Ġssh":8260,"Ġfancy":8261,"Ġambiguous":8262,"Ġannotations":8263,"autiful":8264,"Ġclearing":8265,"Ġdemonstrate":8266,"Ġneat":8267,"Ġlies":8268,"Ġrecall":8269,"Yea":8270,"ĠUIView":8271,"Ġnatural":8272,"Ġcommenting":8273,"isp":8274,"Ġdatatype":8275,"Ġhell":8276,"Ġinvestigate":8277,"Ġspread":8278,"Ġshe":8279,"Ġexperienced":8280,"Ġhuman":8281,"Ġindices":8282,"ĠPhone":8283,"vim":8284,"comput":8285,"programming":8286,"199":8287,"Storage":8288,"Ġquoted":8289,"Ġabstraction":8290,"omet":8291,"ĠIndeed":8292,"SP":8293,"aled":8294,"Josh":8295,"Ġpointless":8296,"ĠPK":8297,"zure":8298,"Ġsed":8299,"Ġpaint":8300,"ĠCF":8301,"ĠController":8302,"ĠTw":8303,"Domain":8304,"Ġshortcut":8305,")(":8306,"Lu":8307,"Ġmanipulation":8308,"VAL":8309,"Ġemails":8310,"Matth":8311,"must":8312,"Ġhorizontal":8313,"ĠRel":8314,"Ġprimitive":8315,"Ġfires":8316,"Ġunivers":8317,"Ġthinks":8318,"Ġwise":8319,"Ġapprox":8320,"asc":8321,"Ġblocked":8322,"Both":8323,"Each":8324,"Ġ]":8325,"ĠMight":8326,"Ġentering":8327,"Ġsubsequent":8328,"[]`":8329,"Ġgreatly":8330,"Ġdivision":8331,"eper":8332,"Ġinstantiated":8333,"EF":8334,"sence":8335,"roov":8336,"Ġincomplete":8337,"Ġsolid":8338,"world":8339,"words":8340,"Ġmeaningful":8341,"Ġconcerns":8342,"track":8343,"job":8344,"atio":8345,"Ġkeywords":8346,"ĠRef":8347,"Ġsmooth":8348,"Ġbenefits":8349,"NSString":8350,"Ġslider":8351,"virtual":8352,"ĠObviously":8353,"Ġnotes":8354,"chart":8355,"Ġschool":8356,"QUEST":8357,"cpy":8358,"gist":8359,"elt":8360,"Ġhundreds":8361,"nable":8362,"ormally":8363,"Ġcapital":8364,"Ġsan":8365,"modules":8366,"/~":8367,"ja":8368,"wrap":8369,"Ġhints":8370,"Ġsockets":8371,"/#!":8372,"Ġactivities":8373,"(...)":8374,"OSIX":8375,")*":8376,"Ġbrain":8377,"effect":8378,"Ġestablish":8379,"ĠEnd":8380,"sdk":8381,"Ġrecreate":8382,"ĠAB":8383,"Ġloss":8384,"Ġexercise":8385,"roovy":8386,"ĠGROUP":8387,"Jonathan":8388,"Ġbud":8389,"gres":8390,"Ġ*.":8391,"Rows":8392,"Ġconfuse":8393,"Ġ2000":8394,"Ġleaks":8395,"Ġaccidentally":8396,"hell":8397,"Ġamazing":8398,"processor":8399,"Ġnav":8400,"sg":8401,"Ġargs":8402,"255":8403,"Ġrecommendation":8404,"Pass":8405,"Ġchall":8406,"Memory":8407,"locking":8408,"usic":8409,"Ġstyling":8410,"sun":8411,"Ġpacket":8412,"?).":8413,"Ġdecode":8414,"ibling":8415,"????":8416,"Ġrever":8417,"Cat":8418,"Sl":8419,"Ġaccounts":8420,"els":8421,"NU":8422,"Ġpulling":8423,"ĠSilverlight":8424,"andbox":8425,"Touch":8426,"Ġ300":8427,"Nothing":8428,"Off":8429,"Ġsubmitting":8430,"sqlite":8431,"ĠEd":8432,"Ġvaluable":8433,"GridView":8434,"ibly":8435,"Ġomit":8436,"SO":8437,"ĠUnix":8438,"Ġgrouping":8439,"Ġcustomers":8440,"Header":8441,"enum":8442,"loader":8443,"/),":8444,"Invoke":8445,"uation":8446,"datetime":8447,"Parent":8448,"Ġverified":8449,"Ġcommits":8450,"Ġfilesystem":8451,"final":8452,"ming":8453,"Ġproceed":8454,"browse":8455,"Ġnamespaces":8456,"Phone":8457,"Ġrobust":8458,"Ġpositions":8459,"Ġwire":8460,"ado":8461,"ete":8462,"ĠRo":8463,"cur":8464,"icious":8465,"ds":8466,"DidLoad":8467,"Ġ`==":8468,"ĠUPDATE":8469,"oooo":8470,"Names":8471,"ĠSounds":8472,"async":8473,"Ġfonts":8474,"Ġraised":8475,"apshot":8476,"city":8477,"regular":8478,"stat":8479,"redirect":8480,"exit":8481,"Files":8482,"Ġuploading":8483,"prototype":8484,"year":8485,"okay":8486,"ĠTR":8487,"Login":8488,"compatible":8489,"Ġsplitting":8490,"Ġstudy":8491,"interpre":8492,"Screen":8493,"[^":8494,"nav":8495,"Ġhot":8496,"Ġaffected":8497,"fun":8498,"rive":8499,"ctype":8500,"share":8501,"ĠOrder":8502,"whatever":8503,"ImageView":8504,"Ġhorrible":8505,"Widget":8506,"Ġresort":8507,"Ġsurround":8508,"[$":8509,"Ġextending":8510,"Ġintegrate":8511,"Ġsender":8512,"ĠInteresting":8513,"Ġunsure":8514,"ĠExpress":8515,"Ġeffective":8516,"otos":8517,"Ġthreading":8518,"Ġassemblies":8519,"permission":8520,"Ġbare":8521,"Ġproduced":8522,"antastic":8523,"AND":8524,"was":8525,"Ġunre":8526,"Option":8527,"Ġfloats":8528,"ĠFunction":8529,"Ġavoiding":8530,"Ġfrequently":8531,"ĠPri":8532,"128":8533,"ĠXml":8534,"cgi":8535,"}}":8536,"interface":8537,"Ġoptimal":8538,"Ġreached":8539,"term":8540,"Ġrandomly":8541,"ĠProperty":8542,"Ġmask":8543,"Ġcovers":8544,"ĠAbout":8545,"Ġresponsible":8546,"Del":8547,"tried":8548,"ĠMongo":8549,"Ġcompletion":8550,"Ġfrustr":8551,"Ġtuple":8552,"SET":8553,"Ġaim":8554,"hor":8555,"Ġrouting":8556,"ĠTem":8557,"Ġatomic":8558,"ĠDocument":8559,"Ġ2005":8560,"Without":8561,"ĠWindow":8562,"Ġvulner":8563,"Ġredirects":8564,"INSER":8565,"IV":8566,"Pack":8567,"gap":8568,"curl":8569,"IR":8570,"Ġconventions":8571,"Ġjars":8572,"hm":8573,"Ġimporting":8574,"Ġanimate":8575,"Ġsimultane":8576,"INSERT":8577,"refman":8578,"Ġconcise":8579,"ggy":8580,"Selector":8581,"tables":8582,"Ġefficiency":8583,"maven":8584,"Ġ'<":8585,"Position":8586,"qt":8587,"Ġconfigur":8588,"Ġsees":8589,"Ġhibernate":8590,"InputStream":8591,"61":8592,"Ġvisibility":8593,"DOM":8594,"Long":8595,"resource":8596,"syn":8597,"Ġpe":8598,"Ġwebsites":8599,"Remove":8600,"Ġresponding":8601,"Vari":8602,"Visual":8603,"Ġproblematic":8604,"Ġsynchronous":8605,"nice":8606,"Ġ23":8607,"Ġtxt":8608,"Ġnotifications":8609,"Ġboard":8610,"Timer":8611,"Ġgenerics":8612,"awk":8613,"Ġ^^":8614,"Ġdeveloped":8615,"special":8616,"imgur":8617,"ollow":8618,"ĠExactly":8619,"binding":8620,"Ġreaders":8621,"Ġbehaves":8622,"ĠChar":8623,"Ġavoided":8624,"Ġincreasing":8625,"Mo":8626,"Ġclock":8627,"ĠChange":8628,"Ġfetching":8629,"gb":8630,"alt":8631,"den":8632,"rick":8633,"umps":8634,"Ġforever":8635,"Empty":8636,"ĠDec":8637,"Ġstylesheet":8638,"Christ":8639,"Ġcrashing":8640,"RS":8641,"Ġlocks":8642,"ĠVersion":8643,"Ġending":8644,"Ġreplies":8645,"Ġunion":8646,"ssl":8647,"ĠBig":8648,"rewrite":8649,"ĠFYI":8650,"ctr":8651,"delegate":8652,"ĠSET":8653,"examples":8654,"Var":8655,"Ġsil":8656,"Module":8657,"MT":8658,"products":8659,"ĠLibrary":8660,"Ġhonestly":8661,"di":8662,"Ġliterals":8663,"Ġtho":8664,"ĠIntent":8665,"ĠRemember":8666,"Ġvim":8667,"ĠAtt":8668,"Ġexceed":8669,"Ġpractices":8670,"ĠRegex":8671,"Ġtweak":8672,"aur":8673,"COM":8674,"'\"":8675,"Sort":8676,"pling":8677,"Ġwebservice":8678,"Ġapologize":8679,"Ġjobs":8680,"merge":8681,"Ġlocked":8682,"ASS":8683,"zen":8684,"Ġlibs":8685,"ros":8686,"++)":8687,"deploy":8688,"Rout":8689,"Ġaggregate":8690,"ĠFound":8691,"Ġdescribes":8692,"Settings":8693,"Ġmigration":8694,"Bitmap":8695,"IMIT":8696,"Ġpolymorph":8697,"Ġgrammar":8698,"otion":8699,"ĠCannot":8700,"Ġpositioning":8701,"Put":8702,"Ġperforms":8703,"emon":8704,"ĠER":8705,"Ġquerying":8706,"mmm":8707,"Ġcomputers":8708,"Ġplacing":8709,"grad":8710,"Ġforced":8711,"DS":8712,"uss":8713,"Ġscrollbar":8714,"Ġpushed":8715,"Ġbrief":8716,"ivot":8717,"ĠBetter":8718,"solution":8719,"400":8720,"Picker":8721,"Ġpushing":8722,"Ġunus":8723,"Ġlinq":8724,"Ġroutine":8725,"Ġtit":8726,"jan":8727,"Ġsearches":8728,"running":8729,"ĠStandard":8730,"packages":8731,"phrase":8732,"Ġbenchmark":8733,"serial":8734,"Ġparenthesis":8735,"wow":8736,"Ġuninstall":8737,"Ġassumptions":8738,"Parameter":8739,"Ġtextarea":8740,"ĠCLR":8741,"person":8742,"Exp":8743,"Ġappending":8744,"Mail":8745,"Ġbuilder":8746,"ĠPath":8747,"wt":8748,"ginx":8749,"ĠUsually":8750,"ham":8751,"Ġtail":8752,"Ġbill":8753,"Ġbottlen":8754,"Ġrelationships":8755,"Target":8756,"Thx":8757,"Ġcallbacks":8758,"Ġsalt":8759,"spe":8760,"vin":8761,"Ġattempted":8762,"Mac":8763,"Unless":8764,"Report":8765,"export":8766,"contains":8767,"essages":8768,"Ġeyes":8769,"gwin":8770,"256":8771,"ongodb":8772,"iling":8773,"ancel":8774,"wrong":8775,"SERVER":8776,"gy":8777,"Ġevil":8778,"quire":8779,"erm":8780,"Ġcircumstances":8781,"2007":8782,"Ġfastest":8783,"Ġple":8784,"ĠBest":8785,"gged":8786,"peat":8787,"ĠSOAP":8788,"ĠNext":8789,"Ġpreview":8790,"Other":8791,"Cons":8792,"Ġlegit":8793,"Lo":8794,"Ġsignificantly":8795,"aste":8796,"Ġequality":8797,"Ġlayouts":8798,"ĠAL":8799,"Ġdecor":8800,"ĠGroup":8801,"ĠPS":8802,"Ġtheoret":8803,"Ġaltogether":8804,"]`,":8805,"Alright":8806,"ĠMV":8807,"EAD":8808,"Ġnotify":8809,"Ġstreams":8810,"ĠIT":8811,"ĠIndex":8812,"cannot":8813,"Ġcatching":8814,"ĠState":8815,"rial":8816,"achine":8817,"Ġcompression":8818,"Global":8819,"TextBox":8820,"Ġcloses":8821,"Ġmed":8822,"account":8823,"Ġavail":8824,"Ġoptimizations":8825,"ĠZend":8826,"ĠDev":8827,"Ġmarks":8828,"Ġtokens":8829,"entry":8830,"arin":8831,"Ġdivide":8832,"Ġvendor":8833,"Ġprofiler":8834,"Ġrestore":8835,"ĠFAQ":8836,"Ġdestroyed":8837,"Ġapple":8838,"aved":8839,"ĠCS":8840,"Ġmarking":8841,"Ġsupporting":8842,"Ġ([":8843,"ensitive":8844,"Ġbusy":8845,"Ġdetermined":8846,"Ġoverlook":8847,"ker":8848,"ĠValid":8849,"ĠCurrently":8850,"omatic":8851,"ĠFl":8852,"dr":8853,"Ġarr":8854,"Ġretrieving":8855,"ĠFind":8856,"Ġ===":8857,"lt":8858,"Ġmorning":8859,"game":8860,"Ġinconsist":8861,"Configuration":8862,"Ġobjective":8863,"Ġchunks":8864,"Brian":8865,"Ġpoll":8866,"Ġwordpress":8867,"attributes":8868,"Single":8869,"Ġalignment":8870,"DC":8871,"Who":8872,"ĠAV":8873,"created":8874,"elements":8875,"ĠPlay":8876,"Ġkn":8877,"iform":8878,"ĠCommand":8879,");`.":8880,"Ġpicked":8881,"Ġlimitations":8882,"Ġdropped":8883,"agrid":8884,"Two":8885,"ĠConfig":8886,"Ġredirected":8887,"Ġangle":8888,"Jim":8889,"Kevin":8890,"pha":8891,"si":8892,"Ġdr":8893,"Jason":8894,"imensional":8895,"notation":8896,"<<":8897,"gem":8898,"Ġrights":8899,"settings":8900,"Ġvariant":8901,"too":8902,"Ġjsp":8903,"Ġreceiver":8904,"ETE":8905,"generated":8906,"ĠWr":8907,"Ġreplicate":8908,"ĠISO":8909,"Ġprocedures":8910,"enn":8911,"Ġvoting":8912,"Ġdrawn":8913,"Ġevaluation":8914,"installed":8915,"corp":8916,"Ġmigr":8917,"Ġrefactoring":8918,"Ġmixing":8919,"dt":8920,"Ġassets":8921,"esture":8922,"Question":8923,"CV":8924,"Ġworkflow":8925,"miss":8926,"found":8927,"Ġrace":8928,"ntact":8929,"Ġcolour":8930,"ĠMB":8931,"Ġunits":8932,"Ġturning":8933,"Ġsuited":8934,"ĠAccording":8935,"bro":8936,"Ġignoring":8937,"Ġfiring":8938,"168":8939,"Ġve":8940,"Ġexplorer":8941,"Ġzone":8942,"ista":8943,"Ġmutex":8944,"Ġtechniques":8945,"books":8946,"hib":8947,"Ġrough":8948,"Ġtoolbar":8949,"ĠEspecially":8950,"ATION":8951,"Ġintercept":8952,"handle":8953,"Ġband":8954,"Ġnewly":8955,"Ġ22":8956,"rolled":8957,"Really":8958,"ListView":8959,"ĠInput":8960,"Hans":8961,"Ġreplying":8962,"basic":8963,"ĠGiven":8964,"Close":8965,"CR":8966,"orth":8967,"emo":8968,"Socket":8969,"000000":8970,"Ġprim":8971,"construct":8972,"reak":8973,"Answer":8974,"important":8975,"ctrine":8976,"fb":8977,"Ġpressing":8978,"ĠGPU":8979,"encoding":8980,"ĠReference":8981,"Debug":8982,"Dir":8983,"Enabled":8984,"Ġpartition":8985,"Ġhabit":8986,"According":8987,"ifically":8988,"ĠINTO":8989,"Ġhardly":8990,"Ġdecom":8991,"Ġprem":8992,"Ġdeliver":8993,"Cond":8994,"latest":8995,"Ġpredict":8996,"vironments":8997,"Ġsdk":8998,"ering":8999,"ecking":9000,"Expression":9001,"YES":9002,"Ġmeas":9003,"prov":9004,"least":9005,"Ġintell":9006,"Ġregexp":9007,"studio":9008,"Ġcontinuous":9009,"Ġnoob":9010,"Ġfive":9011,"issue":9012,"binary":9013,"ĠRegarding":9014,"Ġpurely":9015,"'),":9016,"However":9017,"john":9018,"ĠDeveloper":9019,"Ġconvin":9020,".?":9021,"fish":9022,"Ġdespite":9023,"LO":9024,"elix":9025,"ĠBefore":9026,"gon":9027,"âĢĶ":9028,"Double":9029,"ĠStore":9030,"Ġsnippets":9031,"ĠMono":9032,"ĠNumber":9033,"Ġ\"[":9034,"Ġoffers":9035,"ĠOO":9036,"tenance":9037,"Ġdetection":9038,"ĠHand":9039,"Ġexcl":9040,"Shell":9041,"Ġnicer":9042,"sus":9043,"Ġerr":9044,"Ge":9045,"theless":9046,"Ġ---":9047,"mc":9048,"Ġ'$":9049,"Ġpresentation":9050,"Engine":9051,"Servlet":9052,"bits":9053,"vy":9054,"oint":9055,"Has":9056,"ĠManager":9057,"Ġbund":9058,"Ġmodifications":9059,"mk":9060,"Ġcheers":9061,"ining":9062,"Ġcharset":9063,"nothing":9064,"Port":9065,"Ġmarker":9066,"Ġguid":9067,"ArrayList":9068,"Ġduration":9069,"Ġoverlay":9070,"REQUEST":9071,"ĠPoint":9072,"Begin":9073,"Bal":9074,"ĠGive":9075,"character":9076,"Ġfiguring":9077,"ĠLast":9078,"Ġintermediate":9079,"fast":9080,"vey":9081,"Ġpossibilities":9082,"ĠCollection":9083,"Word":9084,"gines":9085,"iguous":9086,"URI":9087,"Ġconstruction":9088,"ĠAlex":9089,"member":9090,"Compar":9091,"Ġemploy":9092,"Ġautore":9093,"Ġachieved":9094,"Ġmilliseconds":9095,"ĠTO":9096,"Ġgoogling":9097,"ĠTools":9098,"Robert":9099,"Ġconfirmed":9100,"UB":9101,"ĠGot":9102,"Ġinsertion":9103,"Ġ%>":9104,"Ġwp":9105,"plugins":9106,"weet":9107,"Ġcommas":9108,"thats":9109,"Ġconcatenation":9110,"Ġded":9111,"Ġ[]":9112,"Ġdere":9113,"Ġrefactor":9114,"variables":9115,"ga":9116,"month":9117,"Related":9118,"Ġxcode":9119,"Ġinvolves":9120,"ĠGraph":9121,"Args":9122,"Ġspam":9123,"Ġseparator":9124,"margin":9125,"Values":9126,"Ġalternate":9127,"Ġaligned":9128,"ignore":9129,"ĠMin":9130,"yyyy":9131,"Ġfol":9132,"These":9133,"illed":9134,"ĠDIV":9135,"queries":9136,"ĠIEnumerable":9137,"Ġ@\"":9138,"âĢĭ":9139,"Pane":9140,"Ġrestrictions":9141,"ORM":9142,"ĠRob":9143,"Ġredirecting":9144,"abet":9145,"ists":9146,"Ġcombo":9147,"CD":9148,"Ġproc":9149,"pc":9150,"grade":9151,"secure":9152,"Ġanimations":9153,"une":9154,"sudo":9155,"Ġforgotten":9156,"parameter":9157,"Ġinvoking":9158,"celer":9159,"Ġsubstring":9160,"cii":9161,"TextView":9162,"Ġmisread":9163,"Details":9164,"AIN":9165,"ĠHtml":9166,"ĠClick":9167,"Ġdatasource":9168,"Ġconstructed":9169,"La":9170,"ĠExec":9171,"ĠBoost":9172,"Ġinitializing":9173,"ĠBar":9174,"ĠDebug":9175,"looks":9176,"Ġexisted":9177,"Ġloose":9178,"Ġunix":9179,"eres":9180,"Ġreferred":9181,"Ġball":9182,"Ġinf":9183,"Root":9184,"Full":9185,"ĠSM":9186,"Ġshif":9187,"andon":9188,"Ġhighest":9189,"ĠFinally":9190,"Ġsubtract":9191,"Ġsudd":9192,"AtIndexPath":9193,"Sw":9194,"activ":9195,"logies":9196,"Ġterminate":9197,"Ġimmediate":9198,"Ġpasting":9199,"Ġpackets":9200,"Ġmsg":9201,"scale":9202,"Browser":9203,"gnu":9204,"iframe":9205,"Ġlisting":9206,"gar":9207,"sen":9208,"Parser":9209,"performance":9210,"ERY":9211,"initialized":9212,"nl":9213,"Ġpurch":9214,"methods":9215,"Ġmaterial":9216,"price":9217,"Ġrepeating":9218,"Ġ'.":9219,"ĠCopy":9220,"ĠAnyways":9221,"=\"#":9222,"device":9223,"Fixed":9224,"rier":9225,"Ġfork":9226,"Ġdeeper":9227,"ĠPower":9228,"antic":9229,"Ġstandalone":9230,"ITY":9231,"ĠShare":9232,"Ġvb":9233,"Ġserialized":9234,"whats":9235,"greSQL":9236,"ĠColumn":9237,"take":9238,"ĠSingle":9239,"IEnumerable":9240,"Ġrealised":9241,"ART":9242,"Ġoccas":9243,"HOME":9244,"oomla":9245,"Ġstretch":9246,"Ġnoting":9247,"Ġvalidator":9248,"Ġretrieved":9249,"Ġrelying":9250,"Ġcru":9251,"Cr":9252,"Ġcalculating":9253,"AO":9254,"done":9255,"Ġvideos":9256,"ĠAN":9257,"Ġlistening":9258,"Ġsudden":9259,"Ġeverybody":9260,".**":9261,"`/`":9262,"ĠLooking":9263,"Ġtransformation":9264,"Ġranges":9265,":-":9266,"Ġ2011":9267,"Ġusable":9268,"Ġints":9269,"Ġho":9270,"Ġappended":9271,"pract":9272,"ĠSay":9273,"ĠHad":9274,"Ġexpanded":9275,"Wouldn":9276,"orders":9277,"......":9278,"(@\"":9279,"BO":9280,"999":9281,"Ġ'%":9282,"Ġmarket":9283,"Ġpictures":9284,"btn":9285,"Ġstopping":9286,"Json":9287,"ribly":9288,"ĠDefault":9289,"Ġ},":9290,"ideone":9291,"Ġcart":9292,"Ġdelimiter":9293,"pick":9294,"Left":9295,"ĠAdmin":9296,"ĠDele":9297,"Ġsensible":9298,"Ġhurt":9299,"AE":9300,"Ġregisters":9301,"Operation":9302,"Events":9303,"Ġiphone":9304,"Ġdistributed":9305,"Ġsafety":9306,"hr":9307,"Category":9308,"Func":9309,"Ġbypass":9310,"Ġobfusc":9311,"'];":9312,"Ġcomputation":9313,"ashion":9314,"sqlfiddle":9315,"Ġfriendly":9316,"AGE":9317,"Ġdisabling":9318,"iri":9319,"ĠChris":9320,"prop":9321,"Ġ`?":9322,"Joe":9323,"links":9324,"Ġlayers":9325,"blah":9326,"isons":9327,"orient":9328,"ĠHelp":9329,"lem":9330,"Ġregistration":9331,"yep":9332,"Ġah":9333,"echn":9334,"lig":9335,"Ġrewriting":9336,"Ġsecret":9337,"Ġpostback":9338,"Complete":9339,"ĠScript":9340,"Editor":9341,"ĠĠĠĠĠĠĠĠĠĠĠĠĠĠ":9342,"Ġdash":9343,"Ġangular":9344,"ĠCtrl":9345,"rq":9346,"Ġunw":9347,"Ġdrivers":9348,"marks":9349,"Auto":9350,"Ġcomfort":9351,"Account":9352,"Ġ21":9353,"remo":9354,"youtube":9355,"Ġ/*":9356,"Ġphase":9357,"Ġsemicolon":9358,"/\"":9359,"models":9360,"Ġbroadcast":9361,"difference":9362,"Ġ`$('#":9363,"Ġ(!":9364,"'`.":9365,"Ġimports":9366,"cod":9367,"Ġvice":9368,"loaded":9369,"Send":9370,"Ġ400":9371,"Ġtwitter":9372,"party":9373,"ĠSTL":9374,"Ġplaceholder":9375,"DataSource":9376,"Ġcity":9377,"NA":9378,"Ġpuzz":9379,"Ġapplet":9380,"das":9381,"PointerException":9382,"bugs":9383,"Ġarchive":9384,"ĠFlex":9385,"Bytes":9386,"iterator":9387,"Jan":9388,"ascal":9389,"Ġverbose":9390,"servlet":9391,"ĠJAR":9392,"PM":9393,"Ġreinstall":9394,"mad":9395,"touch":9396,"Ġworkspace":9397,"course":9398,"plicity":9399,"statement":9400,"ĠCON":9401,"ario":9402,"Ġplayed":9403,"Ġwalk":9404,"Ġheads":9405,"validation":9406,"ĠSettings":9407,"Ġsynchronization":9408,"Ġareas":9409,"Consider":9410,"btw":9411,"Ġ`--":9412,"solutely":9413,"ipher":9414,"ordered":9415,"Ġterminology":9416,"Ġdecrypt":9417,"Ġindividually":9418,"ĠAng":9419,"ilo":9420,"ellow":9421,"NE":9422,"ĠTree":9423,"ULT":9424,"Ġsafer":9425,"Ġintr":9426,"Ġpreventing":9427,"Cast":9428,"might":9429,"Ġaff":9430,"Ġedges":9431,"rece":9432,"gorithm":9433,"Ġ01":9434,"available":9435,"Views":9436,"Andre":9437,"typed":9438,"ĠUITableView":9439,"Ġenvironments":9440,"147":9441,"Ġdeb":9442,"Ġrend":9443,"Worked":9444,"Ġgod":9445,"UPDATE":9446,"El":9447,"xhtml":9448,"Ġsyntact":9449,"Ġbracket":9450,"vo":9451,"fold":9452,"Random":9453,"rot":9454,"oun":9455,"appro":9456,"cy":9457,"ĠPOSIX":9458,"NSI":9459,"Ġmathematic":9460,"fan":9461,"verter":9462,"Mag":9463,"ĠPart":9464,"Iter":9465,"ĠWrite":9466,"Ġexistence":9467,"ĠLIKE":9468,"(...)`":9469,"ahoo":9470,"?.":9471,"gresql":9472,"Book":9473,"ppy":9474,"Upload":9475,"ĠFTP":9476,"edited":9477,"Ġhashing":9478,"Ġpartially":9479,"ected":9480,"ardless":9481,"Ġassociation":9482,"initely":9483,"Ġpc":9484,"Ġoracle":9485,"fn":9486,"Ġmismatch":9487,"Ġpredicate":9488,"va":9489,"desktop":9490,"Ġultimately":9491,"aby":9492,"raft":9493,"focus":9494,"ĠTried":9495,"Transaction":9496,"usiness":9497,"ĠInit":9498,"jam":9499,"Ġorders":9500,"Match":9501,"Ġicons":9502,"umar":9503,"TM":9504,"Ġ./":9505,"Ġsooner":9506,"Ġincorp":9507,"Ġinitializer":9508,"ĠOSX":9509,"positories":9510,"las":9511,"elf":9512,"Ġduplicated":9513,"compiled":9514,"callback":9515,"Basically":9516,"Ġoverr":9517,"enge":9518,"Invalid":9519,"Ġtooltip":9520,"Ġbiggest":9521,"ĠDown":9522,"Ġpublished":9523,"Ġpresumably":9524,"she":9525,"plan":9526,"Ġports":9527,"Ġiterators":9528,"handler":9529,"Ġnumpy":9530,"WIW":9531,"jure":9532,"enable":9533,"Shouldn":9534,"Ġbadly":9535,"twitter":9536,"urns":9537,"small":9538,"keep":9539,"Ġ$('":9540,"ico":9541,"Ġmen":9542,"ĠApparently":9543,"ĠPATH":9544,"Ġiterations":9545,"Ġfragments":9546,"Nik":9547,"Ali":9548,"Worker":9549,"ĠPass":9550,"Ġagent":9551,"DBMS":9552,"task":9553,"ĠUTC":9554,"Ġphrase":9555,"+\"":9556,"ĠNE":9557,"Ġquicker":9558,"ĠCre":9559,"Ġresizing":9560,"Ġsequences":9561,"ebu":9562,"raig":9563,"132":9564,"uet":9565,"aling":9566,"cible":9567,"ĠBUT":9568,"Ġbottleneck":9569,"Ġsurprising":9570,"Ġdemonstrates":9571,"IZ":9572,"mpeg":9573,"ESC":9574,"Fin":9575,"Enter":9576,"Ġstating":9577,"Ġsemi":9578,"Ġrecognized":9579,"codeplex":9580,"Didn":9581,"creating":9582,"Rewrite":9583,":'":9584,"Ken":9585,"Encoding":9586,"aded":9587,"thx":9588,"lists":9589,"Ġseed":9590,"Ġenforce":9591,"Ġfundamental":9592,"Notification":9593,"had":9594,"Ġforth":9595,"Ġna":9596,"Ġmaintenance":9597,"Ġfolks":9598,"ding":9599,"Articles":9600,"Ġbeta":9601,"erb":9602,"network":9603,"Ġemployee":9604,"Done":9605,"Ġpul":9606,"asible":9607,"gets":9608,"Byte":9609,"ĠPersonally":9610,"Ġcorresponds":9611,"Ġten":9612,"driver":9613,"Ġbold":9614,"Ġincoming":9615,"ĠJson":9616,"news":9617,"ĠCMS":9618,"ARY":9619,"TextField":9620,"pay":9621,"Ġoverlap":9622,"branch":9623,"Andy":9624,"boss":9625,"ĠJPA":9626,"pressed":9627,"ife":9628,"Ġinvisible":9629,"MI":9630,"Ġclassic":9631,"ĠIntell":9632,"programm":9633,"Ġticket":9634,"Ġexposed":9635,"proc":9636,"ĠBitmap":9637,"(/":9638,"border":9639,"Ġblob":9640,"ĠYES":9641,"Adding":9642,"Ġengines":9643,"ste":9644,"joy":9645,"Ġng":9646,"Ġblind":9647,"Ġthumbn":9648,"Pool":9649,"Ġscaling":9650,"ĠTHANK":9651,"Ġsummary":9652,"Controls":9653,"Ġstatically":9654,"ODE":9655,"INE":9656,"Ġmaintained":9657,"ĠUSB":9658,"navigation":9659,"Ġloader":9660,"Appear":9661,"lol":9662,"Ġconsume":9663,"Ġfunc":9664,"Ġbub":9665,"ĠDNS":9666,"UST":9667,"reset":9668,"Ġ(+":9669,"Ġliked":9670,"servable":9671,"Ġmand":9672,"Ġ\"%":9673,"SC":9674,"angles":9675,"diff":9676,"Ġrouter":9677,"Jeff":9678,"!\"":9679,"800":9680,"eduled":9681,"separ":9682,"Ġgames":9683,"Har":9684,"Ġ''":9685,"Entry":9686,"Pat":9687,"adow":9688,"Ġprivileges":9689,"**](":9690,"Ġhashes":9691,"rient":9692,"Ġ{\"":9693,"ni":9694,"Ġviewing":9695,"ĠCI":9696,"Ġlocate":9697,"Ġdedicated":9698,"aver":9699,"rait":9700,"Ġendpoint":9701,"Ġzer":9702,"Ġconverts":9703,"ILE":9704,"ORE":9705,"UP":9706,"remote":9707,"Div":9708,"exists":9709,"NER":9710,"than":9711,"asm":9712,"Ġ)`":9713,"Ġrevert":9714,"Mc":9715,"ĠResult":9716,"Problem":9717,"ĠinitWith":9718,"Ġclip":9719,"Ġpreserve":9720,"ĠMag":9721,"Ġpersistent":9722,"ppose":9723,"Ġcentral":9724,"bum":9725,"inction":9726,"Ġoverlooked":9727,"Before":9728,"especially":9729,"ĠOpera":9730,"checkbox":9731,"increment":9732,"throw":9733,"ercial":9734,"Py":9735,"berry":9736,"ĠRemove":9737,"Ġmultiply":9738,"arLayout":9739,"perhaps":9740,"icket":9741,"Ġthroughout":9742,"ecode":9743,"ĠLayout":9744,"Ġtargeting":9745,"cookie":9746,"sleep":9747,"codes":9748,"Ġcombobox":9749,"/,":9750,"\">`":9751,"ALSE":9752,"essional":9753,"Ġrenders":9754,"ĠFeel":9755,"consider":9756,"lly":9757,"asper":9758,"pologies":9759,";}":9760,"||":9761,"Ġcapable":9762,"ViewModel":9763,"Ġ/>`":9764,"Ġshadow":9765,"Ġdownvotes":9766,"Ġvir":9767,"Ġpercentage":9768,"ĠTe":9769,"udge":9770,"pson":9771,"lower":9772,"Ġpreferable":9773,"Ġtypedef":9774,"embed":9775,"Ġsudo":9776,"Ġconflicts":9777,"Tool":9778,"Ġroad":9779,"Ya":9780,"Ġbuffers":9781,"SDL":9782,"large":9783,"Ġspr":9784,"tics":9785,"Ġopt":9786,"Ġpause":9787,"Ġgridview":9788,"fx":9789,"Ġtableview":9790,"lay":9791,"boBox":9792,"Ġ\"#":9793,"Ber":9794,"som":9795,"Ġreasoning":9796,"Ġpoorly":9797,"again":9798,"missing":9799,"Ġmid":9800,"Ġcomparisons":9801,"\"><":9802,"Ġchoosing":9803,"Ġclosely":9804,"RT":9805,"Ġhyper":9806,"Ġvertex":9807,"Once":9808,"bootstrap":9809,"ĠCount":9810,"ĠEnter":9811,"owershell":9812,"ssh":9813,"ira":9814,"ĠPay":9815,"ĠWouldn":9816,"Ġwidgets":9817,"Ġrounding":9818,"Ġdomains":9819,"));`":9820,"asty":9821,"Ġdistinction":9822,"fam":9823,"compare":9824,"Ġya":9825,"Ġstructs":9826,"wd":9827,"ĠPeople":9828,"Ġanc":9829,"bled":9830,"Ġoutdated":9831,"ĠĠĠĠĠĠĠĠĠĠĠĠĠĠĠĠĠĠĠĠĠĠĠĠĠĠĠĠĠĠĠĠĠĠĠĠĠĠĠĠĠĠĠĠĠĠĠĠ":9832,"Was":9833,"Media":9834,"give":9835,"Multi":9836,"reet":9837,"ictionaries":9838,"%.":9839,"Ġattacks":9840,"****":9841,"Ġlapt":9842,"Ġcurve":9843,"varchar":9844,"ĠPL":9845,"Ġought":9846,"Ġsubmission":9847,"Graphics":9848,"Fire":9849,"ĠXCode":9850,"Ġincred":9851,"Ġforcing":9852,"Ġlifetime":9853,"DR":9854,"ĠAzure":9855,"supported":9856,"ĠDoing":9857,"Ġreve":9858,"ĠUp":9859,"sr":9860,"Ġprepare":9861,"Ġreceives":9862,"oda":9863,"ĠâĢĺ":9864,"ĠÂ":9865,"Ġcandid":9866,"Ġaffects":9867,"Ġadvantages":9868,"Ġconverter":9869,"demo":9870,"abe":9871,"description":9872,"AST":9873,"development":9874,"rev":9875,"Ġoffline":9876,"Ġappropriately":9877,"ĠTool":9878,"anned":9879,"Ġcycles":9880,"dro":9881,"mv":9882,"quote":9883,"visible":9884,"600":9885,"Ġoutputting":9886,"tc":9887,"ĠGNU":9888,"ĠII":9889,"ĠJquery":9890,"educ":9891,"ĠOkay":9892,"Ġautocomplete":9893,"bytes":9894,"children":9895,"ora":9896,"WebView":9897,"Ġextern":9898,"(*":9899,"Visible":9900,"Ġfashion":9901,"Ġbuggy":9902,"usC":9903,"Print":9904,"Sum":9905,"afe":9906,"Ġ`^":9907,"Ġmerged":9908,"ĠEC":9909,"ĠTypeError":9910,"rices":9911,"Ġagreed":9912,"readable":9913,"Ġadministrator":9914,"Ġprinter":9915,"Ġcomplain":9916,"Ġwording":9917,"istration":9918,"chain":9919,"Ġ*/":9920,"enkins":9921,"Ġ::":9922,"bottom":9923,"Ġrestarted":9924,"Second":9925,"ĠGWT":9926,"ĠSVG":9927,"PDO":9928,"Ind":9929,"rob":9930,"Ġenv":9931,"Ġ(*":9932,"Ġenclo":9933,"alex":9934,"bundle":9935,"hold":9936,"sect":9937,"\"))":9938,"Ġcustomize":9939,"Ġbrings":9940,"bal":9941,"uted":9942,"cluded":9943,"Ġrequiring":9944,"Ġdiscour":9945,"Need":9946,"sur":9947,"Ġmultith":9948,"Ġeye":9949,"Duplicate":9950,"Ġpom":9951,"ĠMD":9952,"proxy":9953,"Ġredirection":9954,"ITH":9955,"?,":9956,"gree":9957,"Ġhighlighting":9958,"Pi":9959,"Ġshame":9960,"Ġautomated":9961,"Ġjq":9962,"Ġrephrase":9963,"()`](":9964,"Ġflexibility":9965,"Ġsimulate":9966,"ĠonClick":9967,"Ġforums":9968,"hoot":9969,"setting":9970,"utter":9971,"STIN":9972,"RowAtIndexPath":9973,"kin":9974,"eness":9975,"USER":9976,"lessly":9977,"ĠEL":9978,"Ġping":9979,"eat":9980,"black":9981,"ĠSecurity":9982,"Ġsadly":9983,"lenium":9984,"editor":9985,"Member":9986,"---":9987,"Big":9988,"Ġdark":9989,"Replace":9990,"ĠMAT":9991,"uel":9992,"1111":9993,"ĠSW":9994,"Ġsnapshot":9995,"Ġsafely":9996,"nom":9997,"Ġ256":9998,"Ġappearing":9999,"generate":10000,"embers":10001,"]*":10002,"isset":10003,"Ġcolle":10004,"Ġsuffice":10005,"ĠAlternatively":10006,"refer":10007,")\\":10008,"Ġmultiplication":10009,"Area":10010,"integer":10011,"567":10012,"Ġreinvent":10013,"Ġtempl":10014,"hg":10015,"Ġcomputed":10016,"manager":10017,"Ġios":10018,"Ġobsc":10019,"ĠInstall":10020,"syntax":10021,"Ġindicated":10022,"PG":10023,"comments":10024,"origin":10025,"vb":10026,"ĠAnt":10027,"Results":10028,"topics":10029,"Ġartif":10030,"front":10031,"Stop":10032,"!).":10033,"generic":10034,"Ġrecre":10035,"ĠForms":10036,"matrix":10037,"Ġage":10038,"ĠKEY":10039,"ĠJan":10040,"Ġoverridden":10041,"(\\":10042,"Font":10043,"Ġcoordinate":10044,"inf":10045,"rit":10046,"trigger":10047,"enames":10048,"Ġsimultaneously":10049,"hs":10050,"Ġtextview":10051,"Ġmonit":10052,"cir":10053,"Device":10054,"Ġillegal":10055,"etic":10056,"Ant":10057,"Aaron":10058,"Ġsprite":10059,"Prot":10060,"Ġequally":10061,"ĠJDBC":10062,"seems":10063,"Ġsuff":10064,"Ġreopen":10065,"Ġgradient":10066,"Ġtitles":10067,"Ġvolume":10068,"Ġhist":10069,"vanced":10070,"ĠPR":10071,"Ġsimplicity":10072,"ĠPNG":10073,"Home":10074,"ama":10075,"ĠSave":10076,"Ġcircular":10077,"irks":10078,"ĠServices":10079,"Ġ*`":10080,"scala":10081,"Ġpresume":10082,"Ġquot":10083,"website":10084,"ĠResponse":10085,"Ġfrequency":10086,"ĠMY":10087,"Sheet":10088,"war":10089,"ĠDirect":10090,"ĠStream":10091,"Ġillustrate":10092,"ĠVAL":10093,"uis":10094,"Simon":10095,"ĠNeed":10096,"ocode":10097,"ĠMedia":10098,"ato":10099,"ĠMoreover":10100,"Ġinvent":10101,"Ġconsideration":10102,"====":10103,"Customer":10104,"typeof":10105,"Ġconcurrency":10106,"arter":10107,"columns":10108,"Game":10109,"Ġtight":10110,"Trace":10111,"STINCT":10112,"solved":10113,"Ġreduced":10114,"_\"":10115,"arc":10116,"apes":10117,"Ġreality":10118,"uz":10119,"ilst":10120,"Ġinterpo":10121,"izers":10122,"PRO":10123,"SA":10124,"Params":10125,"Ġdenied":10126,"Ġwebview":10127,"oman":10128,"Properties":10129,"ĠInterface":10130,"Ġharm":10131,"uent":10132,"Ġaud":10133,"Ġserved":10134,"Ġchoices":10135,"Ġoverloaded":10136,"KB":10137,"ĠContext":10138,"jac":10139,"nb":10140,"Ġhar":10141,"Ġfactors":10142,"coll":10143,"AVA":10144,"igniter":10145,"Ġfan":10146,"Ġblow":10147,"Ġclarifying":10148,"ĠPack":10149,"Resources":10150,"ĠPostgreSQL":10151,"Ġlisteners":10152,"Ġrenamed":10153,"irm":10154,"ĠRest":10155,"solete":10156,"Ġtrees":10157,"Ġfelt":10158,"abs":10159,"105":10160,"Ġsq":10161,"ĠXHTML":10162,"Ġtd":10163,"Ġratio":10164,"configuration":10165,"Ġsynchronized":10166,"much":10167,"Ġcloud":10168,"social":10169,"Ġfeasible":10170,"Ġconstantly":10171,"gt":10172,"Ġmp":10173,"Ġvan":10174,"180":10175,"ĠAccept":10176,"night":10177,"elen":10178,"dependent":10179,"required":10180,"contact":10181,"Ġoffice":10182,"Ġcomfortable":10183,"ĠMax":10184,"SSCCE":10185,"Ġpicking":10186,"ĠAut":10187,"Those":10188,"earn":10189,"=\"@":10190,"Ġessential":10191,"apis":10192,"Password":10193,"Phil":10194,"DATA":10195,"NUM":10196,"axis":10197,"Ġrespective":10198,"}.":10199,"imated":10200,"\";`":10201,"cout":10202,"onclick":10203,"company":10204,"Ġedition":10205,"Ġpreferences":10206,"ĠTextView":10207,"erman":10208,"Ġ\"*":10209,"testing":10210,"Ġfilling":10211,"flo":10212,"Email":10213,"Ġwow":10214,"Support":10215,"Hub":10216,"Ġmvc":10217,"ĠWinForms":10218,"ĠSw":10219,"ĠShouldn":10220,"Accept":10221,"KEY":10222,"Ġ128":10223,"Ġrelate":10224,"Argument":10225,"Return":10226,"ĠCOUNT":10227,"ĠHmm":10228,"ĠTwo":10229,"Ġroles":10230,"Ġmot":10231,"Ġ`<?":10232,"Level":10233,"gan":10234,"Ġconsuming":10235,"ĠOver":10236,"patcher":10237,"Ġrestricted":10238,"ĠRDBMS":10239,"ĠReport":10240,"Ġscene":10241,"ades":10242,"amps":10243,"Ġenh":10244,"voter":10245,"yi":10246,"Delete":10247,"ĠERROR":10248,"Jack":10249,"ĠNHibernate":10250,"2005":10251,"icul":10252,"ĠAdditionally":10253,"uetooth":10254,"Ġsandbox":10255,"ĠItems":10256,"bean":10257,"codeproject":10258,"ires":10259,"grind":10260,"aker":10261,"Bro":10262,"capt":10263,"ĠCH":10264,"Rad":10265,"Ġanimated":10266,"Ptr":10267,"Ġfetched":10268,"ĠAnything":10269,"ampp":10270,"ĠDepending":10271,"Ġsmell":10272,"Ġpersistence":10273,"Ġprecedence":10274,"Ġvars":10275,"Ġpreg":10276,"ĠJIT":10277,"ACK":10278,"rant":10279,"Ġspecifies":10280,"ĠAsyncTask":10281,"Ġinherits":10282,"Ġalphabet":10283,"ĠGUID":10284,"Might":10285,"Ġled":10286,"ĠAngular":10287,"Ġhtaccess":10288,"ĠExpression":10289,"transform":10290,"excel":10291,"acters":10292,"Ġpipeline":10293,"Ġ127":10294,"ĠĠĠĠĠĠĠĠĠĠĠĠĠĠĠ":10295,"Ġinformative":10296,"ĠLocal":10297,"Ġappeared":10298,"agine":10299,"Ġ```":10300,"ĠMVVM":10301,"Ġtied":10302,"\"];":10303,"yper":10304,"arse":10305,"ĠMulti":10306,"Ġversus":10307,"Ġtough":10308,"ĠES":10309,"Folder":10310,"usable":10311,"NI":10312,"Ġff":10313,"cludes":10314,"Ġpulled":10315,"Ġguarantees":10316,"Ġ};":10317,"Ġlaptop":10318,"Ġfake":10319,"strong":10320,"compiler":10321,"pan":10322,"Ġunusual":10323,"Ġperman":10324,"extension":10325,"Ġcommonly":10326,"Ġbreakpoints":10327,"False":10328,"Progress":10329,"Ġconvinced":10330,"Body":10331,"Ġrepresenting":10332,"ae":10333,"unes":10334,"Ġinvocation":10335,"ĠDesign":10336,"Ġprofiling":10337,"Ġclarified":10338,"ĠSH":10339,"Ġoperate":10340,"Ġgather":10341,"Ġlex":10342,"ViewById":10343,"numeric":10344,"Collections":10345,"TS":10346,"rich":10347,"ĠDet":10348,"Ġviable":10349,"])`":10350,"endency":10351,"Ġinteractive":10352,"storage":10353,"avior":10354,"ĠHead":10355,"ugh":10356,"canvas":10357,"Charles":10358,"Ã¶":10359,"iders":10360,"ĠClo":10361,"inds":10362,"Richard":10363,"Ġcommercial":10364,"repeat":10365,"Ġgray":10366,"fd":10367,"sb":10368,"tableView":10369,"ĠUsers":10370,"Ġfinishes":10371,"rolling":10372,"ĠFr":10373,"Example":10374,"Ġdiscussed":10375,"tot":10376,"Ġsides":10377,"192":10378,"ĠDBMS":10379,"Ġta":10380,"mits":10381,"Ġpng":10382,"Ġskills":10383,"Ġforces":10384,"Ġhighlighted":10385,"Ġteacher":10386,"Kar":10387,"ToList":10388,"Ġfocused":10389,"Ġrelies":10390,"Generic":10391,"nos":10392,"reciate":10393,"Ġpen":10394,"Handle":10395,"]);":10396,"Ġet":10397,"Ġconfirmation":10398,"404":10399,"]\"":10400,"Ġsubjective":10401,"internal":10402,"Ġaccuracy":10403,"PR":10404,"Ġintuitive":10405,"Ġzeros":10406,"ĠWikipedia":10407,"Ġcleaned":10408,"Ġbuddy":10409,"Ġ\"`":10410,"cks":10411,"dem":10412,"Decimal":10413,"Ġfoot":10414,"schema":10415,"Ġtranslated":10416,"Security":10417,"Ġwherever":10418,"rek":10419,"artz":10420,"Ġoutcome":10421,"Ġcores":10422,"ASP":10423,"ĠBuffer":10424,".](":10425,"easy":10426,"ĠFurthermore":10427,"ĠTFS":10428,"Ġequation":10429,"Ġpersists":10430,"Vis":10431,"hl":10432,"ĠTwitter":10433,"gif":10434,"Ġtap":10435,"ĠMemory":10436,"Ġpun":10437,"Ġinterpretation":10438,"ĠOutput":10439,"irth":10440,"Ġdiscard":10441,"ometry":10442,"Aut":10443,"Ġmatrices":10444,"Ġsubclasses":10445,"sense":10446,"Ġpicker":10447,"nope":10448,"ĠClear":10449,"proper":10450,"ĠSimply":10451,"Ġtrim":10452,"Ġspecs":10453,"chris":10454,"sync":10455,"SSL":10456,"Ġoccasion":10457,"Ġallocating":10458,"Ġconversions":10459,"Ġsuppress":10460,"javax":10461,"ijn":10462,"Ġenters":10463,"ali":10464,"Ġdiagram":10465,"sey":10466,"Vector":10467,"})":10468,"Ġrespectively":10469,"styles":10470,"=(":10471,"jq":10472,"Ġstructured":10473,"Ġassistance":10474,"trunk":10475,"Ġstdout":10476,"Ġtrade":10477,"ĠTextBox":10478,"Ġbrilliant":10479,"apsed":10480,"107":10481,"nel":10482,"xxxx":10483,"ĠWhether":10484,"Ġcosts":10485,"Ġsemantic":10486,"Ġmailing":10487,"blank":10488,"Ġmillions":10489,"flash":10490,"ett":10491,"Ġstub":10492,"Ġpolling":10493,"Ġbrowse":10494,"nostic":10495,"324":10496,"calcul":10497,"vention":10498,".).":10499,"answers":10500,"refresh":10501,"ĠKind":10502,"heets":10503,"ĠCar":10504,"Ġvolatile":10505,"atalog":10506,"logic":10507,"Ġcentered":10508,"ME":10509,"NotFound":10510,"Ġnotepad":10511,"Ġcapabilities":10512,"301":10513,"ĠANSI":10514,"mov":10515,"Ġintegrated":10516,"Ġconcatenate":10517,"blue":10518,"Ġsuddenly":10519,"Ġtbl":10520,"ĠWho":10521,"HH":10522,"Ident":10523,"processing":10524,"detect":10525,"Ġ`$('":10526,"Ġstreaming":10527,"Ġlowercase":10528,"Ġcheckmark":10529,"toggle":10530,"Ġcontrad":10531,"Ġdeli":10532,"ĠBinding":10533,"Animation":10534,"Ġversa":10535,"advant":10536,"ĠDictionary":10537,"FL":10538,"ï¿":10539,"addy":10540,"pid":10541,"Ġresponsive":10542,"Ġcomplaining":10543,"Ġcarry":10544,"Ġ:=":10545,"Ġnewlines":10546,"oday":10547,"sdl":10548,"ĠMatlab":10549,"np":10550,"ĠTrying":10551,"ĠEl":10552,"within":10553,"ĠAssuming":10554,"Ġali":10555,"etty":10556,"Ġefforts":10557,"quired":10558,"ĠStackoverflow":10559,"bob":10560,"posable":10561,"Ġcheap":10562,"ĠSetting":10563,"Ġ'-":10564,"Ġhardcoded":10565,"Ġtrad":10566,"ĠMr":10567,"())`":10568,"apse":10569,"164":10570,"ĠMobile":10571,"Ġreleases":10572,"ĠToo":10573,"150":10574,"cross":10575,"Ġexperiencing":10576,"anies":10577,"ĠADO":10578,"runtime":10579,"Cheers":10580,"rees":10581,"Ġslashes":10582,"urally":10583,"cos":10584,"pdo":10585,"Ġmanaging":10586,"Ġgap":10587,"Ġaspx":10588,"Ġ[**":10589,"dc":10590,"Ġsuffer":10591,"ĠRich":10592,"Ġschedule":10593,"Drop":10594,"Ġsmallest":10595,"ĠFalse":10596,"ĠProperties":10597,"Ġgallery":10598,"Ġterminated":10599,")[":10600,"Driver":10601,"120":10602,"\"`,":10603,"Ġreplaces":10604,"ĠÃ":10605,"Ġclon":10606,"Mouse":10607,"Selection":10608,"Ġshader":10609,"ingly":10610,"Ġkindly":10611,"Matthew":10612,"Ho":10613,"Ġcomposite":10614,"EG":10615,"ARCHAR":10616,"Ġoverloading":10617,"mi":10618,"Ġupgrading":10619,"LAB":10620,"Convert":10621,"Ġtons":10622,"Ġbullet":10623,"dobe":10624,"phas":10625,"ĠâĢ¦":10626,"native":10627,"Services":10628,"Ġchallenge":10629,"Ġunfortun":10630,"Ġcontinues":10631,"cade":10632,"Ġefficiently":10633,"ï¿½":10634,"=[":10635,"Ġtired":10636,"ĠHTTPS":10637,"Ġexits":10638,"Ġmins":10639,"scripts":10640,"Ġfraction":10641,"numbers":10642,"Ġtrial":10643,"ĠConnection":10644,"Ġfrustrating":10645,"Ġoverwritten":10646,"Ġabort":10647,"ĠAlways":10648,"Excel":10649,"want":10650,"ĠDat":10651,"UES":10652,"Ġrelational":10653,"ĠBuilder":10654,"pk":10655,"ĠInd":10656,"Ġ31":10657,"Ġpromise":10658,"relative":10659,"ĠPO":10660,"Changes":10661,"ĠĠĠĠĠĠĠĠĠĠĠĠĠĠĠĠĠ":10662,"IA":10663,"drag":10664,"herit":10665,"Ġspawn":10666,"offset":10667,"ups":10668,"fall":10669,"LOC":10670,"berg":10671,"Ġdispose":10672,"reshold":10673,"ĠVirtual":10674,"ĠTHE":10675,"Ġchapter":10676,"preg":10677,"Ġrestarting":10678,"etermin":10679,"Ġ});`":10680,"Ġmerging":10681,"Ġmovie":10682,"ĠDrop":10683,"proj":10684,"innerHTML":10685,"shop":10686,"Ġoccurring":10687,"Ġ`~":10688,"Ġthousand":10689,"online":10690,"Ġtricks":10691,"ongs":10692,"Ġjoining":10693,"125":10694,"Finish":10695,"effer":10696,"Ġsetters":10697,"ĠJSFiddle":10698,"Ġsurface":10699,"Ġdamn":10700,"Ġalive":10701,"onday":10702,"Ġblur":10703,"echnically":10704,"Ġthrew":10705,"shift":10706,"Ġdelegates":10707,"ClickListener":10708,"Ġpropag":10709,"ĠObjects":10710,"Ġdetected":10711,"Again":10712,"elled":10713,"general":10714,"Ġlandscape":10715,"ĠEngine":10716,"deep":10717,"ElementsBy":10718,"Ġregexes":10719,"oving":10720,"redu":10721,"ovie":10722,"orgot":10723,"Ġnasty":10724,"ĠsetTimeout":10725,"itting":10726,"Ġreaches":10727,"ĠInvalid":10728,"logs":10729,"Ġdatagrid":10730,"Ġindication":10731,"men":10732,"jsbin":10733,"debugg":10734,"Fair":10735,"Ġpaid":10736,"aid":10737,"tin":10738,"Ġ`//":10739,"Ġcleaning":10740,"Ġexamine":10741,"/$":10742,"threads":10743,"olt":10744,"Ġdisconnect":10745,"onestly":10746,"MutableArray":10747,"Ġcorrupted":10748,"104":10749,"ĠProgram":10750,"assets":10751,"jdbc":10752,"ĠChanging":10753,"Ġmd":10754,"Play":10755,"{}":10756,"Ġyep":10757,"ĠMaps":10758,"Ġhosts":10759,"Ġignores":10760,"Profile":10761,"Ġevaluates":10762,"ĠMAX":10763,"ĠMichael":10764,"pool":10765,"Ġopacity":10766,"Ġ255":10767,"Ġrepositories":10768,"ĠField":10769,"Ġseek":10770,"----------------":10771,"ScrollView":10772,"Ġ26":10773,"Ġunsafe":10774,"aware":10775,"serialize":10776,"OutputStream":10777,"Ġomitted":10778,"Ġeduc":10779,"Ġmassive":10780,"Ġdifficulty":10781,"ORDER":10782,"learn":10783,"setTimeout":10784,"Ġconsequ":10785,"ully":10786,"Utils":10787,"ĠYep":10788,"pair":10789,"Transform":10790,"Ġ`=":10791,"Ġcul":10792,"Ġfilenames":10793,"001":10794,"secut":10795,"Ġrequesting":10796,"Impl":10797,"Ġexplanations":10798,"isense":10799,"Ġowners":10800,"counter":10801,"Ġfreed":10802,"Ġ(.":10803,"ĠUB":10804,"Ġremark":10805,"Ġignor":10806,"OUT":10807,"Ġreasonably":10808,"ursive":10809,"disable":10810,"oul":10811,"who":10812,"Beans":10813,"ĠLEFT":10814,"Ġ++":10815,"Ġincreases":10816,"isn":10817,"cached":10818,"ĠFK":10819,"apid":10820,"Ġsometime":10821,"Ġthanx":10822,"2000":10823,"fail":10824,"ĠGridView":10825,"Ġviolation":10826,"Framework":10827,"Ġll":10828,"Ġnoise":10829,"Resol":10830,"Ġalt":10831,"ĠDLLs":10832,"cb":10833,"atable":10834,"unicode":10835,"comple":10836,"Ġchances":10837,"Ġlistbox":10838,"ĠMike":10839,"Ġguidance":10840,"stal":10841,"Ġhands":10842,",$":10843,"oph":10844,"ĠDR":10845,"ĠLong":10846,"mic":10847,"Ġconsumer":10848,"invalid":10849,"ĠBen":10850,"Ġdrawable":10851,"WOR":10852,"appear":10853,"azor":10854,"comb":10855,"ĠGB":10856,"similar":10857,"Ġpagination":10858,"Ġ['":10859,"ĠONLY":10860,"ĠAM":10861,"Repository":10862,"ĠVari":10863,"Bob":10864,"Ġpreprocessor":10865,"Ġmaintaining":10866,"<>":10867,"Ġmarkers":10868,"intent":10869,"Ġdeletes":10870,"Mart":10871,"Ġcpu":10872,"Ġbinaries":10873,"Ġmodifier":10874,"Ġpositioned":10875,"aka":10876,"macs":10877,"Ġsubdomain":10878,"ĠMongoDB":10879,"/*":10880,"Ġ!!!":10881,"ĠDb":10882,"posal":10883,"ĠEnt":10884,"ceptual":10885,"Conf":10886,"dont":10887,"ĠStrings":10888,"duplicate":10889,"ĠBased":10890,"GE":10891,"Ġnesting":10892,"Ġuniform":10893,"Dest":10894,"ONE":10895,"Ġrecursively":10896,"Assuming":10897,"quick":10898,"Ġlaunched":10899,"emy":10900,"ĠGuess":10901,"Split":10902,"Super":10903,"ostream":10904,"unix":10905,"264":10906,"Ġcollected":10907,"Ġmeantime":10908,"Ġtroubleshoot":10909,"ĠviewDidLoad":10910,"tecode":10911,"Master":10912,"setup":10913,"Ġprotection":10914,"=\"{":10915,"Move":10916,"ĠNotice":10917,"handled":10918,"ucene":10919,"Matrix":10920,"Lib":10921,"Ġâ":10922,"nu":10923,"Ġtalks":10924,"ĠUDP":10925,"ĠDATE":10926,"photo":10927,"arest":10928,"Ġoverwriting":10929,"Qt":10930,"About":10931,"Ġhole":10932,"Ġattr":10933,"Ġphones":10934,"components":10935,"Ġupvotes":10936,"Ġanalog":10937,"Ġxmlns":10938,")),":10939,"Import":10940,"Sharp":10941,"answered":10942,"Ġsqu":10943,"wer":10944,"fade":10945,".$":10946,"Ġnib":10947,"Ġ1024":10948,"`\"":10949,"Ġprogramatically":10950,"soever":10951,"ĠBasic":10952,"ĠFragment":10953,"Ġspin":10954,"ĠIll":10955,"ERROR":10956,"Ġmigrate":10957,"xls":10958,"Cannot":10959,"Common":10960,"Ġfiltered":10961,"Allow":10962,"Ġexchange":10963,"eq":10964,"Ġbeans":10965,"Help":10966,"Orient":10967,"Ġtruth":10968,"Ġsubview":10969,"Ġkilled":10970,"Ġrepeatedly":10971,"trim":10972,"...}":10973,"(.*":10974,"ĠFiddle":10975,"wrapper":10976,"eremy":10977,"Ġ123":10978,"ĠJAX":10979,"ĠNetwork":10980,"ĠAddress":10981,"Ġidiot":10982,"mpt":10983,"Fred":10984,"..)":10985,"Ġ2007":10986,"Ġideally":10987,"rink":10988,"Ġstudents":10989,"Ġsanit":10990,"concat":10991,"Ġbrought":10992,"GROUP":10993,"ĠSort":10994,"ĠJRE":10995,"ECT":10996,"Haha":10997,"Smith":10998,"Section":10999,"386":11000,"Install":11001,"aaaa":11002,"Ġmajority":11003,"Equals":11004,"(*)":11005,"Ġmargins":11006,"\\/":11007,"rvm":11008,"component":11009,"ĠMSVC":11010,"gz":11011,"ĠMatt":11012,"Contract":11013,"Ġtun":11014,"ads":11015,"Ġ\"_":11016,"cale":11017,"ansion":11018,"irror":11019,"MY":11020,"lim":11021,"ĠIIRC":11022,"Ġlikes":11023,"ju":11024,"recogn":11025,"ffee":11026,"Ġviewer":11027,"ĠLogin":11028,"(&":11029,"uting":11030,"Ġcrap":11031,"Ġ...)":11032,"Ġpayment":11033,"Ġsubstitute":11034,"ĠSHA":11035,"ĠOAuth":11036,"Ġevidence":11037,"gmail":11038,"=\"/":11039,"Ġgetters":11040,"Ġrenaming":11041,"Ġboundary":11042,"Ġalright":11043,"Ġglobally":11044,"Ġ\",":11045,"Ġlosing":11046,"Ġwidely":11047,"scanf":11048,"ompson":11049,"Console":11050,"Sign":11051,"Ġhello":11052,"reader":11053,"Ġanti":11054,"usually":11055,"Ġcraw":11056,"Ġrevised":11057,"ĠFOR":11058,"AF":11059,"Ġpropose":11060,"ordon":11061,"Ġcurly":11062,"perfect":11063,"follow":11064,"Managed":11065,"Ġconfigurations":11066,"unno":11067,"ĠDouble":11068,"Ġprime":11069,"ĠWorked":11070,"ĠOffice":11071,"Ruby":11072,"drawable":11073,"pic":11074,"ĠDE":11075,"Ġavoids":11076,"Btw":11077,"Ġsucks":11078,"Ġtriggering":11079,"Ġviewport":11080,"(@":11081,"WP":11082,"attach":11083,"clone":11084,"avily":11085,"Linq":11086,"Ġsatisfy":11087,"Ġwhatsoever":11088,")**":11089,"ball":11090,"Ġlargest":11091,"=%":11092,"Ġaddressed":11093,"Ġasker":11094,"ĠSerial":11095,"Lock":11096,"Ray":11097,"pover":11098,"lambda":11099,"Ġpermut":11100,"disabled":11101,"Float":11102,"contained":11103,"Ġlogger":11104,"Ġyields":11105,"nces":11106,"ĠRuntime":11107,"Ġinc":11108,"Ġhoped":11109,"Ġglance":11110,"++/":11111,"Ġ`$`":11112,"gment":11113,"ĠRow":11114,"Ġstock":11115,"going":11116,"tra":11117,"absolute":11118,"ĠGPS":11119,"TIME":11120,"Ġsequential":11121,"Regarding":11122,"Ġbecame":11123,"Ġderive":11124,"ĠUnder":11125,"Ġridicul":11126,"High":11127,"Comm":11128,"ĠCustomer":11129,"Ġtmp":11130,"timeout":11131,"elenium":11132,"Ġmagn":11133,")+":11134,"ader":11135,"Ġidentifiers":11136,"Ġdeals":11137,"Ġ10000":11138,"Ġans":11139,"Justin":11140,"uity":11141,"Ġdisappears":11142,"Ġacts":11143,"ĠRather":11144,"Ġban":11145,"webkit":11146,"Ġdeserial":11147,"Audio":11148,"ĠDisplay":11149,"Ġbandwidth":11150,"Ġconvers":11151,"anything":11152,"Ġincredibly":11153,"Ġtargets":11154,"nested":11155,"Ġunderstandable":11156,"Ġculture":11157,"ĠPaul":11158,"ĠSuch":11159,"214":11160,"Ġtel":11161,"ĠFort":11162,"(-":11163,"Ġhavent":11164,"Ġforb":11165,"Cocoa":11166,"Ġlatency":11167,"parser":11168,"Ġxpath":11169,"Ġproducing":11170,"Met":11171,"ecycle":11172,"SB":11173,"109":11174,">`?":11175,"Ġconform":11176,"Pop":11177,"xyz":11178,"Ġinjected":11179,"Ġshorten":11180,"Ġdegree":11181,"Felix":11182,"Greg":11183,"gems":11184,"Ġacceler":11185,"neath":11186,"ĠMer":11187,"8080":11188,"Ġrake":11189,"linq":11190,"Ġdigging":11191,"preventDefault":11192,"Ġcomputing":11193,"Ġpremature":11194,"Ctrl":11195,"Ġslides":11196,"Scott":11197,"Plus":11198,"kr":11199,"Ġcards":11200,"usted":11201,"Ġcontexts":11202,"Ġblah":11203,"URE":11204,"Ġrefreshing":11205,"algorithm":11206,"Total":11207,"ubuntu":11208,"bas":11209,"ootstrap":11210,"Ġguidelines":11211,"external":11212,"roduction":11213,"ĠPeter":11214,"Rest":11215,"Ty":11216,"uda":11217,"...).":11218,"PEG":11219,"outer":11220,"Ġnullable":11221,"protected":11222,"expressions":11223,"controls":11224,"gue":11225,"ĠLIMIT":11226,"Ġduplication":11227,"ĠSolution":11228,"213":11229,"audio":11230,"Ġdedu":11231,"Ġinterview":11232,"bench":11233,"Ġcapturing":11234,"sender":11235,"ĠVista":11236,"Warning":11237,"Ġundo":11238,"iration":11239,"ĠHer":11240,"ĠSMTP":11241,"Chart":11242,"cool":11243,"avor":11244,"Though":11245,"commons":11246,"times":11247,"rystal":11248,"(!":11249,"QU":11250,"Ġunused":11251,"matt":11252,"thumb":11253,"uffle":11254,"strip":11255,"Ġsignals":11256,"templates":11257,"olic":11258,"ĠDEL":11259,"Ġlen":11260,"Ġcompressed":11261,"Override":11262,"atomic":11263,"Ġctrl":11264,"Ġwebapp":11265,"unfortunately":11266,"onal":11267,"Ġobsolete":11268,"ĠGame":11269,"score":11270,"Ġauthenticate":11271,"ulates":11272,"IZE":11273,"agh":11274,"irable":11275,"ications":11276,"Ġdictionaries":11277,"fa":11278,"Keep":11279,"!?":11280,")]":11281,"kar":11282,"curial":11283,"slide":11284,"Ġdescriptive":11285,"ĠIL":11286,"adcast":11287,"Ġheavily":11288,"ĠSkeet":11289,"Ġminus":11290,"Ġconvenience":11291,"Ġsubtle":11292,"Ġhides":11293,"arrays":11294,"Ġscreenshots":11295,"Ġtextfield":11296,"Ġ_\"":11297,"unny":11298,"Ġsatisfied":11299,"ĠGenerally":11300,"Er":11301,"ĠParam":11302,"Download":11303,"());`":11304,"ForKey":11305,"ĠMakes":11306,"Ġive":11307,"irk":11308,"mare":11309,"ĠDialog":11310,"2014":11311,"specified":11312,"Ġ2003":11313,"yea":11314,"gc":11315,"Ġunmanaged":11316,"Ġspelling":11317,"ockout":11318,"Ġaward":11319,"ĠNormally":11320,"106":11321,"220":11322,"ĠDirectory":11323,"namespace":11324,"Ġarri":11325,"ano":11326,"()'":11327,"constructor":11328,"launch":11329,"mn":11330,"Ġment":11331,"already":11332,"Ġdeploying":11333,"Ġexported":11334,"Ġvertically":11335,"hope":11336,"mongodb":11337,"Desktop":11338,"rep":11339,"ascade":11340,"buf":11341,"parameters":11342,"Focus":11343,"Ġmount":11344,"ĠWS":11345,"endo":11346,"Ryan":11347,"Ġinfer":11348,"Ġopport":11349,"Ġscreens":11350,"req":11351,"headers":11352,"ĠCy":11353,"Ġphr":11354,"MX":11355,"stuff":11356,"Calendar":11357,"Mad":11358,"Linux":11359,"Ġdemand":11360,"Ġminimize":11361,"existing":11362,"Ġcrypto":11363,"ĠSyntax":11364,"Ġubuntu":11365,"Insert":11366,")..":11367,"yped":11368,"jb":11369,"Ġgoogled":11370,"autom":11371,"Clear":11372,"ffff":11373,"Ġcleanup":11374,"invoke":11375,"Ġspinner":11376,"tabs":11377,"ford":11378,"Temp":11379,"Ġupgraded":11380,"AFAIK":11381,"Scope":11382,"almost":11383,"configure":11384,"Better":11385,"ĠLocation":11386,"Ġvalidating":11387,"Pal":11388,"190":11389,"resize":11390,"Ġmeaningless":11391,"ntil":11392,"Ġrank":11393,"integr":11394,"them":11395,"straint":11396,"++`":11397,"Ġspecifics":11398,"Mer":11399,"Ġdropping":11400,"Layer":11401,"Ġboss":11402,"flush":11403,"Ġcrashed":11404,"Ġreproducible":11405,")-":11406,"Light":11407,"Ġprobability":11408,"Enum":11409,"Ġresponsibility":11410,"iation":11411,"Description":11412,"Ġindependently":11413,"Ġamounts":11414,"Plugin":11415,"secutive":11416,"Dam":11417,"Ġsad":11418,"hom":11419,"Checked":11420,"Ġserves":11421,"Ġsibling":11422,"ticks":11423,"encoded":11424,"incip":11425,"Lat":11426,"Looking":11427,"Bounds":11428,"Ġcave":11429,"ĠRGB":11430,"217":11431,"Ġdownloads":11432,"dropbox":11433,"Ġrounded":11434,"bon":11435,"ĠSL":11436,"role":11437,"ĠProgramming":11438,"Ġconstructs":11439,"ĠScroll":11440,"Studio":11441,"Queryable":11442,"Cursor":11443,"('/":11444,"plist":11445,"Ġgrasp":11446,"Ġstatistics":11447,"Ġ\"...":11448,"PropertyChanged":11449,"ĠWarning":11450,"}/":11451,"gd":11452,"prom":11453,"Ġassertion":11454,"iy":11455,"uf":11456,"Ġreleasing":11457,"Ġlegitimate":11458,"amazon":11459,")$":11460,"Network":11461,"customer":11462,"Ġftp":11463,"utils":11464,"Ġ`$(\"#":11465,"Ġanalyze":11466,"Under":11467,"rap":11468,"'))":11469,"Ġshortly":11470,"zA":11471,"Ġinstantiation":11472,"Boss":11473,"Ġisolate":11474,"ĠFiddler":11475,"Ġdefinitive":11476,"achim":11477,"dates":11478,"intf":11479,"117":11480,"Serializer":11481,"pat":11482,"Ġgmail":11483,"ĠNum":11484,"grees":11485,"Ġfewer":11486,"HttpRequest":11487,"Joh":11488,"Thanx":11489,"Ġunderneath":11490,"Ġmoc":11491,"aphore":11492,"Free":11493,"epage":11494,"BB":11495,"Ġbuffering":11496,"jdk":11497,"Icon":11498,"termin":11499,"Ġpresence":11500,"Ġshutdown":11501,"onload":11502,"ĠAccount":11503,"Ġgems":11504,"ĠManagement":11505,"Ġvisitors":11506,"ftp":11507,"ito":11508,"shall":11509,"Ġease":11510,"ĠWelcome":11511,"ĠĠĠĠĠĠĠĠĠĠĠĠĠĠĠĠĠĠĠĠĠĠĠĠ":11512,"197":11513,"Mis":11514,"Ġdownvoting":11515,"ĠCocoa":11516,"avoid":11517,"Images":11518,"Ġvertices":11519,"}`.":11520,"364":11521,"NC":11522,"235":11523,"Ġ`.`":11524,"Register":11525,"ensity":11526,"Ġcomprehension":11527,"ĠIntel":11528,"Ġfinger":11529,"Day":11530,"BER":11531,"mig":11532,"Ġfavorite":11533,"224":11534,"messages":11535,"erived":11536,"Ġdiffers":11537,"cant":11538,"die":11539,"Ġinflu":11540,"rfc":11541,"ada":11542,"Documents":11543,"finally":11544,"Callback":11545,"ackson":11546,"\"_":11547,"Pattern":11548,"aus":11549,"ih":11550,"Ġculpr":11551,"mg":11552,"currency":11553,"alias":11554,"Ġxsl":11555,"Ġnginx":11556,"Depends":11557,"Redirect":11558,"exact":11559,"Ġwizard":11560,"ĠAdobe":11561,"Agree":11562,"icially":11563,"threaded":11564,"Parameters":11565,"(\"%":11566,"ĠBrowser":11567,"poly":11568,"215":11569,"Ker":11570,"thony":11571,"Ġmappings":11572,"Ġtonight":11573,"chars":11574,"]/":11575,"Ġbacking":11576,"Craig":11577,"ĠEric":11578,"timestamp":11579,"olf":11580,"COUNT":11581,"acking":11582,"Developer":11583,"ĠSSH":11584,"Ġrejected":11585,">/":11586,"Ġborders":11587,"ĠSelected":11588,"Identifier":11589,"Based":11590,"lu":11591,"JP":11592,"mal":11593,"GW":11594,"quotes":11595,"Ġasynchronously":11596,"bc":11597,"Ġbrute":11598,"ereview":11599,"Ġbytecode":11600,"Ġcompact":11601,"Types":11602,"ĠSend":11603,"111":11604,"8859":11605,"Stephen":11606,"Ġcandidate":11607,"istry":11608,"Best":11609,"possibly":11610,"padding":11611,"arounds":11612,"arency":11613,"Ġtemporarily":11614,"Ġreadonly":11615,"ĠSSCCE":11616,"ldoc":11617,"ĠLO":11618,"Ġendian":11619,"Ġroughly":11620,"alax":11621,"Coder":11622,"auses":11623,"warning":11624,"Ġbrand":11625,"digit":11626,"ĠNetbeans":11627,"ruit":11628,"Ġcollisions":11629,"Gen":11630,"ami":11631,")](":11632,"exper":11633,"Ġrecover":11634,"Ġlowest":11635,"Ġobservation":11636,"CAT":11637,"condition":11638,"Guide":11639,"CTION":11640,"HashMap":11641,"Static":11642,"verting":11643,"MENT":11644,"512":11645,"Ġrepet":11646,"Ġincreased":11647,"organ":11648,"Ġawful":11649,"Proxy":11650,"Ġsafari":11651,"Ġ:-/":11652,"extend":11653,"Ġscheduled":11654,"expl":11655,"Ġthru":11656,"astructure":11657,"Ġatleast":11658,"ĠElement":11659,"Dist":11660,"ahead":11661,"Ġearth":11662,"mysite":11663,"Ha":11664,"]{":11665,"ĠHashMap":11666,"Ash":11667,"FFFF":11668,"Ġ`+`":11669,"ĠAD":11670,">::":11671,"cover":11672,"ĠEnc":11673,"shark":11674,"Ġindicating":11675,"Ġscalar":11676,"TEXT":11677,"brew":11678,"ĠMartin":11679,"initialize":11680,"ĠWSDL":11681,"Ġwriter":11682,"rise":11683,"identally":11684,"ĠBr":11685,"ĠReturn":11686,"Ġcompletes":11687,"Submit":11688,"Ġcommitted":11689,"Ġmoder":11690,"Ġcompliant":11691,"ORT":11692,"pip":11693,"Ġ}`.":11694,"Ġpaging":11695,"white":11696,"Ġdescriptor":11697,"original":11698,"Non":11699,"Ġsuffix":11700,"ĠGitHub":11701,"edList":11702,"Ġxaml":11703,"Ġinconsistent":11704,"ĠMarc":11705,"Ġsurrounding":11706,"MQ":11707,"Ġslowly":11708,"ĠSurely":11709,"Given":11710,"ĠIdeally":11711,"Ġfool":11712,"Ġuniversal":11713,"transaction":11714,"Oli":11715,"Ġmodul":11716,"onCreate":11717,"everything":11718,"wpf":11719,"ĠProt":11720,"Ġpops":11721,"helper":11722,"Ã¼":11723,"Ġheld":11724,"HR":11725,"reporting":11726,"logging":11727,"Ġxib":11728,"ĠServlet":11729,"XXX":11730,"Ġmandatory":11731,"Site":11732,"claim":11733,"Ġgrouped":11734,"ĠPrint":11735,"Ġspreadsheet":11736,"%@":11737,"gable":11738,"Orig":11739,"obody":11740,"108":11741,"Ġwasting":11742,"ĠBad":11743,"ĠOption":11744,"ourn":11745,"={":11746,"eside":11747,"expr":11748,"pur":11749,"textarea":11750,"Think":11751,"Side":11752,"Ġgrate":11753,"EDIT":11754,"Raj":11755,"Ġdatatable":11756,"adapter":11757,"Ġextent":11758,"DateFormat":11759,"XY":11760,"assembly":11761,"Clo":11762,"MyClass":11763,"____":11764,"=/":11765,"libraries":11766,"Job":11767,"Ġreliably":11768,"cloud":11769,"ĠEJB":11770,"Ġrich":11771,"Ġemphas":11772,"''":11773,"Ġdoctype":11774,"Ġremotely":11775,"ĠHappy":11776,"Ġencourage":11777,"icle":11778,"Ġ:-).":11779,"sson":11780,"UITableView":11781,"Ġguessed":11782,"Ġbroke":11783,"multip":11784,"Comple":11785,"Ġgdb":11786,"Ġdoubles":11787,"Ġauthorization":11788,"lan":11789,"Ġnowhere":11790,"repository":11791,"astore":11792,"ĠDevelo":11793,"actual":11794,"ĠEmacs":11795,");\"":11796,"Ġobtained":11797,"mapping":11798,"myadmin":11799,"Ġbulk":11800,"downloads":11801,"Ġcolon":11802,"ĠStrange":11803,"/>`":11804,"Ġcum":11805,"goo":11806,"boolean":11807,"persist":11808,"changes":11809,"Ġnumerical":11810,"TT":11811,"perform":11812,"Sk":11813,"dan":11814,"Ġcombining":11815,")!":11816,"Variable":11817,"Ġaccesses":11818,"Ġlaunching":11819,"extra":11820,"sorted":11821,"canner":11822,"Except":11823,"Ġimplied":11824,"destroy":11825,"Ġsole":11826,"ĠNPE":11827,"rics":11828,"ĠParent":11829,"ĠTRUE":11830,"kn":11831,"ping":11832,"Ġtheres":11833,"Ġconstructive":11834,"rent":11835,"Ġscrollview":11836,"plotlib":11837,"ĠLevel":11838,"ĠNotepad":11839,"rench":11840,"ĠCake":11841,"Ġpolymorphism":11842,"eature":11843,"Ġprocessors":11844,"vg":11845,"Ġfaced":11846,"Ġwondered":11847,"Ġconsistency":11848,"Ġ`*`":11849,"Ġtechnologies":11850,"Ġusefull":11851,"jection":11852,"changing":11853,"Ġdots":11854,"Ġjavadoc":11855,"Alert":11856,"Ġpivot":11857,"ĠRA":11858,"vide":11859,"Ġautomate":11860,"writes":11861,"ĠDaniel":11862,"pename":11863,"nown":11864,"Ġsubstitution":11865,"Bind":11866,"Ġdepart":11867,"izz":11868,"Strange":11869,"Ġindicator":11870,"Ġculprit":11871,"nose":11872,"Ġnit":11873,"Ġscenes":11874,"Ġskipped":11875,"Ġboundaries":11876,"ĠHome":11877,"implementation":11878,"Ġtuples":11879,"ova":11880,"ĠAgreed":11881,"Ġ28":11882,"ĠDESC":11883,"Ġenums":11884,"Price":11885,"[[":11886,"Ġfantastic":11887,"estamps":11888,"ĠDAO":11889,"ĠMATLAB":11890,"cart":11891,"Having":11892,"ĠUNION":11893,"Ġstats":11894,"Detail":11895,"kernel":11896,"mmet":11897,"ekka":11898,"yup":11899,"ICE":11900,"yle":11901,"ersist":11902,"Ġapk":11903,"Tables":11904,"Ġdismiss":11905,"transp":11906,"Ġwildcard":11907,"Ġnotified":11908,"alaxy":11909,"ĠPlayer":11910,"Ġexplore":11911,"Ġcaptured":11912,"Mill":11913,"INavigation":11914,"flex":11915,"pixel":11916,"ĠLanguage":11917,"ĠANY":11918,"Ġoptimizing":11919,"ĠUIViewController":11920,"${":11921,"Ġactivate":11922,"Ġnightmare":11923,"ĠVALUES":11924,"Contains":11925,"uint":11926,"Ġsecondary":11927,"hmmm":11928,"nary":11929,"Ġfamily":11930,"Ġmusic":11931,"Ġtriangle":11932,"Ajax":11933,"Converter":11934,"Ġ{`":11935,"Ġheading":11936,"worth":11937,"publish":11938,"days":11939,"wa":11940,"EventListener":11941,"228":11942,"vars":11943,"rif":11944,"orto":11945,"ITE":11946,"ĠNSArray":11947,"Ġreplic":11948,"(\"/":11949,"glob":11950,"Ġtraverse":11951,"omin":11952,"intern":11953,"Ġplans":11954,"threading":11955,"Ġpopulating":11956,"$(":11957,"129":11958,"Ġdistribute":11959,"Wall":11960,".__":11961,"Ġredraw":11962,"ĠComm":11963,"232":11964,"jay":11965,"Ġtack":11966,"Ġrating":11967,"Ġpatience":11968,"Ġplayers":11969,"Ġmathematical":11970,"ĠLa":11971,"137":11972,"cmp":11973,"ĠConvert":11974,"Bit":11975,"Ġextr":11976,"ĠCC":11977,"Ġoptimizer":11978,"Ġpainful":11979,"Ġinsist":11980,"ertainly":11981,"getElementsBy":11982,"djangoproject":11983,"Ġplist":11984,"parsing":11985,"Hint":11986,"Ġrollback":11987,"Validation":11988,"Short":11989,"izontally":11990,"Ġdaily":11991,"=\"\"":11992,"smart":11993,"inv":11994,"enger":11995,"hex":11996,"awesome":11997,"Space":11998,"Ġparents":11999,"Ġserving":12000,"IDE":12001,"called":12002,"Ġquad":12003,"Ġwasnt":12004,"filer":12005,"seconds":12006,"builder":12007,"MIN":12008,"history":12009,"idge":12010,"Ġprone":12011,"2006":12012,"kind":12013,"erik":12014,"119":12015,"Preferences":12016,"Ġapt":12017,"Ġcompanies":12018,"prepare":12019,"ighb":12020,"159":12021,"Ġcake":12022,"sqld":12023,";`,":12024,"Ġmisunderstand":12025,"Ġintervals":12026,"matches":12027,"Resume":12028,"Statement":12029,"Either":12030,"Ġdirectives":12031,"114":12032,"didn":12033,"Ġpane":12034,"Develo":12035,"Pad":12036,"167":12037,"ĠNeither":12038,"116":12039,"OPT":12040,"Ġdescend":12041,"Ġemacs":12042,"Ġswe":12043,"ĠCREATE":12044,";'":12045,"Join":12046,"ĠEOF":12047,"Ġdifferentiate":12048,"Ġjoined":12049,"alpha":12050,"Ġdetermining":12051,"actor":12052,"Ġgoto":12053,"Orientation":12054,"Ġrelates":12055,"'],":12056,"Ġreloading":12057,"DIR":12058,"mu":12059,"vable":12060,"Ġincompatible":12061,"ocs":12062,">)":12063,"Ġonload":12064,"ookies":12065,"accur":12066,"agg":12067,"Ġconsistently":12068,"ĠRegardless":12069,"Steven":12070,"rim":12071,"Ġuppercase":12072,"effernan":12073,"FILES":12074,"haskell":12075,"icating":12076,"Ġ150":12077,"ĠARM":12078,"ĠExcept":12079,"Ġjavax":12080,"Ġcontacts":12081,"Ġ`==`":12082,"uro":12083,"progress":12084,"FAQ":12085,"Ġassociative":12086,"Ġcompet":12087,"ĠSC":12088,"ruption":12089,"$_":12090,"animate":12091,"ĠJames":12092,"Brad":12093,"mill":12094,"depth":12095,"star":12096,"imp":12097,"Ġconsecutive":12098,"Ġphotos":12099,"ĠDataTable":12100,"Kind":12101,"compar":12102,"Ġtraditional":12103,"Ġshoot":12104,"Ġimportantly":12105,"Ġoverrides":12106,"Ġ45":12107,"<=":12108,"outh":12109,"Ġheroku":12110,"ĠTeam":12111,"ACE":12112,"Ġaswell":12113,"onical":12114,"Ġgrey":12115,"Ġske":12116,"Ġfalls":12117,"Ġambiguity":12118,"Ġexplo":12119,"assert":12120,"Ġobserver":12121,"Ġaliases":12122,"decimal":12123,"Ġqualified":12124,"tiny":12125,"Ġbars":12126,"doesnt":12127,"adobe":12128,"Ġcontradict":12129,"ĠSimilar":12130,"Ġasc":12131,"ĠCTE":12132,"derr":12133,"guy":12134,"guides":12135,"Ġ`/`":12136,"ĠResource":12137,"graphy":12138,"Ġrelations":12139,"Ġdeadlock":12140,"Sample":12141,"wx":12142,"Skeet":12143,"serving":12144,"pand":12145,"ipy":12146,"ĠHeroku":12147,"TK":12148,"iPhone":12149,"team":12150,"reverse":12151,"etheless":12152,"Mapper":12153,"Ġwaits":12154,"#//":12155,"slow":12156,"Basic":12157,"Ġ$('.":12158,"authentication":12159,"finish":12160,"Tools":12161,"218":12162,"avis":12163,"Ġhass":12164,"Ġstripped":12165,"ĠPort":12166,"Ġthreshold":12167,"Ġsix":12168,"bies":12169,"Ġclears":12170,"Ġsuperclass":12171,"Brilliant":12172,"given":12173,"Ġlag":12174,"Ġdoable":12175,"Ġkick":12176,"magic":12177,"Ġbeforehand":12178,"indexOf":12179,"Ġgui":12180,"ashes":12181,"CTYPE":12182,"Defaults":12183,"Ġidentified":12184,"Ġ${":12185,"Ġdragging":12186,"Ġcaches":12187,"Ġdisadvant":12188,"ifferent":12189,"Ġalarm":12190,"Ġ$(\"":12191,"letter":12192,"Ġdirections":12193,"Ġfear":12194,"139":12195,",-":12196,"YS":12197,"Ġinstantiating":12198,"equal":12199,"Ġquit":12200,"aud":12201,"setText":12202,"odd":12203,"ĠRFC":12204,"ĠAnyone":12205,"ĠBit":12206,"Ġ.....":12207,"blocking":12208,"Bad":12209,"ĠDraw":12210,"Ġmenus":12211,"ĠINNER":12212,"...]":12213,".<":12214,"isms":12215,"Ġpastebin":12216,"Ġdestruct":12217,".(":12218,"Ġoccup":12219,"čĠčĠč":12220,"Pager":12221,"exus":12222,"Ġsam":12223,"Contents":12224,"shal":12225,"ĠMenu":12226,"estor":12227,"Ġownership":12228,"alth":12229,"Ġbalance":12230,"ĠBoolean":12231,"Ġcomprom":12232,"ĠChild":12233,"Ġclaims":12234,"mean":12235,"hu":12236,"ĠDone":12237,"Neil":12238,"Ġ27":12239,"Ġnewest":12240,"david":12241,"agers":12242,"Ġ(-":12243,"ĠCA":12244,"ĠRewriteRule":12245,"reduce":12246,"Ġdecrease":12247,"ILL":12248,"ĠUndefined":12249,"Ġtouches":12250,"Ġabandon":12251,"Ġbackslashes":12252,"Ian":12253,"PDF":12254,"roph":12255,"Ġextens":12256,"ĠWorld":12257,"cam":12258,"Ġmim":12259,"Setting":12260,"Ġrecompile":12261,"Ġclickable":12262,"isposable":12263,"Ġdaemon":12264,"ĠPattern":12265,"ĠDataContext":12266,"dimensional":12267,"rument":12268,"Ġoverly":12269,"Ġcasts":12270,"ĠWow":12271,"ĠFree":12272,"Ġexpansion":12273,"country":12274,"Author":12275,"Ġbeautiful":12276,"three":12277,"Ġhey":12278,"ĠSuper":12279,"Ġsilently":12280,"Year":12281,"Ġuninitialized":12282,"rather":12283,"Ax":12284,"DataSet":12285,"Ġoriented":12286,"resum":12287,"Ġaspects":12288,"ĠTimer":12289,"Ġpredefined":12290,"Ġdetecting":12291,"Ġwich":12292,"Fields":12293,"Ġcomprehensive":12294,"_*`":12295,"ĠSun":12296,"Ġslice":12297,"respons":12298,"iated":12299,"Ġcomplains":12300,"World":12301,"Ġprox":12302,"Ġcouldnt":12303,"CESS":12304,"impl":12305,"Ġbitwise":12306,"Ġcodebase":12307,"Ġsignatures":12308,"Finally":12309,"agent":12310,"Ġlimiting":12311,"incipal":12312,"parseInt":12313,"Own":12314,"Ġdecides":12315,"amsung":12316,"Ġlogically":12317,"libc":12318,"Ġfallback":12319,"bg":12320,"ĠVERY":12321,"Rep":12322,"124":12323,"oped":12324,"Cells":12325,"Ġcertificates":12326,"zo":12327,"Unknown":12328,"UDA":12329,".\"*":12330,"Ġhmm":12331,"Ġpolygon":12332,"arguments":12333,"umped":12334,"ĠQuick":12335,"Ġoffered":12336,"route":12337,"stable":12338,"Ġdeletion":12339,"Ġdriving":12340,"Ġcontr":12341,"Ġoverlapping":12342,"Ġconversation":12343,"ĠStringBuilder":12344,"ĠHard":12345,"Ġscheduler":12346,"Design":12347,"edantic":12348,"iser":12349,"alak":12350,"OMG":12351,"Ġtheoretically":12352,"]?":12353,"});":12354,"numpy":12355,"Ġspending":12356,"327":12357,"Ġunfortunate":12358,"simpl":12359,"314":12360,"ĠAppreciate":12361,"Ġsimilarly":12362,"yet":12363,"Ġswitches":12364,"fit":12365,"ening":12366,"prite":12367,"Ang":12368,"Ġqueues":12369,"Chrome":12370,"ĠImagine":12371,"Video":12372,"Ġris":12373,"Ġlogo":12374,"ĠRelease":12375,"250":12376,"saf":12377,"aws":12378,"Ġextracted":12379,"ĠAmazon":12380,"ĠWordpress":12381,"cn":12382,"Ġwarn":12383,"CREATE":12384,"Sur":12385,"WE":12386,"ertific":12387,"aked":12388,"Ġforeground":12389,"volatile":12390,"227":12391,"ords":12392,"306":12393,"Kerrek":12394,"AndroidRuntime":12395,"Ġhangs":12396,"entities":12397,"Ġquoting":12398,"iw":12399,"*/":12400,"ĠTHEN":12401,"Ġwasted":12402,"ForRowAtIndexPath":12403,"iro":12404,"Ġdear":12405,"esign":12406,"Ġlucky":12407,"';`":12408,"ĠEditor":12409,"eas":12410,"Ġseparation":12411,"ulations":12412,"126":12413,"]=":12414,"Dat":12415,"Ġheart":12416,"Ġslo":12417,"ryan":12418,"accepted":12419,"swap":12420,"kh":12421,"Ġ`</":12422,"Ġincrementing":12423,"Ġlogout":12424,"Shar":12425,"ĠNaN":12426,"Ġexplode":12427,"Ġinstantly":12428,"Ġattaching":12429,"Ġrethink":12430,"Ġvulnerable":12431,"Ġcontiguous":12432,"Ġunchecked":12433,"Ġenabling":12434,"Ġenfor":12435,"Ġasset":12436,"Ġtypos":12437,"ypically":12438,"Ġordinary":12439,"Ġgrateful":12440,"Ġtends":12441,"Bag":12442,"ordion":12443,"Ġsuspected":12444,"ĠÐ":12445,"Ġauthenticated":12446,"jon":12447,"Ġhood":12448,"Iterator":12449,"ĠIntelli":12450,"ĠSign":12451,"injection":12452,"tm":12453,"rect":12454,"ĠSelenium":12455,"Ġternary":12456,"ĠWM":12457,"Ġmatlab":12458,"Ġflip":12459,"Ġsigning":12460,"declared":12461,"Ġcontrolled":12462,"ĠtableView":12463,"ĠRelative":12464,"ĠLD":12465,"ĠOpenCV":12466,"Ġextracting":12467,"perf":12468,"']['":12469,"(.":12470,"layer":12471,"Ġworkbook":12472,"ĠDELETE":12473,"Attributes":12474,"Ġobscure":12475,"urt":12476,"Ġsales":12477,"cursor":12478,"Ġgist":12479,"thanx":12480,"Ġrude":12481,"Ġeditable":12482,"ĠĠĠĠĠĠĠĠĠĠĠĠĠĠĠĠĠĠĠĠĠĠĠĠĠĠĠĠĠĠĠĠĠĠĠĠĠĠĠĠĠĠĠĠĠĠĠĠĠĠĠĠĠĠĠĠĠĠĠĠĠĠĠĠ":12483,"sock":12484,"ĠNope":12485,"rade":12486,"Ġnonsense":12487,"xaml":12488,"swing":12489,"Ġoutline":12490,"')`.":12491,"Ġintroducing":12492,"229":12493,"Ġintersection":12494,"ĠHi":12495,"Ġtextboxes":12496,"wall":12497,"Offset":12498,"Ġpan":12499,"calling":12500,"Ġidiom":12501,"Route":12502,"urer":12503,"Ġprojection":12504,"Ġconstructing":12505,"Ġincorporate":12506,"ivation":12507,"Ġenjoy":12508,"Ġheadache":12509,"'>":12510,"postgresql":12511,"asking":12512,"Ġcomposition":12513,"Classes":12514,"bd":12515,"Ġclang":12516,"Release":12517,"Ġconsists":12518,"sam":12519,"andy":12520,"ĠFull":12521,"Ġ`,":12522,"Ġspacing":12523,"ustration":12524,"ĠSIG":12525,"Ġobserve":12526,"READ":12527,"Place":12528,"Ware":12529,"httpd":12530,"elist":12531,"Ġsidebar":12532,"Ġyea":12533,"pull":12534,"Ġproviders":12535,"made":12536,"ĠDrupal":12537,"Ġcorners":12538,"listview":12539,")))":12540,"Ver":12541,"oy":12542,"Ġns":12543,"Contact":12544,"matlab":12545,"MVC":12546,"ĠMust":12547,"ibm":12548,"ĠObj":12549,"++?":12550,"beit":12551,"ĠSomeone":12552,"Ġwouldnt":12553,"ief":12554,"DavidH":12555,"Ġquantity":12556,"Ġopportunity":12557,"Ġtile":12558,"ĠTarget":12559,"ĠEND":12560,"166":12561,"locale":12562,"named":12563,"ĠInno":12564,"radio":12565,"Abstract":12566,"Ġnumerous":12567,"`<":12568,"Ġstum":12569,"KS":12570,"Ġgesture":12571,"tube":12572,"Keys":12573,"ĠActiveRecord":12574,"Ġautorelease":12575,"Hard":12576,"uate":12577,"ĠConfiguration":12578,"contin":12579,"Ġtransport":12580,"Ġmovement":12581,"orthand":12582,"Ġrecip":12583,"Ġfavour":12584,"flag":12585,"Ġattachment":12586,"edy":12587,"ĠYet":12588,"oriented":12589,"olicy":12590,"liter":12591,"Ġcal":12592,"roke":12593,"ĠWorking":12594,"synchron":12595,"lite":12596,"Javascript":12597,"Ġwidths":12598,"ĠSecondly":12599,"provider":12600,"Ġimprovements":12601,"plusplus":12602,"categories":12603,"tbl":12604,"oof":12605,"()](":12606,"ufact":12607,"160":12608,"typedef":12609,"Ġcapacity":12610,"symbol":12611,"Ġhacks":12612,"Ġsurprise":12613,"Pay":12614,"JonSkeet":12615,";)":12616,"Ġlocalized":12617,"Ġexcuse":12618,"Zone":12619,"103":12620,"\"));":12621,"ĠColor":12622,"Ġoperand":12623,"134":12624,"rock":12625,"Arrays":12626,"Ġresized":12627,"Ġprofessional":12628,"ĠSharePoint":12629,"Ġsd":12630,"ĠMyClass":12631,"Holder":12632,"()->":12633,"aaa":12634,"Um":12635,"puter":12636,"Ġobserved":12637,"&`":12638,"UIView":12639,"Ġtaught":12640,"Ġdesire":12641,"resumably":12642,"%,":12643,"ssentially":12644,"Ġhimself":12645,"ISTS":12646,"Ġgraphs":12647,"highlight":12648,"LES":12649,"Ġreducing":12650,"Ġaltered":12651,"ĠNon":12652,"Ġdt":12653,"MG":12654,"haha":12655,"linked":12656,"ĠLo":12657,"ĠGMT":12658,"Ġgrant":12659,"))`.":12660,"Ġuri":12661,"Ġviewed":12662,"Bug":12663,"Ġrunat":12664,"FileName":12665,"Ġship":12666,"ĠBootstrap":12667,"Ġfight":12668,"()).":12669,"Ġmagically":12670,"Ġfatal":12671,"Ġrefreshed":12672,"BL":12673,"modal":12674,"Ġfish":12675,"Ġprotot":12676,"Ġbookmark":12677,"Ġthumbnail":12678,"Ġabc":12679,"Ġgeo":12680,"notes":12681,"Ġscrap":12682,"Conceptual":12683,"Ġwikipedia":12684,"Aha":12685,"ĠMagento":12686,"wide":12687,"soap":12688,"closed":12689,"cppreference":12690,"Ġembar":12691,"Ġportrait":12692,"Launch":12693,"esit":12694,"PRE":12695,"Proc":12696,"Ġhassle":12697,"223":12698,"Ġ101":12699,"Oracle":12700,"Ġsized":12701,"Clock":12702,"Ġformal":12703,"Modal":12704,"Ġdesigning":12705,"coder":12706,"ounce":12707,"Ġenumerate":12708,"NotFoundException":12709,"ĠLinearLayout":12710,"Ġclauses":12711,"Frank":12712,"Receiver":12713,"Ġinvolving":12714,"Bill":12715,"etary":12716,"Ġviewmodel":12717,"ortoise":12718,"tar":12719,"Ġvariation":12720,"Ġtimestamps":12721,"reload":12722,"office":12723,"ĠFrame":12724,"idy":12725,"ĠGlobal":12726,"SW":12727,"oz":12728,"idi":12729,"Ġsyml":12730,"techn":12731,"Ġctor":12732,"ĠSir":12733,"115":12734,"tx":12735,"Ġalerts":12736,"Ġnope":12737,"Ġraises":12738,"Ġslot":12739,"Define":12740,"ROOT":12741,"():":12742,"ĠPE":12743,"Ġwraps":12744,"supp":12745,"interesting":12746,"extern":12747,"RENT":12748,"Ġnetbeans":12749,"Initial":12750,"Ġadopt":12751,"Forums":12752,"\"\"":12753,"Eclipse":12754,"ĠCLI":12755,"Tony":12756,"dog":12757,"Ġtraceback":12758,"Ġdatepicker":12759,"Ġglobals":12760,"ĠGuide":12761,"Center":12762,"Ġcollector":12763,"Ġassociate":12764,"Ġcapability":12765,"Jay":12766,"ften":12767,"Ġpurchase":12768,"Card":12769,"ĠCell":12770,"ĠSite":12771,"extensions":12772,"ĠShared":12773,"118":12774,"ĠUIImage":12775,"ĠSingleton":12776,"seq":12777,"1024":12778,"Ġ),":12779,"ĠAndrew":12780,"ĠSpecifically":12781,"heritance":12782,"Ġ{{":12783,"versal":12784,"Ġls":12785,"ĠHEAD":12786,"axon":12787,"STRING":12788,"ĠImport":12789,"ĠWait":12790,"Ġradius":12791,"Ġtrusted":12792,"348":12793,"Fetch":12794,"charts":12795,"_`":12796,"uling":12797,"225":12798,"Ġrewritten":12799,"prefix":12800,"Ġestablished":12801,"extract":12802,"Ġscoped":12803,"Ġdecoding":12804,"226":12805,"ĠBackground":12806,"Employee":12807,"Ġyoutube":12808,"amount":12809,"BalusC":12810,"Ġ'#":12811,"WriteLine":12812,"zing":12813,"zend":12814,"community":12815,"Ġauthors":12816,"Ġterribly":12817,"Ġblame":12818,"Ġexclusive":12819,"Named":12820,"Ġregistering":12821,"Ġhacky":12822,"ĠCanvas":12823,"Ġintegrity":12824,"bf":12825,"ĠRad":12826,"ĠCalling":12827,"Ġprepend":12828,"iq":12829,"ALLY":12830,"Ġdegrees":12831,"substring":12832,"theme":12833,"_*":12834,"207":12835,"allowed":12836,"ĠNevertheless":12837,"ennis":12838,"alog":12839,"\")`.":12840,"Ġascii":12841,"hd":12842,"ĠWhatever":12843,"Ġdownside":12844,"Getting":12845,"Ġwhilst":12846,"Apple":12847,"=\\\"":12848,"Shared":12849,"Ġindirect":12850,"Ġ70":12851,"avity":12852,"house":12853,"Ġinsp":12854,"ĠRandom":12855,"Ġhorizontally":12856,"emacs":12857,"ĠSUM":12858,"ĠLisp":12859,"addr":12860,"Ġinvalidate":12861,"Ġvariations":12862,"tick":12863,"outside":12864,"soc":12865,"astian":12866,"Month":12867,"Ġevaluating":12868,"Ġaffecting":12869,"ĠEditText":12870,"ancing":12871,"Ð¾":12872,"Ġdupe":12873,"xs":12874,"Ġinspector":12875,"čĠčĠčĠĠ":12876,"LR":12877,"mask":12878,"htdocs":12879,"Ġbtn":12880,"ĠWAR":12881,"Ġmagnitude":12882,"VB":12883,"ĠWITH":12884,"601":12885,"Ġwhichever":12886,"ĠLua":12887,"features":12888,"escap":12889,"Ġpic":12890,"adays":12891,"Thompson":12892,"Ġ<>":12893,"Ġkilling":12894,"nick":12895,"Ġpare":12896,"FWIW":12897,"OUR":12898,"Ġinternals":12899,"Ġdlls":12900,"factory":12901,"ynamically":12902,"howto":12903,"Ġtiles":12904,"Ġ600":12905,"ople":12906,"ĠJBoss":12907,"ĠSupport":12908,"ĠFollow":12909,"Inv":12910,"};":12911,"imals":12912,"Student":12913,"149":12914,"Ġpractically":12915,"Agent":12916,"Columns":12917,"Ġobservable":12918,"Dear":12919,"Ġcout":12920,"Ġswf":12921,"Ġenhance":12922,"Ġ;-":12923,"LIB":12924,"members":12925,"frastructure":12926,"Av":12927,"Ġspotted":12928,"TYPE":12929,"jpeg":12930,"ĠUnit":12931,"Ġ<%=":12932,"Ġflawed":12933,"Ġridiculous":12934,"cake":12935,"ĠReplace":12936,"Ġtraining":12937,"ĠByte":12938,"Ġwonderful":12939,"/)?":12940,"ĠLabel":12941,"Arch":12942,"accessible":12943,"stdout":12944,"Uri":12945,"Ġhooks":12946,"ĠobjectAtIndex":12947,"Apparently":12948,"Ġassembler":12949,"Ġgotta":12950,"partial":12951,"Ġscala":12952,"lector":12953,"MO":12954,"oon":12955,"wind":12956,"ĠLL":12957,"guard":12958,"Package":12959,"Ġmakefile":12960,"iOS":12961,"Ġmembership":12962,"ĠTag":12963,"Ġtransparency":12964,"Ġlie":12965,"320":12966,"Pixel":12967,"Ġhelpers":12968,"ients":12969,"ĠUNIX":12970,"Ġmongo":12971,"ĠHello":12972,"ĠFix":12973,"157":12974,"Ġforgetting":12975,"ĠLOL":12976,"Ġthoroughly":12977,"ĠBuffered":12978,"Ġrecording":12979,"listener":12980,"Ġadvert":12981,"aik":12982,"Ġtablet":12983,"ĠImageView":12984,"Ġdiagnose":12985,"Ġcircles":12986,"ĠMAC":12987,"technet":12988,"Ġbegins":12989,"essor":12990,"Ġdecomp":12991,"agma":12992,"Joachim":12993,"Ġdelayed":12994,"Ġenumeration":12995,"Give":12996,"Ġadjac":12997,"ĠDomain":12998,"ĠWordPress":12999,"Ġvalidated":13000,"picture":13001,"uru":13002,"Ġlearnt":13003,"quence":13004,"Ġmono":13005,"Ġbeside":13006,"Ġreplay":13007,"ordova":13008,"Ġsubviews":13009,"ĠGetting":13010,"hhh":13011,"associ":13012,"cuts":13013,"ĠFormat":13014,"hy":13015,"177":13016,"ority":13017,"Kon":13018,"Ġram":13019,"apers":13020,"Ġshapes":13021,"zed":13022,"bt":13023,"Hope":13024,"ÃŃ":13025,"che":13026,"Ġbrowsing":13027,"desc":13028,"Ġoverloads":13029,"ambdas":13030,"drive":13031,"writer":13032,"Ġinverse":13033,"Ġteaching":13034,"Ġoct":13035,"ĠPRO":13036,"Git":13037,"complex":13038,"Ġconfident":13039,"Dim":13040,"Ġmanipulating":13041,"Ġwinforms":13042,"marc":13043,"=>\"":13044,"timer":13045,"tomcat":13046,"erning":13047,"ĠMouse":13048,"shadow":13049,"Cookie":13050,"Ġattacker":13051,"hint":13052,"channel":13053,"Ġ29":13054,"ĠLat":13055,"Ġbucket":13056,"trivial":13057,"Ġmalicious":13058,"Moo":13059,"'`,":13060,"ĠTemplate":13061,"ĠDynamic":13062,"ruments":13063,"interpret":13064,"ltim":13065,"these":13066,"ĠBro":13067,"recursive":13068,"Ġunreadable":13069,"Ġtopics":13070,"Ġclosures":13071,"green":13072,"nik":13073,"Ġlifecycle":13074,"Bound":13075,"ĠPretty":13076,"Ġfidd":13077,"-->":13078,"!.":13079,"Ġswapping":13080,"Ġsegfault":13081,"Ġlightweight":13082,"Ġaddressing":13083,"Ġrecommendations":13084,"esse":13085,"ĠDTO":13086,"Assembly":13087,"%`":13088,"-`":13089,"power":13090,"heroku":13091,"\"]`":13092,"ĠDave":13093,"calendar":13094,"Ġ',":13095,"ASCII":13096,"uget":13097,"Ġassignments":13098,"slider":13099,"Ġsane":13100,"Ġreboot":13101,"Programmer":13102,"ipt":13103,"Ġsuite":13104,"Ġawkward":13105,"ĠHAV":13106,"argument":13107,"ĠRegards":13108,"Ġadjusted":13109,"ocument":13110,"embership":13111,"ĠJSONP":13112,"Ġpanels":13113,"pure":13114,"checking":13115,"Fil":13116,"Ġinheriting":13117,"Ġnaive":13118,"friendly":13119,"Ġunaware":13120,"ĠSteve":13121,"384":13122,"Ġinterf":13123,"Ġbecoming":13124,"ĠLogCat":13125,"Ġvirt":13126,"ĠEE":13127,"Ġweekend":13128,"andra":13129,"acker":13130,"Ġdeserve":13131,"started":13132,"people":13133,"ĠOur":13134,"delay":13135,"ĠDISTINCT":13136,"adig":13137,"phan":13138,"Ġarraylist":13139,"169":13140,"graphics":13141,"ĠNetBeans":13142,"209":13143,"Ġlives":13144,"Sn":13145,"phere":13146,"ĠInsert":13147,"Ġ<!":13148,"Ġshrink":13149,"194":13150,"185":13151,"Ġdetermines":13152,"509":13153,"argv":13154,"structure":13155,"ĠSuppose":13156,"\"+":13157,"Anyway":13158,"Ġdd":13159,"Ġbeginners":13160,"batch":13161,"Ġformed":13162,"Ġsticking":13163,"xcode":13164,"stud":13165,"Ġ*(":13166,"Ġhouse":13167,"Ġlengths":13168,"Ġcv":13169,"Ġofficially":13170,"DEL":13171,"Ġ42":13172,"dispatch":13173,"Lines":13174,"san":13175,"Ġexhib":13176,"Ġtouched":13177,"rain":13178,"377":13179,"Ġps":13180,"xpath":13181,"Ġsing":13182,"abbit":13183,"Ġ2009":13184,"Ġlacking":13185,"neg":13186,"Ġisolated":13187,"hot":13188,"ald":13189,"ĠJPanel":13190,"ilation":13191,"ĠCategory":13192,"Ġsynchronize":13193,"oris":13194,"Ġprop":13195,"controllers":13196,"Ġverification":13197,"ĠDelete":13198,"ĠListBox":13199,"ĠUrl":13200,"ĠJoomla":13201,"subscri":13202,"Direct":13203,"oC":13204,"graphic":13205,"lining":13206,"VO":13207,"Ġworkarounds":13208,"qual":13209,"ĠParse":13210,"JECT":13211,"onus":13212,"136":13213,"Ġcorrecting":13214,"Ġbuiltin":13215,"Ġvariety":13216,"Ġslic":13217,"ĠVector":13218,"Role":13219,"Ġful":13220,"Ġappearance":13221,"ousel":13222,"springframework":13223,"nnnn":13224,"uu":13225,"White":13226,"Ġdecorator":13227,"ola":13228,"Ġcritic":13229,"Ġsitting":13230,"Rot":13231,"Remember":13232,"FTER":13233,"Ġprimitives":13234,"codereview":13235,"Dig":13236,"Ġstdin":13237,"aspnet":13238,"ROW":13239,"Ġpending":13240,"Ġquestioner":13241,"187":13242,"Ġpayload":13243,"frames":13244,"010":13245,"AK":13246,"Ġspell":13247,"ermin":13248,"machine":13249,"Ġ`&`":13250,"speed":13251,"Ġmad":13252,"Ġprofiles":13253,"ĠPanel":13254,"URLConnection":13255,"Ġini":13256,"ĠCP":13257,"Ġsparse":13258,"pretty":13259,"ĠDataGrid":13260,"Ġworrying":13261,"bra":13262,"cm":13263,"lot":13264,"olas":13265,"ĠJAVA":13266,"Ġsho":13267,"UIImage":13268,"llib":13269,"ury":13270,"ĠCAN":13271,"Fox":13272,"enabled":13273,"144":13274,"Ġpg":13275,"ĠHigh":13276,"ĠKe":13277,"Ġsugar":13278,"alytics":13279,"ĠEmployee":13280,"Ġconflicting":13281,":\\\\":13282,"oryboard":13283,"ynchron":13284,"Ġdevs":13285,"Ġair":13286,"Ġprovision":13287,"307":13288,"htable":13289,"Ġshorthand":13290,"ĠRout":13291,"Ġuploads":13292,"Comment":13293,"ĠSMS":13294,"Pos":13295,"ĠRunning":13296,"Ġprimarily":13297,"Enumerable":13298,"ĠTell":13299,"spl":13300,"Ġnulls":13301,"dropdown":13302,"Ġhanging":13303,"jamin":13304,"ĠMaster":13305,"arre":13306,"Receive":13307,"Ret":13308,"ĠSD":13309,"ĠBL":13310,"apk":13311,"ĠJFrame":13312,"Ġ`...":13313,"Ġmodes":13314,"ban":13315,"ooo":13316,"007":13317,"SSQL":13318,"Ignore":13319,"ĠViews":13320,"VE":13321,"subject":13322,"svg":13323,"Ġreused":13324,"inx":13325,"Ġhostname":13326,"+'":13327,"SM":13328,"Quick":13329,"_(":13330,"predict":13331,"idding":13332,"consum":13333,"Ġbubble":13334,"ĠFALSE":13335,"Ġeditors":13336,"buttons":13337,"lazy":13338,"ĠGAE":13339,"~/":13340,"erce":13341,"Binary":13342,"Ġhacking":13343,"limited":13344,"oseph":13345,"Ġdebugged":13346,"ContentView":13347,"[@":13348,"ĠGem":13349,"Capt":13350,"ĠODBC":13351,"Way":13352,"Ġreversed":13353,"Hot":13354,"Applications":13355,"aque":13356,"Ġaccurately":13357,"hak":13358,"Ġbringing":13359,"Ġmonitoring":13360,"arth":13361,"Ġdiscouraged":13362,"138":13363,"ĠIter":13364,"Fore":13365,"Ġrenderer":13366,"ica":13367,"Ġvast":13368,"ourses":13369,"Ġ%{":13370,"Follow":13371,"ĠUnable":13372,"ssue":13373,"Ġcoz":13374,"Black":13375,"Ġcomplement":13376,"Authentication":13377,"Zip":13378,"teness":13379,"Ġembedding":13380,"AAAA":13381,"Ġnaturally":13382,"Ġclutter":13383,"ĠHis":13384,"([^":13385,"`!":13386,"Ã¡":13387,"Ġ;).":13388,"Identity":13389,"Too":13390,"ĠCT":13391,"firefox":13392,"nbsp":13393,"OutOf":13394,"âĢĭâĢĭ":13395,"tuple":13396,"Ġaccum":13397,"189":13398,"NaN":13399,"Equal":13400,"recognized":13401,"stant":13402,"notify":13403,"Sometimes":13404,"previous":13405,"Ġsegments":13406,"Ġincremented":13407,"xampp":13408,"Ġlicen":13409,"Ġnotion":13410,"sizing":13411,"ctl":13412,"Ġnovice":13413,"Environment":13414,"cause":13415,"Ġlacks":13416,"Ġrolling":13417,"ĠPostgres":13418,"vance":13419,"Ġ`=`":13420,"Ġunwanted":13421,"Strings":13422,"\"].":13423,"Ġwx":13424,"ĠOrig":13425,"Ġoccurrence":13426,"jqueryui":13427,"Ġechoing":13428,"paint":13429,"NSArray":13430,"CI":13431,"icky":13432,"%;":13433,"ashing":13434,"Ġcompares":13435,"Sir":13436,"urist":13437,")\".":13438,"Ġ);`":13439,"Ġovercome":13440,"ĠCommon":13441,"angling":13442,"Ð°":13443,"ĠCUDA":13444,"acked":13445,"Always":13446,"Ġ199":13447,"Ġintegral":13448,"Ġtheoretical":13449,"Ġapparent":13450,"inn":13451,"Ġcf":13452,"Ġconnects":13453,"Vert":13454,"Nevermind":13455,"Ġphpmyadmin":13456,"TRUE":13457,"Os":13458,"Ġdozen":13459,"Ġdisposed":13460,"OrDefault":13461,"Spe":13462,"Ġdefe":13463,"ĠMySql":13464,"ĠUserControl":13465,"expand":13466,"Seb":13467,"Ġ`|":13468,"ĠStop":13469,"ĠLOT":13470,"Ġpx":13471,"slice":13472,"CA":13473,"ĠEnum":13474,"ĠKnow":13475,"CLI":13476,"(\".":13477,"aris":13478,"Ġretained":13479,"collections":13480,"Uncaught":13481,"Ġignorance":13482,"blocks":13483,"characters":13484,"accepting":13485,"Ġisolation":13486,"Ġscrewed":13487,"Include":13488,"solve":13489,"140":13490,"ĠRegEx":13491,"ĠArrays":13492,"Ġexpressed":13493,"EST":13494,"Ġidle":13495,"Ġ5000":13496,"Ġsubclassing":13497,"!=":13498,"Faces":13499,"mutable":13500,"Ġwatching":13501,"ANG":13502,"Ġbackticks":13503,"WH":13504,"Ġ48":13505,"Ġsentences":13506,"readed":13507,"Ġpipes":13508,"encrypt":13509,"goto":13510,"Ġteh":13511,"Ġprotocols":13512,"Ġ:))":13513,"179":13514,"Ġrand":13515,"Ġactivated":13516,"ĠMode":13517,"ignment":13518,"totime":13519,"ĠCompar":13520,"marking":13521,"codepad":13522,"EventArgs":13523,"Ġgrows":13524,"lor":13525,"Ġwrappers":13526,"oj":13527,"pot":13528,"worker":13529,"imately":13530,"ĠThought":13531,"130":13532,"variant":13533,"talk":13534,"atly":13535,"strlen":13536,"NullPointerException":13537,"Ġ:(.":13538,"unately":13539,"holders":13540,"ĠVim":13541,"Beh":13542,"Dr":13543,"Pause":13544,"ooper":13545,"ĠLearn":13546,"constant":13547,"Martijn":13548,"Ġhyp":13549,"Ġvisited":13550,"sched":13551,"Ġinstalls":13552,"Ġell":13553,"ĠGoog":13554,"City":13555,"Ġ\"'":13556,"Dispose":13557,"Everything":13558,"Mapping":13559,"irl":13560,"Ġcares":13561,"Watch":13562,"NF":13563,"Ġrunnable":13564,"WEB":13565,"isted":13566,"Ġpleasure":13567,"Wrapper":13568,"ilerplate":13569,"Ġpaying":13570,"Ġpropri":13571,"Ġunpack":13572,"passing":13573,"Pretty":13574,"ture":13575,"Ġenlight":13576,"locked":13577,"Ġreusable":13578,"Ġproposal":13579,"inese":13580,"bucket":13581,"309":13582,"ORS":13583,"tf":13584,"Ġru":13585,"dependency":13586,"programmers":13587,"closure":13588,"Similar":13589,"stats":13590,"ĠWOR":13591,"ĠInjection":13592,"154":13593,"gun":13594,"onrails":13595,"depending":13596,"WR":13597,"Ġremoval":13598,"Notify":13599,"Ġconvol":13600,"craft":13601,"atra":13602,"ĠDan":13603,"ĠDispose":13604,"Extra":13605,"ĠCache":13606,"NSLog":13607,"FX":13608,"selection":13609,"],[":13610,"Ġexperimenting":13611,"Ġreact":13612,"Ġscanning":13613,"dotnet":13614,"ĠAuthentication":13615,"Running":13616,"SVN":13617,"kms":13618,"guess":13619,"mel":13620,"{$":13621,"Final":13622,"Ġparses":13623,"'=>":13624,"Pekka":13625,"yml":13626,"Ġnest":13627,"ĠInside":13628,"fork":13629,"information":13630,"adic":13631,"ĠNick":13632,"footer":13633,"irit":13634,"Ġnatively":13635,"Ram":13636,"TD":13637,"icator":13638,"Ġplane":13639,"Ġted":13640,"Ġ`[[":13641,"ABC":13642,"Ġexcess":13643,"Manifest":13644,"VALUE":13645,"pto":13646,"Ġgrace":13647,"Ġcountries":13648,"Ġopinions":13649,"Ġstepping":13650,"Cy":13651,"ĠMis":13652,"ĠFILE":13653,"demos":13654,"]`?":13655,"Ġenterprise":13656,"ĠBegin":13657,"quot":13658,"Ġinstruct":13659,"Ġbothered":13660,"ulas":13661,"modified":13662,"Ġunchanged":13663,"editing":13664,"ĠUIImageView":13665,"Ġstruts":13666,"UserDefaults":13667,"Working":13668,"ĠPowerShell":13669,"Cross":13670,"Ġshortest":13671,"MyAdmin":13672,"**?":13673,"Cha":13674,"ĠAssembly":13675,"ĠDim":13676,"Ġinvokes":13677,"ĠtoString":13678,"Ġ\"(":13679,"Ġclustered":13680,"Ġwater":13681,"Ġground":13682,"stringify":13683,"Ġsong":13684,"Ġemulate":13685,"priate":13686,"Ġmaxim":13687,"Tw":13688,"Ġincon":13689,"tail":13690,"ĠNe":13691,"Ġconsult":13692,"Ġffmpeg":13693,"Ġexha":13694,"George":13695,"?\".":13696,"basically":13697,"validator":13698,"3000":13699,"ĠJNI":13700,"ĠLar":13701,"Ġutilize":13702,"orical":13703,"ifications":13704,"*(":13705,"ĠSam":13706,"ĠOutlook":13707,"Ġanyhow":13708,"Ġvaries":13709,"Ġtempt":13710,"ĠOUT":13711,"Ġlesson":13712,"TagName":13713,"ctuation":13714,"Ġ800":13715,"Ġperiodically":13716,"Ġencapsulation":13717,"Ġbrace":13718,"ertools":13719,"far":13720,"Li":13721,"trying":13722,"Ġnearest":13723,"Ġcustomized":13724,"lc":13725,",...":13726,"334":13727,"Ġbackward":13728,"Destroy":13729,"lav":13730,"liner":13731,"Dynamic":13732,"Ġyellow":13733,"jboss":13734,"ĠSEO":13735,"Ġdraft":13736,"Ġplacement":13737,"stored":13738,"week":13739,"cro":13740,"sf":13741,"ieu":13742,"hit":13743,"soph":13744,"Ġoutlined":13745,"Ġconcerning":13746,".\".":13747,"sin":13748,"Ġbatter":13749,"Ġmechanisms":13750,"ĠIBM":13751,"ĠJosh":13752,"ĠOff":13753,"Struct":13754,"BC":13755,"ĠPOC":13756,"Ġjoke":13757,"Ġcd":13758,"popup":13759,"requests":13760,"ĠDevice":13761,"sometimes":13762,"getString":13763,"Syntax":13764,"icates":13765,"Ġwhoever":13766,"PLAIN":13767,"inate":13768,"212":13769,"animation":13770,"sequence":13771,"Ġclipboard":13772,"Ġsegue":13773,"Ġsplash":13774,"bars":13775,"directories":13776,"je":13777,"sugg":13778,"ĠDefinitely":13779,",%":13780,"âĢľ":13781,"Ġmoot":13782,"baz":13783,"Ġbot":13784,"Dict":13785,"stmt":13786,"notations":13787,"ONG":13788,"Ġsubprocess":13789,"ahh":13790,"rubyonrails":13791,"596":13792,"Ġdup":13793,"alter":13794,"lime":13795,"ĠReading":13796,"spr":13797,"ĠViewController":13798,"rames":13799,"Canvas":13800,"Ġcoverage":13801,"sensitive":13802,"Ġtie":13803,"Ġprev":13804,"Ġ33":13805,"Ġfourth":13806,"ĠUri":13807,"Controllers":13808,"servableCollection":13809,"Ġjumps":13810,"Ġelabor":13811,"cplusplus":13812,"nth":13813,"zoom":13814,"Ġscopes":13815,"hence":13816,"ialect":13817,"meaning":13818,"Ġresolving":13819,"Ġtemplating":13820,"Ġ\"@":13821,"Ġ:),":13822,"preview":13823,"Ġensures":13824,"\"'":13825,"mond":13826,"ĠSeriously":13827,"anonymous":13828,"ĠMU":13829,"Ġgraphic":13830,"bird":13831,"Ġfiled":13832,"logical":13833,"SDK":13834,"ĠNexus":13835,"204":13836,"Ġorganization":13837,"repl":13838,"ĠIve":13839,"retrie":13840,"Ġ35":13841,"Ġsemaphore":13842,"Ġroutines":13843,"Ġinterpolation":13844,"Ġcygwin":13845,"Protocol":13846,"Ġdelegation":13847,"ĠSocket":13848,"sens":13849,"Ġassociations":13850,"Ġrolled":13851,"ĠPM":13852,"room":13853,"Ġpersisted":13854,"ĠAwesome":13855,"rer":13856,"ĠSadly":13857,"yz":13858,"Ġthin":13859,"Ġdoll":13860,"Ġheck":13861,"Ġrock":13862,"Ġresulted":13863,"Moh":13864,"Ġrealloc":13865,"ĠGod":13866,"Ġseparating":13867,"Ġwifi":13868,"Boolean":13869,"ĠJob":13870,"Loop":13871,"ĠBook":13872,"cancel":13873,"ĠMFC":13874,"ĠInfo":13875,"Christian":13876,"crypt":13877,"Ġresolves":13878,"ĠStatus":13879,"/_":13880,"CUR":13881,"Nodes":13882,"rules":13883,"ĠSur":13884,"Ġpenal":13885,"ĠVer":13886,"Ġbear":13887,"Ġcoffee":13888,"Ġtrunk":13889,"Tunes":13890,"Ġdeserialize":13891,"ĠDOS":13892,"Ġscanner":13893,"Ġunnecessarily":13894,"Ġneighb":13895,"Ġplays":13896,"god":13897,"inja":13898,"ClassName":13899,"Ġselenium":13900,"Ġdelimiters":13901,"Da":13902,"Ġoccured":13903,"280":13904,"LP":13905,"Ġcurrency":13906,"Ġsigns":13907,"Ġmanages":13908,"epar":13909,"lated":13910,"rapping":13911,"ĠUnity":13912,"Ġspecialized":13913,"Ġclues":13914,"oauth":13915,"ĠTransaction":13916,"Ġages":13917,"Ġparsers":13918,"Ġtransitions":13919,"definitely":13920,"formatted":13921,"King":13922,"mr":13923,"Ġld":13924,"303":13925,"opencv":13926,"Ġfills":13927,"Success":13928,"Dimit":13929,"Ġpseud":13930,"repo":13931,"tl":13932,"ankly":13933,"boy":13934,"iden":13935,"Ġsyntactic":13936,"Sa":13937,"Ġdirected":13938,"156":13939,"Ġunderscores":13940,"Ġcompleteness":13941,"ĠCreating":13942,"jk":13943,"ĠBO":13944,"poll":13945,"compiling":13946,"conn":13947,"IDs":13948,"ĠBinary":13949,"ardo":13950,"Ġregularly":13951,"Fi":13952,"ĠComponent":13953,"explain":13954,"Ġbiz":13955,"ĠThanx":13956,"ĠDebu":13957,"259":13958,"135":13959,"oken":13960,"Ġcorp":13961,"includes":13962,"Ġimageview":13963,"ĠDependency":13964,"antity":13965,"Ġinherently":13966,"folders":13967,"196":13968,"Ġhomepage":13969,"FB":13970,"Ġreorder":13971,"thought":13972,".......":13973,"Meh":13974,"ĠWi":13975,"Ġneglig":13976,"Ġhehe":13977,"cin":13978,"Ġcpp":13979,"Ġ`>":13980,"Ġbur":13981,"Ġvariants":13982,"Ġtextures":13983,"Blue":13984,"ACTION":13985,"10000":13986,"?),":13987,"Msg":13988,"Span":13989,"216":13990,"ĠMail":13991,"ĠTHANKS":13992,"ĠWEB":13993,"objective":13994,"rating":13995,"Ġcounted":13996,"adec":13997,"Ġphonegap":13998,"ĠRange":13999,"Ġpreferably":14000,"jsf":14001,"Ġdoubts":14002,"rf":14003,"vd":14004,"Adrian":14005,"ĠAFTER":14006,"ĠCast":14007,"Ġexpired":14008,"Ġreduces":14009,"Implement":14010,"closest":14011,"vik":14012,"Ġtrap":14013,"186":14014,"Ġtreats":14015,"Ġdeferred":14016,"Ġamended":14017,"liable":14018,"Ġgenius":14019,"Apologies":14020,"references":14021,"mittedly":14022,"Ġdeliber":14023,"Unicode":14024,"AYS":14025,"Api":14026,"Ġhesit":14027,"Ġconsumption":14028,"Ġintellisense":14029,"Ġsheets":14030,"iry":14031,"mbed":14032,"ĠValidation":14033,"Ġcontinuously":14034,"cher":14035,"prev":14036,"Ġworded":14037,"asets":14038,"Ġdam":14039,"Ġspecially":14040,"ĠSk":14041,"CK":14042,"Ġquirks":14043,"Ġoverview":14044,"pasted":14045,"Tomalak":14046,"nostics":14047,"=&":14048,"vid":14049,"ĠIdea":14050,"ComboBox":14051,"Ġallocations":14052,"imag":14053,"Ġsuck":14054,"Ġintentionally":14055,"tell":14056,"Ġjumping":14057,"student":14058,"ĠBox":14059,"Ġnoticing":14060,"mas":14061,"DavidHeffernan":14062,"ĠRemoving":14063,"Ġinfluence":14064,"Keith":14065,"rass":14066,"zens":14067,"Ġinaccur":14068,"dictionary":14069,"Pet":14070,"ĠBackbone":14071,"broken":14072,"Jeremy":14073,"Ġmirror":14074,"Ġextensive":14075,"tests":14076,"Clip":14077,"Renderer":14078,"lie":14079,"ĠMIME":14080,"Ġparameterized":14081,"145":14082,":**":14083,"udging":14084,"Ġwrongly":14085,"Ġcorruption":14086,"Ġtreating":14087,"ĠOPs":14088,"Ġrebase":14089,"usage":14090,"388":14091,"ĠHeader":14092,"!,":14093,"Ġsympt":14094,"fly":14095,"Ġrepost":14096,"annes":14097,"FAULT":14098,"Ġprofessor":14099,"pet":14100,"rake":14101,"Ġcontrary":14102,"Hor":14103,"#?":14104,"romium":14105,"Regex":14106,"170":14107,"blur":14108,"Ġquotation":14109,"Cred":14110,"Je":14111,"ĠCURL":14112,"Ġvisitor":14113,"Absolutely":14114,"explicit":14115,"Ġperf":14116,"ertificate":14117,"inspect":14118,"Ġham":14119,"portion":14120,"keyboard":14121,"Ġ...\"":14122,"fp":14123,"alking":14124,"ArgumentException":14125,"ĠModule":14126,"prepared":14127,"'])":14128,"176":14129,"~~":14130,"Ġeat":14131,"andro":14132,"ĠTop":14133,"174":14134,"Ġscrolls":14135,"ĠGoing":14136,"Hidden":14137,"777":14138,"Counter":14139,"iqueness":14140,"EGIN":14141,"210":14142,"Ham":14143,"vor":14144,"Ġinfrastructure":14145,"ĠOptions":14146,"osh":14147,"Ġbuffered":14148,"ouple":14149,"paper":14150,"junction":14151,"having":14152,"Ġexporting":14153,"Sean":14154,"Ġfb":14155,"ĠBOM":14156,"Ġsubscribe":14157,"atar":14158,"anet":14159,"ecks":14160,"Ġresides":14161,"-%":14162,"Ġformatter":14163,"Definitely":14164,"Ġreq":14165,"Ġgate":14166,"ĠCO":14167,"Ġads":14168,"appengine":14169,"Ġtoolkit":14170,"bot":14171,"lint":14172,"ĠDAT":14173,"ĠVis":14174,"shouldn":14175,"mmed":14176,"SQLite":14177,"cards":14178,"Ġmime":14179,"Ġfli":14180,"Ġimplications":14181,"Ġdunno":14182,"DA":14183,"__.":14184,"ĠJAXB":14185,"oved":14186,"Ġnowadays":14187,"datab":14188,"sight":14189,"ĠOops":14190,"Ġsett":14191,"PO":14192,"Ġhttpd":14193,"ĠSSMS":14194,"Ġ\"+":14195,"ĠAsk":14196,"Personally":14197,"Ġoccasionally":14198,"making":14199,"Internal":14200,"Ġencodings":14201,"184":14202,"Ma":14203,"Ġsoap":14204,"Ġswipe":14205,"Fab":14206,"tok":14207,"Ġtruncated":14208,"sounds":14209,"Ġchaining":14210,"```":14211,"ĠONE":14212,"Ġsuits":14213,"perldoc":14214,"Ġfinite":14215,"Ġdepartment":14216,"ĠTitle":14217,"gallery":14218,"Ġhair":14219,"wrote":14220,"Ġpermanent":14221,"Arun":14222,"Ġptr":14223,"Ġproprietary":14224,"DownList":14225,"Enable":14226,"Ġlaz":14227,"Ġtexts":14228,"Formatter":14229,"ĠMaking":14230,"substr":14231,"'+":14232,"Ġparadig":14233,"Ġguard":14234,"GI":14235,"ĠXSD":14236,"acob":14237,"override":14238,"leave":14239,"ĠXSS":14240,"ĠFilter":14241,"Ġtedious":14242,"Ġsummar":14243,"Creating":14244,"nat":14245,"ĠCalendar":14246,"tips":14247,"Usually":14248,"Programming":14249,"ĠDist":14250,"Ġconfiguring":14251,"fragment":14252,"Ġwhit":14253,"Relative":14254,"Ġmeasuring":14255,"Ġidiomatic":14256,"HashCode":14257,"401":14258,"Ġcurs":14259,"Ġflicker":14260,"ĠEnvironment":14261,"bersome":14262,"Channel":14263,"Care":14264,"cx":14265,"Step":14266,"Ġdf":14267,"idimensional":14268,"Ġunset":14269,"ĠImplement":14270,"Had":14271,"lit":14272,"Ġretry":14273,"ĠGe":14274,"ĠClose":14275,"].[":14276,"ĠHost":14277,"647":14278,"Ġsucceeded":14279,"Ġsuspic":14280,"Za":14281,"Ġ`$('.":14282,"240":14283,"ĠWebView":14284,"Ġsynthes":14285,"Ġfundamentally":14286,"Ġadb":14287,"Recogn":14288,"RF":14289,"orrow":14290,"altern":14291,"mydomain":14292,"HC":14293,"odate":14294,"Ġsemantically":14295,"USE":14296,"Ġ`;`":14297,"rog":14298,"Ġgif":14299,"lias":14300,"ilosoph":14301,"Ġlookups":14302,"according":14303,"entin":14304,"Changing":14305,"azine":14306,"apan":14307,"Ġcharts":14308,"Ġartifact":14309,"`(":14310,"Ġsubstant":14311,"uploads":14312,"Gordon":14313,"zes":14314,"Ġpit":14315,"Ġdeserves":14316,"Validator":14317,"211":14318,"Ġpublicly":14319,"symfony":14320,"Pair":14321,"Ġterminates":14322,"Ġcorrectness":14323,"Ġresume":14324,"Subview":14325,"Ġhappily":14326,"addClass":14327,"Ġmaintainable":14328,"Virtual":14329,"iline":14330,"ĠRC":14331,"Refer":14332,"ĠElse":14333,"ĠCASE":14334,"Ġthreaded":14335,"bi":14336,"Share":14337,"Ġoptimisation":14338,"Gi":14339,"croll":14340,"Ġade":14341,"ĠEmail":14342,"External":14343,"INavigationController":14344,"dbo":14345,"Ġrectangles":14346,"Anthony":14347,"Ġswing":14348,"Ġ>>>":14349,"ĠEXISTS":14350,"ĠAttribute":14351,"FLAG":14352,"_?":14353,"adecimal":14354,"&&":14355,"Ġmicrosoft":14356,"XXXX":14357,"ara":14358,"Ġinsane":14359,"Ġderefer":14360,"Ġpret":14361,"299":14362,"ĠVARCHAR":14363,"Ġmodifies":14364,"ĠArg":14365,"Ġlambdas":14366,"Ġvalidations":14367,"ĠSSIS":14368,"WillAppear":14369,"Native":14370,"hal":14371,"jira":14372,"206":14373,"Ġserializing":14374,"PER":14375,"Ġfreeze":14376,"pthread":14377,"sha":14378,"Ġeager":14379,"Loading":14380,"ĠBlack":14381,"Ġscaled":14382,"Ġdialogs":14383,"Ġreflected":14384,"Ġacting":14385,"ĠCompare":14386,"ĠStatic":14387,"Ġintensive":14388,"Ġ\\\\":14389,"ĠJeff":14390,"Ġremind":14391,"Ġdice":14392,"radius":14393,"ller":14394,"279":14395,"ersey":14396,"andre":14397,"keyword":14398,"Ġtimed":14399,"ANT":14400,"Ġsubr":14401,"146":14402,"Ġresponds":14403,"mathworks":14404,"Ġhyperlink":14405,"dynamically":14406,"Ġunderstands":14407,"Andreas":14408,"indexPath":14409,"332":14410,"Flow":14411,"Ġjudge":14412,"Ġ36":14413,"Ġtoast":14414,"009":14415,"Ġactively":14416,"ĠREPL":14417,"ablo":14418,"urious":14419,"Us":14420,"icing":14421,"ĠPlugin":14422,"Ġestimate":14423,"Ġprinciples":14424,"verted":14425,"irc":14426,"ombie":14427,"ĠPascal":14428,"flat":14429,"Ġwat":14430,"Ġpowershell":14431,"ĠAT":14432,"ĠJenkins":14433,
[...]
